#include "magic_wand_model_data.h"

// We need to keep the data array aligned on some architectures.
#ifdef __has_attribute
#define HAVE_ATTRIBUTE(x) __has_attribute(x)
#else
#define HAVE_ATTRIBUTE(x) 0
#endif
#if HAVE_ATTRIBUTE(aligned) || (defined(__GNUC__) && !defined(__clang__))
#define DATA_ALIGN_ATTRIBUTE __attribute__((aligned(4)))
#else
#define DATA_ALIGN_ATTRIBUTE
#endif

const unsigned char g_magic_wand_model_data[] DATA_ALIGN_ATTRIBUTE = {
  // Paste the data of the char array in `src/model.cc` here

  0x1c, 0x00, 0x00, 0x00, 0x54, 0x46, 0x4c, 0x33, 0x14, 0x00, 0x20, 0x00,
  0x04, 0x00, 0x08, 0x00, 0x0c, 0x00, 0x10, 0x00, 0x14, 0x00, 0x00, 0x00,
  0x18, 0x00, 0x1c, 0x00, 0x14, 0x00, 0x00, 0x00, 0x03, 0x00, 0x00, 0x00,
  0x18, 0x00, 0x00, 0x00, 0x2c, 0x00, 0x00, 0x00, 0xd8, 0x00, 0x00, 0x00,
  0x2c, 0x00, 0x00, 0x00, 0x80, 0x00, 0x00, 0x00, 0x78, 0x00, 0x00, 0x00,
  0x05, 0x00, 0x00, 0x00, 0x28, 0x07, 0x00, 0x00, 0x44, 0x06, 0x00, 0x00,
  0xbc, 0x03, 0x00, 0x00, 0xf8, 0x02, 0x00, 0x00, 0xac, 0x01, 0x00, 0x00,
  0x01, 0x00, 0x00, 0x00, 0xd0, 0x00, 0x00, 0x00, 0x14, 0x00, 0x00, 0x00,
  0x98, 0x32, 0x00, 0x00, 0x94, 0x32, 0x00, 0x00, 0x8c, 0x31, 0x00, 0x00,
  0xd8, 0x30, 0x00, 0x00, 0x30, 0x30, 0x00, 0x00, 0xbc, 0x2f, 0x00, 0x00,
  0x50, 0x2f, 0x00, 0x00, 0x00, 0x13, 0x00, 0x00, 0xec, 0x11, 0x00, 0x00,
  0x10, 0x10, 0x00, 0x00, 0xb4, 0x07, 0x00, 0x00, 0x6c, 0x32, 0x00, 0x00,
  0x68, 0x32, 0x00, 0x00, 0x64, 0x32, 0x00, 0x00, 0x60, 0x32, 0x00, 0x00,
  0x5c, 0x32, 0x00, 0x00, 0x58, 0x32, 0x00, 0x00, 0x54, 0x32, 0x00, 0x00,
  0x50, 0x32, 0x00, 0x00, 0x3c, 0x00, 0x00, 0x00, 0x00, 0x00, 0x00, 0x00,
  0x01, 0x00, 0x00, 0x00, 0x0c, 0x00, 0x00, 0x00, 0x08, 0x00, 0x0c, 0x00,
  0x04, 0x00, 0x08, 0x00, 0x08, 0x00, 0x00, 0x00, 0x08, 0x00, 0x00, 0x00,
  0x13, 0x00, 0x00, 0x00, 0x13, 0x00, 0x00, 0x00, 0x6d, 0x69, 0x6e, 0x5f,
  0x72, 0x75, 0x6e, 0x74, 0x69, 0x6d, 0x65, 0x5f, 0x76, 0x65, 0x72, 0x73,
  0x69, 0x6f, 0x6e, 0x00, 0xfa, 0xce, 0xff, 0xff, 0x04, 0x00, 0x00, 0x00,
  0x10, 0x00, 0x00, 0x00, 0x31, 0x2e, 0x35, 0x2e, 0x30, 0x00, 0x00, 0x00,
  0x00, 0x00, 0x00, 0x00, 0x00, 0x00, 0x00, 0x00, 0x0f, 0x00, 0x00, 0x00,
  0x4d, 0x4c, 0x49, 0x52, 0x20, 0x43, 0x6f, 0x6e, 0x76, 0x65, 0x72, 0x74,
  0x65, 0x64, 0x2e, 0x00, 0x00, 0x00, 0x0e, 0x00, 0x18, 0x00, 0x04, 0x00,
  0x08, 0x00, 0x0c, 0x00, 0x10, 0x00, 0x14, 0x00, 0x0e, 0x00, 0x00, 0x00,
  0x14, 0x00, 0x00, 0x00, 0x5c, 0x00, 0x00, 0x00, 0x60, 0x00, 0x00, 0x00,
  0x64, 0x00, 0x00, 0x00, 0x84, 0x00, 0x00, 0x00, 0x12, 0x00, 0x00, 0x00,
  0x58, 0x31, 0x00, 0x00, 0xe8, 0x30, 0x00, 0x00, 0x44, 0x30, 0x00, 0x00,
  0x9c, 0x2f, 0x00, 0x00, 0xf4, 0x2e, 0x00, 0x00, 0x94, 0x2e, 0x00, 0x00,
  0x2c, 0x2e, 0x00, 0x00, 0xd8, 0x11, 0x00, 0x00, 0xbc, 0x10, 0x00, 0x00,
  0xe0, 0x0e, 0x00, 0x00, 0x0c, 0x06, 0x00, 0x00, 0x28, 0x05, 0x00, 0x00,
  0xe8, 0x03, 0x00, 0x00, 0x3c, 0x03, 0x00, 0x00, 0x98, 0x02, 0x00, 0x00,
  0xd4, 0x01, 0x00, 0x00, 0x10, 0x01, 0x00, 0x00, 0x84, 0x00, 0x00, 0x00,
  0x01, 0x00, 0x00, 0x00, 0x00, 0x00, 0x00, 0x00, 0x01, 0x00, 0x00, 0x00,
  0x11, 0x00, 0x00, 0x00, 0x08, 0x00, 0x00, 0x00, 0x74, 0x05, 0x00, 0x00,
  0x94, 0x04, 0x00, 0x00, 0x78, 0x03, 0x00, 0x00, 0xbc, 0x02, 0x00, 0x00,
  0x30, 0x02, 0x00, 0x00, 0x50, 0x01, 0x00, 0x00, 0xa8, 0x00, 0x00, 0x00,
  0x10, 0x00, 0x00, 0x00, 0x04, 0x00, 0x00, 0x00, 0x6d, 0x61, 0x69, 0x6e,
  0x00, 0x00, 0x00, 0x00, 0x7a, 0xff, 0xff, 0xff, 0x00, 0x00, 0x00, 0x09,
  0x04, 0x00, 0x00, 0x00, 0x1c, 0x00, 0x00, 0x00, 0x10, 0x00, 0x00, 0x00,
  0x04, 0x00, 0x00, 0x00, 0xf6, 0xcf, 0xff, 0xff, 0x00, 0x00, 0x80, 0x3f,
  0x01, 0x00, 0x00, 0x00, 0x11, 0x00, 0x00, 0x00, 0x01, 0x00, 0x00, 0x00,
  0x10, 0x00, 0x00, 0x00, 0xa0, 0xfa, 0xff, 0xff, 0x19, 0x00, 0x00, 0x00,
  0x00, 0x00, 0x00, 0x19, 0x01, 0x00, 0x00, 0x00, 0x84, 0xcf, 0xff, 0xff,
  0x14, 0x00, 0x00, 0x00, 0x12, 0x00, 0x00, 0x00, 0x18, 0x00, 0x00, 0x00,
  0x30, 0x00, 0x00, 0x00, 0x20, 0x00, 0x00, 0x00, 0x02, 0x00, 0x00, 0x00,
  0x01, 0x00, 0x00, 0x00, 0x03, 0x00, 0x00, 0x00, 0x08, 0x00, 0x00, 0x00,
  0x49, 0x64, 0x65, 0x6e, 0x74, 0x69, 0x74, 0x79, 0x00, 0x00, 0x00, 0x00,
  0x02, 0x00, 0x00, 0x00, 0xff, 0xff, 0xff, 0xff, 0x03, 0x00, 0x00, 0x00,
  0x68, 0xd0, 0xff, 0xff, 0x00, 0x00, 0x0e, 0x00, 0x18, 0x00, 0x08, 0x00,
  0x0c, 0x00, 0x10, 0x00, 0x07, 0x00, 0x14, 0x00, 0x0e, 0x00, 0x00, 0x00,
  0x00, 0x00, 0x00, 0x08, 0x03, 0x00, 0x00, 0x00, 0x18, 0x00, 0x00, 0x00,
  0x0c, 0x00, 0x00, 0x00, 0x04, 0x00, 0x00, 0x00, 0x84, 0xcf, 0xff, 0xff,
  0x01, 0x00, 0x00, 0x00, 0x10, 0x00, 0x00, 0x00, 0x03, 0x00, 0x00, 0x00,
  0x0f, 0x00, 0x00, 0x00, 0x07, 0x00, 0x00, 0x00, 0x04, 0x00, 0x00, 0x00,
  0x0c, 0xd0, 0xff, 0xff, 0x14, 0x00, 0x00, 0x00, 0x11, 0x00, 0x00, 0x00,
  0x18, 0x00, 0x00, 0x00, 0x5c, 0x00, 0x00, 0x00, 0x4c, 0x00, 0x00, 0x00,
  0x02, 0x00, 0x00, 0x00, 0x01, 0x00, 0x00, 0x00, 0x03, 0x00, 0x00, 0x00,
  0x34, 0x00, 0x00, 0x00, 0x73, 0x65, 0x71, 0x75, 0x65, 0x6e, 0x74, 0x69,
  0x61, 0x6c, 0x2f, 0x64, 0x65, 0x6e, 0x73, 0x65, 0x5f, 0x31, 0x2f, 0x4d,
  0x61, 0x74, 0x4d, 0x75, 0x6c, 0x3b, 0x73, 0x65, 0x71, 0x75, 0x65, 0x6e,
  0x74, 0x69, 0x61, 0x6c, 0x2f, 0x64, 0x65, 0x6e, 0x73, 0x65, 0x5f, 0x31,
  0x2f, 0x42, 0x69, 0x61, 0x73, 0x41, 0x64, 0x64, 0x00, 0x00, 0x00, 0x00,
  0x02, 0x00, 0x00, 0x00, 0xff, 0xff, 0xff, 0xff, 0x03, 0x00, 0x00, 0x00,
  0x0c, 0xd0, 0xff, 0xff, 0xda, 0xfc, 0xff, 0xff, 0x00, 0x00, 0x00, 0x08,
  0x03, 0x00, 0x00, 0x00, 0x24, 0x00, 0x00, 0x00, 0x18, 0x00, 0x00, 0x00,
  0x0c, 0x00, 0x00, 0x00, 0x00, 0x00, 0x06, 0x00, 0x08, 0x00, 0x07, 0x00,
  0x06, 0x00, 0x00, 0x00, 0x00, 0x00, 0x00, 0x01, 0x01, 0x00, 0x00, 0x00,
  0x0f, 0x00, 0x00, 0x00, 0x03, 0x00, 0x00, 0x00, 0x0e, 0x00, 0x00, 0x00,
  0x06, 0x00, 0x00, 0x00, 0x03, 0x00, 0x00, 0x00, 0xe8, 0xfb, 0xff, 0xff,
  0x09, 0x00, 0x00, 0x00, 0x00, 0x00, 0x00, 0x09, 0x01, 0x00, 0x00, 0x00,
  0xcc, 0xd0, 0xff, 0xff, 0x14, 0x00, 0x00, 0x00, 0x10, 0x00, 0x00, 0x00,
  0x18, 0x00, 0x00, 0x00, 0x6c, 0x00, 0x00, 0x00, 0x5c, 0x00, 0x00, 0x00,
  0x02, 0x00, 0x00, 0x00, 0x01, 0x00, 0x00, 0x00, 0x10, 0x00, 0x00, 0x00,
  0x46, 0x00, 0x00, 0x00, 0x73, 0x65, 0x71, 0x75, 0x65, 0x6e, 0x74, 0x69,
  0x61, 0x6c, 0x2f, 0x64, 0x65, 0x6e, 0x73, 0x65, 0x2f, 0x4d, 0x61, 0x74,
  0x4d, 0x75, 0x6c, 0x3b, 0x73, 0x65, 0x71, 0x75, 0x65, 0x6e, 0x74, 0x69,
  0x61, 0x6c, 0x2f, 0x64, 0x65, 0x6e, 0x73, 0x65, 0x2f, 0x52, 0x65, 0x6c,
  0x75, 0x3b, 0x73, 0x65, 0x71, 0x75, 0x65, 0x6e, 0x74, 0x69, 0x61, 0x6c,
  0x2f, 0x64, 0x65, 0x6e, 0x73, 0x65, 0x2f, 0x42, 0x69, 0x61, 0x73, 0x41,
  0x64, 0x64, 0x00, 0x00, 0x02, 0x00, 0x00, 0x00, 0xff, 0xff, 0xff, 0xff,
  0x10, 0x00, 0x00, 0x00, 0xec, 0xd1, 0xff, 0xff, 0x00, 0x00, 0x0a, 0x00,
  0x10, 0x00, 0x04, 0x00, 0x08, 0x00, 0x0c, 0x00, 0x0a, 0x00, 0x00, 0x00,
  0x02, 0x00, 0x00, 0x00, 0x10, 0x00, 0x00, 0x00, 0x04, 0x00, 0x00, 0x00,
  0x01, 0x00, 0x00, 0x00, 0x0e, 0x00, 0x00, 0x00, 0x02, 0x00, 0x00, 0x00,
  0x0d, 0x00, 0x00, 0x00, 0x05, 0x00, 0x00, 0x00, 0xa8, 0xfc, 0xff, 0xff,
  0x16, 0x00, 0x00, 0x00, 0x00, 0x00, 0x00, 0x16, 0x01, 0x00, 0x00, 0x00,
  0x8c, 0xd1, 0xff, 0xff, 0x14, 0x00, 0x00, 0x00, 0x0f, 0x00, 0x00, 0x00,
  0x18, 0x00, 0x00, 0x00, 0x40, 0x00, 0x00, 0x00, 0x30, 0x00, 0x00, 0x00,
  0x02, 0x00, 0x00, 0x00, 0x01, 0x00, 0x00, 0x00, 0x70, 0x00, 0x00, 0x00,
  0x1a, 0x00, 0x00, 0x00, 0x73, 0x65, 0x71, 0x75, 0x65, 0x6e, 0x74, 0x69,
  0x61, 0x6c, 0x2f, 0x66, 0x6c, 0x61, 0x74, 0x74, 0x65, 0x6e, 0x2f, 0x52,
  0x65, 0x73, 0x68, 0x61, 0x70, 0x65, 0x00, 0x00, 0x02, 0x00, 0x00, 0x00,
  0xff, 0xff, 0xff, 0xff, 0x70, 0x00, 0x00, 0x00, 0x70, 0xd1, 0xff, 0xff,
  0x3e, 0xfe, 0xff, 0xff, 0x00, 0x00, 0x00, 0x05, 0x01, 0x00, 0x00, 0x00,
  0x38, 0x00, 0x00, 0x00, 0x2c, 0x00, 0x00, 0x00, 0x14, 0x00, 0x00, 0x00,
  0x00, 0x00, 0x0e, 0x00, 0x14, 0x00, 0x00, 0x00, 0x10, 0x00, 0x0c, 0x00,
  0x08, 0x00, 0x04, 0x00, 0x0e, 0x00, 0x00, 0x00, 0x03, 0x00, 0x00, 0x00,
  0x01, 0x00, 0x00, 0x00, 0x03, 0x00, 0x00, 0x00, 0x01, 0x00, 0x00, 0x00,
  0x01, 0x00, 0x00, 0x00, 0x0d, 0x00, 0x00, 0x00, 0x01, 0x00, 0x00, 0x00,
  0x0c, 0x00, 0x00, 0x00, 0x2c, 0xd2, 0xff, 0xff, 0x14, 0x00, 0x00, 0x00,
  0x0e, 0x00, 0x00, 0x00, 0x20, 0x00, 0x00, 0x00, 0x58, 0x00, 0x00, 0x00,
  0x40, 0x00, 0x00, 0x00, 0x04, 0x00, 0x00, 0x00, 0x01, 0x00, 0x00, 0x00,
  0x07, 0x00, 0x00, 0x00, 0x01, 0x00, 0x00, 0x00, 0x10, 0x00, 0x00, 0x00,
  0x22, 0x00, 0x00, 0x00, 0x73, 0x65, 0x71, 0x75, 0x65, 0x6e, 0x74, 0x69,
  0x61, 0x6c, 0x2f, 0x6d, 0x61, 0x78, 0x5f, 0x70, 0x6f, 0x6f, 0x6c, 0x69,
  0x6e, 0x67, 0x32, 0x64, 0x5f, 0x31, 0x2f, 0x4d, 0x61, 0x78, 0x50, 0x6f,
  0x6f, 0x6c, 0x00, 0x00, 0x04, 0x00, 0x00, 0x00, 0xff, 0xff, 0xff, 0xff,
  0x07, 0x00, 0x00, 0x00, 0x01, 0x00, 0x00, 0x00, 0x10, 0x00, 0x00, 0x00,
  0x28, 0xd2, 0xff, 0xff, 0x1a, 0xfe, 0xff, 0xff, 0x00, 0x00, 0x00, 0x01,
  0x24, 0x00, 0x00, 0x00, 0x18, 0x00, 0x00, 0x00, 0x04, 0x00, 0x00, 0x00,
  0x0c, 0xfe, 0xff, 0xff, 0x01, 0x00, 0x00, 0x00, 0x01, 0x00, 0x00, 0x00,
  0x00, 0x00, 0x00, 0x01, 0x01, 0x00, 0x00, 0x00, 0x0c, 0x00, 0x00, 0x00,
  0x03, 0x00, 0x00, 0x00, 0x0b, 0x00, 0x00, 0x00, 0x09, 0x00, 0x00, 0x00,
  0x02, 0x00, 0x00, 0x00, 0xd4, 0xd2, 0xff, 0xff, 0x14, 0x00, 0x00, 0x00,
  0x0d, 0x00, 0x00, 0x00, 0x20, 0x00, 0x00, 0x00, 0xb8, 0x00, 0x00, 0x00,
  0xa0, 0x00, 0x00, 0x00, 0x04, 0x00, 0x00, 0x00, 0x01, 0x00, 0x00, 0x00,
  0x15, 0x00, 0x00, 0x00, 0x01, 0x00, 0x00, 0x00, 0x10, 0x00, 0x00, 0x00,
  0x83, 0x00, 0x00, 0x00, 0x73, 0x65, 0x71, 0x75, 0x65, 0x6e, 0x74, 0x69,
  0x61, 0x6c, 0x2f, 0x63, 0x6f, 0x6e, 0x76, 0x32, 0x64, 0x5f, 0x31, 0x2f,
  0x52, 0x65, 0x6c, 0x75, 0x3b, 0x73, 0x65, 0x71, 0x75, 0x65, 0x6e, 0x74,
  0x69, 0x61, 0x6c, 0x2f, 0x63, 0x6f, 0x6e, 0x76, 0x32, 0x64, 0x5f, 0x31,
  0x2f, 0x42, 0x69, 0x61, 0x73, 0x41, 0x64, 0x64, 0x3b, 0x73, 0x65, 0x71,
  0x75, 0x65, 0x6e, 0x74, 0x69, 0x61, 0x6c, 0x2f, 0x63, 0x6f, 0x6e, 0x76,
  0x32, 0x64, 0x5f, 0x31, 0x2f, 0x43, 0x6f, 0x6e, 0x76, 0x32, 0x44, 0x3b,
  0x73, 0x65, 0x71, 0x75, 0x65, 0x6e, 0x74, 0x69, 0x61, 0x6c, 0x2f, 0x63,
  0x6f, 0x6e, 0x76, 0x32, 0x64, 0x5f, 0x31, 0x2f, 0x42, 0x69, 0x61, 0x73,
  0x41, 0x64, 0x64, 0x2f, 0x52, 0x65, 0x61, 0x64, 0x56, 0x61, 0x72, 0x69,
  0x61, 0x62, 0x6c, 0x65, 0x4f, 0x70, 0x2f, 0x72, 0x65, 0x73, 0x6f, 0x75,
  0x72, 0x63, 0x65, 0x00, 0x04, 0x00, 0x00, 0x00, 0xff, 0xff, 0xff, 0xff,
  0x15, 0x00, 0x00, 0x00, 0x01, 0x00, 0x00, 0x00, 0x10, 0x00, 0x00, 0x00,
  0x40, 0xd4, 0xff, 0xff, 0x00, 0x00, 0x0e, 0x00, 0x1a, 0x00, 0x08, 0x00,
  0x0c, 0x00, 0x10, 0x00, 0x07, 0x00, 0x14, 0x00, 0x0e, 0x00, 0x00, 0x00,
  0x00, 0x00, 0x00, 0x05, 0x01, 0x00, 0x00, 0x00, 0x3c, 0x00, 0x00, 0x00,
  0x30, 0x00, 0x00, 0x00, 0x14, 0x00, 0x00, 0x00, 0x00, 0x00, 0x0e, 0x00,
  0x18, 0x00, 0x17, 0x00, 0x10, 0x00, 0x0c, 0x00, 0x08, 0x00, 0x04, 0x00,
  0x0e, 0x00, 0x00, 0x00, 0x03, 0x00, 0x00, 0x00, 0x03, 0x00, 0x00, 0x00,
  0x03, 0x00, 0x00, 0x00, 0x03, 0x00, 0x00, 0x00, 0x00, 0x00, 0x00, 0x01,
  0x01, 0x00, 0x00, 0x00, 0x0b, 0x00, 0x00, 0x00, 0x01, 0x00, 0x00, 0x00,
  0x0a, 0x00, 0x00, 0x00, 0x2c, 0xff, 0xff, 0xff, 0x11, 0x00, 0x00, 0x00,
  0x00, 0x00, 0x00, 0x11, 0x01, 0x00, 0x00, 0x00, 0x10, 0xd4, 0xff, 0xff,
  0x14, 0x00, 0x00, 0x00, 0x0c, 0x00, 0x00, 0x00, 0x20, 0x00, 0x00, 0x00,
  0x58, 0x00, 0x00, 0x00, 0x40, 0x00, 0x00, 0x00, 0x04, 0x00, 0x00, 0x00,
  0x01, 0x00, 0x00, 0x00, 0x15, 0x00, 0x00, 0x00, 0x01, 0x00, 0x00, 0x00,
  0x08, 0x00, 0x00, 0x00, 0x20, 0x00, 0x00, 0x00, 0x73, 0x65, 0x71, 0x75,
  0x65, 0x6e, 0x74, 0x69, 0x61, 0x6c, 0x2f, 0x6d, 0x61, 0x78, 0x5f, 0x70,
  0x6f, 0x6f, 0x6c, 0x69, 0x6e, 0x67, 0x32, 0x64, 0x2f, 0x4d, 0x61, 0x78,
  0x50, 0x6f, 0x6f, 0x6c, 0x00, 0x00, 0x00, 0x00, 0x04, 0x00, 0x00, 0x00,
  0xff, 0xff, 0xff, 0xff, 0x15, 0x00, 0x00, 0x00, 0x01, 0x00, 0x00, 0x00,
  0x08, 0x00, 0x00, 0x00, 0x1c, 0xd5, 0xff, 0xff, 0x00, 0x00, 0x0e, 0x00,
  0x14, 0x00, 0x00, 0x00, 0x08, 0x00, 0x0c, 0x00, 0x07, 0x00, 0x10, 0x00,
  0x0e, 0x00, 0x00, 0x00, 0x00, 0x00, 0x00, 0x01, 0x30, 0x00, 0x00, 0x00,
  0x24, 0x00, 0x00, 0x00, 0x10, 0x00, 0x00, 0x00, 0x0c, 0x00, 0x10, 0x00,
  0x00, 0x00, 0x04, 0x00, 0x08, 0x00, 0x0f, 0x00, 0x0c, 0x00, 0x00, 0x00,
  0x01, 0x00, 0x00, 0x00, 0x01, 0x00, 0x00, 0x00, 0x00, 0x00, 0x00, 0x01,
  0x01, 0x00, 0x00, 0x00, 0x0a, 0x00, 0x00, 0x00, 0x03, 0x00, 0x00, 0x00,
  0x00, 0x00, 0x00, 0x00, 0x08, 0x00, 0x00, 0x00, 0x01, 0x00, 0x00, 0x00,
  0x0c, 0x00, 0x10, 0x00, 0x0b, 0x00, 0x00, 0x00, 0x0c, 0x00, 0x04, 0x00,
  0x0c, 0x00, 0x00, 0x00, 0x03, 0x00, 0x00, 0x00, 0x00, 0x00, 0x00, 0x03,
  0x01, 0x00, 0x00, 0x00, 0xf0, 0xd4, 0xff, 0xff, 0x14, 0x00, 0x00, 0x00,
  0x0b, 0x00, 0x00, 0x00, 0x20, 0x00, 0x00, 0x00, 0xb0, 0x00, 0x00, 0x00,
  0x98, 0x00, 0x00, 0x00, 0x04, 0x00, 0x00, 0x00, 0x01, 0x00, 0x00, 0x00,
  0x40, 0x00, 0x00, 0x00, 0x03, 0x00, 0x00, 0x00, 0x08, 0x00, 0x00, 0x00,
  0x7b, 0x00, 0x00, 0x00, 0x73, 0x65, 0x71, 0x75, 0x65, 0x6e, 0x74, 0x69,
  0x61, 0x6c, 0x2f, 0x63, 0x6f, 0x6e, 0x76, 0x32, 0x64, 0x2f, 0x52, 0x65,
  0x6c, 0x75, 0x3b, 0x73, 0x65, 0x71, 0x75, 0x65, 0x6e, 0x74, 0x69, 0x61,
  0x6c, 0x2f, 0x63, 0x6f, 0x6e, 0x76, 0x32, 0x64, 0x2f, 0x42, 0x69, 0x61,
  0x73, 0x41, 0x64, 0x64, 0x3b, 0x73, 0x65, 0x71, 0x75, 0x65, 0x6e, 0x74,
  0x69, 0x61, 0x6c, 0x2f, 0x63, 0x6f, 0x6e, 0x76, 0x32, 0x64, 0x2f, 0x43,
  0x6f, 0x6e, 0x76, 0x32, 0x44, 0x3b, 0x73, 0x65, 0x71, 0x75, 0x65, 0x6e,
  0x74, 0x69, 0x61, 0x6c, 0x2f, 0x63, 0x6f, 0x6e, 0x76, 0x32, 0x64, 0x2f,
  0x42, 0x69, 0x61, 0x73, 0x41, 0x64, 0x64, 0x2f, 0x52, 0x65, 0x61, 0x64,
  0x56, 0x61, 0x72, 0x69, 0x61, 0x62, 0x6c, 0x65, 0x4f, 0x70, 0x2f, 0x72,
  0x65, 0x73, 0x6f, 0x75, 0x72, 0x63, 0x65, 0x00, 0x04, 0x00, 0x00, 0x00,
  0xff, 0xff, 0xff, 0xff, 0x40, 0x00, 0x00, 0x00, 0x03, 0x00, 0x00, 0x00,
  0x08, 0x00, 0x00, 0x00, 0x44, 0xd5, 0xff, 0xff, 0x4e, 0xd6, 0xff, 0xff,
  0x04, 0x00, 0x00, 0x00, 0x00, 0x08, 0x00, 0x00, 0xea, 0x60, 0xc8, 0x3d,
  0x29, 0xe7, 0x36, 0xbe, 0x2e, 0x51, 0xb0, 0xbd, 0xb5, 0xe0, 0x40, 0x3e,
  0x7e, 0xc0, 0xd4, 0x3c, 0xf1, 0x20, 0x5c, 0x3e, 0xe8, 0x78, 0x0a, 0x3e,
  0xd8, 0x36, 0x21, 0x3d, 0x79, 0xde, 0xab, 0x3d, 0x8c, 0x4d, 0x29, 0x3d,
  0x29, 0x36, 0x87, 0xbc, 0xe8, 0xb2, 0xf0, 0x3d, 0xbc, 0xb6, 0xbb, 0xbd,
  0x14, 0x9e, 0x24, 0x3e, 0x15, 0xd8, 0x11, 0xbe, 0x1f, 0xc0, 0x80, 0xbe,
  0x1c, 0x31, 0x61, 0xbe, 0x7a, 0x98, 0xe9, 0xbc, 0x5b, 0xec, 0xb3, 0x3d,
  0x8f, 0x8d, 0x42, 0xbc, 0xae, 0x93, 0x4d, 0x3e, 0xc8, 0xae, 0x76, 0xbc,
  0x68, 0x8d, 0x2e, 0xbd, 0xce, 0x35, 0x42, 0xbe, 0xed, 0x56, 0x98, 0x3d,
  0x78, 0xd8, 0xb3, 0xbd, 0x55, 0x80, 0x01, 0x3d, 0x83, 0xd0, 0xef, 0x3d,
  0x43, 0xdf, 0x41, 0x3e, 0x93, 0xf7, 0x82, 0xbe, 0x2d, 0x1d, 0xfb, 0x3d,
  0x08, 0x66, 0x8c, 0x3c, 0xe7, 0x3f, 0x3b, 0x3e, 0x6e, 0x72, 0x76, 0xbe,
  0x41, 0x23, 0x92, 0xbe, 0xb0, 0x2d, 0x08, 0xbe, 0xf6, 0x41, 0x24, 0x3e,
  0x0d, 0xad, 0xe9, 0x3b, 0xff, 0x6e, 0x93, 0xbd, 0xae, 0x4f, 0xac, 0xbc,
  0x2d, 0xe1, 0xce, 0x3d, 0xe2, 0x5e, 0xf4, 0xbd, 0xc1, 0xa0, 0x25, 0xbd,
  0xd4, 0x8c, 0x30, 0xbe, 0xe6, 0xc9, 0x36, 0xbd, 0x80, 0xdc, 0xe7, 0xbd,
  0x95, 0x60, 0x5c, 0xbc, 0xa3, 0x50, 0x20, 0xbe, 0x06, 0x55, 0x3d, 0x3d,
  0xd7, 0x17, 0x82, 0x3d, 0xd4, 0xaf, 0x2e, 0x3d, 0x46, 0x57, 0xb5, 0xbe,
  0x9a, 0x99, 0x77, 0x3e, 0x63, 0x16, 0x24, 0x3e, 0xa1, 0xde, 0x23, 0x3e,
  0xe1, 0xc7, 0xbd, 0xbe, 0x3d, 0xb7, 0x47, 0xbe, 0x6c, 0x27, 0x02, 0x3e,
  0x22, 0x60, 0x25, 0xbe, 0xee, 0x5e, 0x49, 0x3c, 0x5e, 0x68, 0x97, 0xbe,
  0x2e, 0xfd, 0xc6, 0x3d, 0x40, 0x4b, 0x86, 0x3d, 0x93, 0x0b, 0x22, 0xbe,
  0x51, 0xa9, 0xa1, 0xbe, 0x00, 0x44, 0xd0, 0xbd, 0xeb, 0x6a, 0x3c, 0x3d,
  0xbe, 0x47, 0x77, 0xbe, 0xcd, 0xaf, 0x82, 0xbe, 0x6a, 0xff, 0x24, 0x3d,
  0xf2, 0x01, 0xf9, 0xbc, 0x60, 0x61, 0xa8, 0xbd, 0xe7, 0xbd, 0x96, 0xbd,
  0x82, 0x31, 0x93, 0xbe, 0x55, 0xa3, 0x6c, 0x3d, 0xcc, 0x5b, 0x69, 0x3a,
  0xf0, 0xdf, 0x91, 0xbd, 0xea, 0xa2, 0x95, 0x3d, 0x50, 0xb6, 0x31, 0xbd,
  0x38, 0xfb, 0xaf, 0x3d, 0xd9, 0xa7, 0x2c, 0xbe, 0x92, 0xb2, 0x70, 0xbe,
  0x67, 0xde, 0x9d, 0xbe, 0xeb, 0x66, 0xf0, 0xbc, 0x0f, 0x34, 0x2f, 0xbe,
  0xb7, 0xac, 0xe7, 0xbd, 0x00, 0xc6, 0x56, 0xbe, 0x85, 0x9a, 0xcd, 0x3d,
  0x35, 0x8d, 0x7e, 0xbd, 0x3a, 0xee, 0xdb, 0xbc, 0xd9, 0xae, 0xeb, 0x3d,
  0x55, 0x8b, 0xd6, 0xbd, 0xc0, 0xfb, 0xc9, 0xbd, 0x5c, 0x07, 0xbf, 0xbd,
  0xab, 0x32, 0x6d, 0xbc, 0x31, 0x50, 0x36, 0xbd, 0x3e, 0xab, 0xd4, 0x3d,
  0x17, 0x6c, 0x17, 0xbe, 0xac, 0x69, 0xea, 0x3c, 0x8e, 0xd6, 0xeb, 0x3d,
  0x77, 0xb7, 0x85, 0xbe, 0x82, 0xe6, 0xec, 0x3b, 0xec, 0xeb, 0xcd, 0xbc,
  0x4b, 0xcf, 0xac, 0xbc, 0xd8, 0x4d, 0xde, 0xbd, 0xce, 0xd1, 0x1f, 0xbe,
  0xf5, 0xf2, 0xaf, 0x3e, 0x1f, 0x28, 0x18, 0xbe, 0x17, 0x90, 0xf3, 0x3e,
  0x4a, 0x1f, 0xbb, 0xbe, 0xff, 0xba, 0x43, 0xbd, 0x77, 0x13, 0x41, 0x3e,
  0xa1, 0xb2, 0x47, 0x3d, 0x11, 0x95, 0x69, 0xbe, 0x10, 0xcd, 0x17, 0xbd,
  0xeb, 0xc8, 0x1b, 0x3e, 0x4f, 0x09, 0xcc, 0x3e, 0x2e, 0x5e, 0xa7, 0xbe,
  0x3d, 0x38, 0x95, 0xbc, 0xd9, 0x9e, 0x0a, 0xbd, 0x7b, 0x96, 0x13, 0x3e,
  0x92, 0x8f, 0x9e, 0x3d, 0x08, 0x50, 0xbe, 0x3d, 0x75, 0x21, 0xb9, 0xbe,
  0x2a, 0x6a, 0xba, 0x3d, 0xac, 0xd2, 0x9b, 0xbe, 0x87, 0xf0, 0x8c, 0xbd,
  0xbc, 0xad, 0xf9, 0xbc, 0x5f, 0xf6, 0xcc, 0xbd, 0x1c, 0xd7, 0x5c, 0x3c,
  0x45, 0x09, 0x2c, 0x3d, 0xe1, 0x32, 0x26, 0x3e, 0x43, 0xfb, 0x7e, 0x3e,
  0xa7, 0x4c, 0x2d, 0x3e, 0x3d, 0xe4, 0xb5, 0x3d, 0xb7, 0x7e, 0x91, 0xbe,
  0x61, 0x42, 0xb9, 0x3d, 0xf6, 0xa4, 0x88, 0x3d, 0x63, 0x1d, 0xa8, 0xbd,
  0xcc, 0xb1, 0x89, 0xbe, 0xc4, 0x09, 0x6e, 0x3e, 0xe8, 0x1a, 0x5c, 0xbe,
  0xe8, 0x0b, 0x8e, 0xbd, 0x74, 0x0f, 0x15, 0xbe, 0x8d, 0xde, 0x35, 0x3c,
  0x75, 0x98, 0x21, 0xbe, 0x3d, 0x0b, 0x9b, 0x3d, 0xd8, 0xea, 0x9b, 0x3d,
  0xa6, 0xf0, 0xcc, 0x3d, 0x21, 0xb4, 0x0f, 0x3e, 0x0c, 0x9a, 0x1d, 0xbe,
  0x80, 0x2e, 0xd4, 0x3d, 0xff, 0xd5, 0x00, 0xbe, 0xc4, 0xb8, 0xb8, 0x3d,
  0x17, 0x43, 0x34, 0xbe, 0x2d, 0xbc, 0x11, 0xbe, 0x95, 0xb3, 0xc5, 0xbb,
  0x7b, 0xe6, 0x49, 0x3e, 0x52, 0x3c, 0x3c, 0xbe, 0xcc, 0xa4, 0x92, 0xbe,
  0x30, 0x4a, 0x0a, 0xbe, 0xbe, 0x9b, 0x68, 0xbe, 0x36, 0x0d, 0x1b, 0xbc,
  0xa7, 0x4f, 0xbe, 0xbd, 0xd1, 0xe2, 0xf5, 0x3d, 0x63, 0xc6, 0x92, 0x3d,
  0xf5, 0x50, 0x72, 0xbe, 0xe2, 0x0d, 0x14, 0xbe, 0xbd, 0xaf, 0x7a, 0xbe,
  0x8a, 0x5f, 0x64, 0xbe, 0xb9, 0x5d, 0x05, 0xbe, 0x28, 0xf6, 0x4c, 0xbe,
  0x4d, 0xd1, 0x83, 0xbe, 0x9d, 0xd2, 0x65, 0xbd, 0xb6, 0x2a, 0x0e, 0x3e,
  0xc4, 0x47, 0x7f, 0xbe, 0xb2, 0xdd, 0x9c, 0xbe, 0x86, 0x1c, 0xd1, 0x3c,
  0x82, 0xa8, 0x95, 0x3d, 0x59, 0xb8, 0x41, 0xbd, 0x75, 0xe6, 0x65, 0xbe,
  0xac, 0xbc, 0x97, 0x3d, 0x78, 0x5b, 0x34, 0xbd, 0xc4, 0xda, 0xec, 0xbd,
  0x5a, 0x9e, 0xb7, 0xbc, 0xe1, 0x45, 0x22, 0x3e, 0x14, 0xc8, 0x56, 0x3e,
  0x82, 0x7b, 0x88, 0xbe, 0x83, 0xb2, 0x74, 0xbd, 0x72, 0x42, 0x69, 0xbe,
  0xcf, 0x38, 0x85, 0xbd, 0x01, 0x47, 0x5c, 0x3d, 0xc2, 0xd0, 0x03, 0xbe,
  0x2d, 0xef, 0xca, 0xbd, 0x8c, 0x30, 0xf2, 0x3b, 0xe2, 0x11, 0x52, 0x3d,
  0xe6, 0x0e, 0xf7, 0x3e, 0x06, 0x5c, 0x24, 0xbd, 0x71, 0x3b, 0x05, 0xbd,
  0x66, 0x14, 0xef, 0xbd, 0xe3, 0x59, 0x10, 0x3d, 0x2f, 0x00, 0x3e, 0xbe,
  0x8c, 0xd4, 0x84, 0x3e, 0xd4, 0x9d, 0x6f, 0x3e, 0x08, 0x7c, 0xe3, 0x3e,
  0x28, 0x63, 0x8f, 0x3e, 0x28, 0xb4, 0x41, 0xbe, 0xd1, 0xeb, 0xa1, 0xbd,
  0x95, 0xdc, 0x3f, 0xbd, 0x97, 0x45, 0x40, 0xbe, 0x58, 0x6b, 0x28, 0x3e,
  0x42, 0x9d, 0xac, 0x3e, 0xdc, 0x78, 0xb9, 0x3e, 0xf8, 0x5c, 0xcd, 0x3e,
  0x73, 0x6e, 0x7d, 0xbe, 0xee, 0xfb, 0x85, 0xbe, 0x69, 0x3c, 0x74, 0x3c,
  0x4b, 0x52, 0x08, 0xbe, 0x27, 0x74, 0x8f, 0xbd, 0x15, 0x99, 0x9d, 0x3e,
  0xe6, 0x34, 0xe6, 0x3e, 0xbd, 0x98, 0xcf, 0x3e, 0x8a, 0xd1, 0x85, 0xbe,
  0x52, 0xa5, 0x2d, 0xbe, 0xf5, 0x8c, 0xfc, 0x3d, 0xaf, 0x22, 0x4e, 0xbd,
  0xc6, 0x73, 0xc2, 0x3d, 0xae, 0x13, 0x8f, 0x3e, 0xc0, 0x50, 0x42, 0x3d,
  0x45, 0x7b, 0xc8, 0x3d, 0x6f, 0x5e, 0x06, 0xbe, 0x91, 0x4b, 0x5f, 0xbd,
  0x54, 0x99, 0xa1, 0xbd, 0x80, 0x46, 0xde, 0xbd, 0x94, 0x21, 0x1d, 0xbe,
  0xd8, 0xe1, 0x99, 0xbe, 0x6f, 0x41, 0x6d, 0x3e, 0x6f, 0x14, 0x3f, 0xbe,
  0x3f, 0x62, 0x0c, 0x3e, 0xd9, 0xf2, 0x61, 0xbe, 0xc6, 0xb6, 0x87, 0xbd,
  0x02, 0x03, 0x4e, 0x3d, 0xe3, 0xc0, 0x2e, 0x3d, 0xfb, 0x33, 0xaa, 0xbd,
  0xd4, 0xd5, 0xa3, 0xbe, 0x5a, 0x22, 0xc6, 0x3d, 0xcc, 0xf0, 0xb9, 0xbe,
  0xbd, 0x44, 0x8f, 0x3d, 0x4e, 0x0a, 0x29, 0x3d, 0x3e, 0xed, 0x83, 0xbe,
  0x09, 0x66, 0xbe, 0xbe, 0xc2, 0x10, 0x1e, 0xbd, 0xa8, 0x83, 0x7b, 0xbd,
  0x98, 0xf0, 0x28, 0xbe, 0x4f, 0x1c, 0xf8, 0xbd, 0x88, 0xfa, 0x3a, 0x3e,
  0xb2, 0x61, 0x52, 0xbe, 0x4f, 0xcc, 0x18, 0xbd, 0x71, 0xe6, 0x83, 0x3e,
  0x82, 0x5d, 0xa6, 0xbe, 0x41, 0xf8, 0x0c, 0xbd, 0xb3, 0x12, 0xec, 0xbe,
  0x9a, 0xc9, 0x21, 0x3e, 0xed, 0x61, 0xab, 0x3d, 0x27, 0x6c, 0x37, 0xbe,
  0x67, 0xb5, 0xb3, 0xbd, 0x8a, 0x65, 0xcc, 0xbd, 0x40, 0x58, 0xcd, 0xbe,
  0x57, 0xf9, 0xdd, 0x3d, 0x51, 0x94, 0x5a, 0xbd, 0xc9, 0x7c, 0x1b, 0x3e,
  0xa1, 0x96, 0xa7, 0x3c, 0x5c, 0x0e, 0xa6, 0x3e, 0xb1, 0x9c, 0x6d, 0xbd,
  0x85, 0x43, 0xc4, 0xbc, 0x99, 0xff, 0xa8, 0xbe, 0xcf, 0xf1, 0xab, 0x3e,
  0x2c, 0xa4, 0xe1, 0x3d, 0x4d, 0xeb, 0x5d, 0x3e, 0x50, 0x6f, 0x1c, 0x3e,
  0x4d, 0x22, 0x91, 0x3d, 0x1a, 0x96, 0xb0, 0xbb, 0x7b, 0xac, 0x46, 0xbd,
  0x8b, 0x64, 0x96, 0xbd, 0x34, 0x25, 0xee, 0x3d, 0xa7, 0xd3, 0x9c, 0xbe,
  0x5a, 0x39, 0xc9, 0xbd, 0x99, 0xec, 0xc5, 0x3b, 0x71, 0x10, 0x42, 0x3e,
  0x81, 0x45, 0xa4, 0x3e, 0x67, 0xb7, 0xe5, 0xbd, 0x76, 0x26, 0xe9, 0xbd,
  0x70, 0x37, 0xa1, 0xbe, 0x59, 0x25, 0x2e, 0xbd, 0x40, 0x9e, 0x1a, 0xbe,
  0x9f, 0xb6, 0x9b, 0xbd, 0xed, 0xac, 0x25, 0xbe, 0x55, 0x2f, 0xd6, 0x3c,
  0xfe, 0x1b, 0x5f, 0x3d, 0x02, 0x4f, 0x5d, 0x3e, 0x17, 0xc8, 0x88, 0xbe,
  0x7a, 0xe1, 0x71, 0x3e, 0x05, 0x78, 0x2d, 0xbc, 0xa0, 0xcf, 0x16, 0x3e,
  0x36, 0x2b, 0x48, 0xbe, 0x4d, 0x3d, 0x58, 0x3e, 0x04, 0x3f, 0xb8, 0x3d,
  0xc7, 0xef, 0x6e, 0xbb, 0x3e, 0x0d, 0xa7, 0x3c, 0xcc, 0x92, 0x51, 0xbe,
  0x6f, 0x58, 0xc3, 0xbd, 0x30, 0x16, 0x07, 0x3d, 0x7b, 0x46, 0x54, 0x3e,
  0x06, 0x2e, 0x8d, 0x3d, 0x86, 0x30, 0xb7, 0xbb, 0x62, 0xd5, 0xcf, 0xbc,
  0xff, 0x9a, 0xa2, 0x3d, 0xcc, 0xcb, 0x11, 0x3e, 0x2a, 0x21, 0x36, 0x3e,
  0xfb, 0xbe, 0x33, 0x3e, 0xdd, 0x24, 0x1b, 0xbe, 0x9d, 0xe9, 0xc0, 0x3d,
  0xe3, 0x64, 0x11, 0xbe, 0x2f, 0xa2, 0x4d, 0xbe, 0xdf, 0x56, 0x64, 0xbe,
  0x20, 0x66, 0x1c, 0xbe, 0xbe, 0xf1, 0xb2, 0x3e, 0x9d, 0x05, 0x58, 0x3d,
  0x85, 0x0e, 0xd8, 0x3d, 0xe3, 0x37, 0xac, 0x3e, 0xe6, 0xe9, 0xae, 0xbd,
  0x93, 0x69, 0x94, 0xbe, 0xfd, 0x4e, 0xa1, 0xbe, 0xa6, 0x99, 0x78, 0xbb,
  0x03, 0xe3, 0xc7, 0x3e, 0x80, 0x59, 0x2c, 0x3e, 0x49, 0xe1, 0x4c, 0xbe,
  0xe9, 0x01, 0x87, 0x3e, 0xf3, 0x5d, 0xba, 0xbd, 0x52, 0x78, 0xac, 0xbe,
  0x94, 0xaa, 0x64, 0xbe, 0x9e, 0x49, 0x5b, 0xbe, 0x91, 0xb9, 0x6f, 0x3e,
  0xfe, 0xc5, 0x6e, 0x3e, 0x45, 0x20, 0xa9, 0x3d, 0x25, 0x52, 0x9d, 0x3e,
  0x29, 0x68, 0x27, 0x3e, 0x65, 0x74, 0x86, 0xbd, 0x0b, 0x33, 0x8a, 0xbe,
  0xc2, 0x88, 0x01, 0xbe, 0x6d, 0x07, 0x22, 0xbc, 0x30, 0xb9, 0x66, 0x3e,
  0x5d, 0xf1, 0x24, 0xbc, 0xde, 0x86, 0x34, 0xbd, 0xaf, 0x83, 0x91, 0xbe,
  0xbb, 0x16, 0xa7, 0xbd, 0x9a, 0x25, 0x7b, 0xbe, 0x9b, 0x18, 0x19, 0xbe,
  0xac, 0xe2, 0x9a, 0xbe, 0x13, 0x7f, 0xaa, 0xbc, 0x6f, 0x23, 0x09, 0x3e,
  0x44, 0xcb, 0x06, 0xbe, 0x4d, 0x0e, 0xfa, 0xbd, 0xe1, 0x52, 0x68, 0x3d,
  0x5f, 0x0c, 0x6e, 0x3e, 0xe8, 0xf4, 0x86, 0xbd, 0x5f, 0xdc, 0xe2, 0xbd,
  0x35, 0x1b, 0x4d, 0xbe, 0xe2, 0xa1, 0x4c, 0xbd, 0x1c, 0x23, 0x54, 0xbd,
  0x83, 0xaf, 0x71, 0x3e, 0xd2, 0x12, 0xf7, 0xbd, 0xff, 0xef, 0x1c, 0xbd,
  0xc2, 0x70, 0x48, 0x3c, 0xe6, 0xeb, 0x25, 0x3d, 0x96, 0xa8, 0x12, 0x3c,
  0x8c, 0x5c, 0x55, 0xbe, 0x5a, 0x22, 0xb8, 0xbd, 0xfb, 0x2a, 0x96, 0x3a,
  0x49, 0x9e, 0x10, 0x3e, 0xaf, 0xe4, 0x4f, 0x3e, 0x60, 0x51, 0xe4, 0xbd,
  0xab, 0xcf, 0xb3, 0x3d, 0x9e, 0xd0, 0xec, 0xbb, 0x03, 0xd8, 0x3c, 0x3d,
  0xb3, 0xa3, 0x1d, 0xbe, 0xfd, 0xba, 0x9b, 0xbe, 0xd4, 0x14, 0x18, 0x3d,
  0x57, 0xad, 0x8e, 0xbe, 0x14, 0x73, 0x18, 0x3e, 0x96, 0x7f, 0x38, 0xbd,
  0x61, 0x8e, 0x63, 0xbd, 0x4e, 0xc3, 0x82, 0x3e, 0xe4, 0xcd, 0x21, 0x3e,
  0x54, 0xdd, 0xd6, 0xbd, 0xa3, 0x54, 0xee, 0x3d, 0xf0, 0xeb, 0x90, 0xbe,
  0xc6, 0xb4, 0x76, 0x3e, 0xc4, 0xc6, 0x4d, 0x3e, 0x73, 0x89, 0x0d, 0x3e,
  0x0a, 0x41, 0xb7, 0xbd, 0xd1, 0x9a, 0x12, 0xbe, 0x9f, 0x49, 0x3d, 0x3e,
  0x18, 0x3e, 0xb4, 0xbc, 0xea, 0xa1, 0xa0, 0x3d, 0xe5, 0xe9, 0x19, 0xbd,
  0x71, 0x78, 0xcf, 0xbd, 0xc0, 0x60, 0x75, 0xbe, 0x57, 0xcc, 0x52, 0xbd,
  0xe3, 0x1d, 0xa5, 0x3d, 0x6d, 0xa0, 0x1e, 0x3d, 0xb4, 0x57, 0x06, 0xbe,
  0x81, 0xc9, 0x1e, 0xbe, 0xd1, 0xe8, 0x28, 0x3e, 0x09, 0xa9, 0x79, 0xbe,
  0xa2, 0x99, 0x27, 0xbe, 0xb1, 0x6b, 0xe2, 0x3d, 0x3e, 0x83, 0x1d, 0xbb,
  0x13, 0xf7, 0x5c, 0x3d, 0x1b, 0x2a, 0xde, 0xbe, 0xd6, 0x29, 0x15, 0x3c,
  0xd9, 0xe7, 0x03, 0xbd, 0x41, 0xaf, 0x9b, 0x3e, 0xfb, 0xb6, 0xa1, 0x3e,
  0x83, 0xaf, 0xa1, 0x3d, 0xbd, 0xaf, 0xc2, 0x3e, 0x1b, 0xb9, 0x10, 0xbe,
  0xcb, 0x78, 0xba, 0xbe, 0x17, 0xaa, 0x8b, 0xbe, 0x69, 0x3b, 0x33, 0xbe,
  0x0e, 0xc9, 0xbb, 0x3c, 0xc3, 0xfc, 0xd4, 0xbd, 0xbc, 0x41, 0x38, 0xbe,
  0xeb, 0x72, 0xc0, 0x3e, 0xd7, 0x7e, 0x5b, 0xbe, 0xe5, 0x14, 0x86, 0xbe,
  0x06, 0xfa, 0xc4, 0xbe, 0xae, 0x3d, 0x92, 0xbe, 0x4a, 0xb2, 0x2d, 0x3e,
  0xd3, 0xdf, 0x97, 0x3e, 0x10, 0x38, 0x89, 0x3e, 0xb1, 0xd2, 0xdd, 0x3e,
  0xf6, 0x81, 0x3a, 0xbe, 0x6e, 0xa3, 0xaa, 0xbe, 0x91, 0x31, 0x33, 0x3c,
  0x37, 0x00, 0xa4, 0xbe, 0x24, 0xf3, 0x5b, 0x3c, 0xbd, 0x81, 0x90, 0x3e,
  0x96, 0x14, 0x2b, 0x3e, 0xae, 0x4d, 0xa1, 0x3d, 0x4c, 0x7d, 0xbe, 0x3d,
  0xc6, 0xe4, 0x43, 0xbe, 0xaf, 0x9e, 0x4e, 0xbe, 0xd1, 0x07, 0xe3, 0x3d,
  0xf3, 0xa9, 0x72, 0x3e, 0xb2, 0x24, 0x26, 0x3e, 0xcc, 0x19, 0x2e, 0xbe,
  0x0e, 0x7b, 0x79, 0x3e, 0x5f, 0x3c, 0x0d, 0xbe, 0xb0, 0x65, 0x80, 0xbe,
  0x18, 0xed, 0x85, 0xbe, 0xa7, 0xb8, 0x5a, 0xbe, 0x9d, 0x69, 0x23, 0x3e,
  0x54, 0x28, 0x1a, 0xbd, 0x86, 0x00, 0x40, 0xbc, 0xf2, 0xf6, 0x4a, 0xbe,
  0x1e, 0x3e, 0x28, 0xbe, 0x16, 0xb5, 0x28, 0xbe, 0x6e, 0x86, 0xa1, 0xbd,
  0x0b, 0x7e, 0xe0, 0xbd, 0xdf, 0x0c, 0xe1, 0x3c, 0xa3, 0xa6, 0x8a, 0x3d,
  0x26, 0x62, 0x30, 0xbe, 0xc4, 0x61, 0xd7, 0x3e, 0xce, 0x90, 0x65, 0xbd,
  0x9a, 0xad, 0x96, 0xbd, 0x51, 0x09, 0x0c, 0x3c, 0xbc, 0x0c, 0x94, 0xbe,
  0x75, 0x59, 0xbd, 0x3c, 0xd3, 0x4a, 0x34, 0x3d, 0xeb, 0x21, 0x76, 0x3c,
  0x59, 0x20, 0x9e, 0xbe, 0xc7, 0x22, 0x6f, 0xbb, 0x16, 0x2e, 0x2d, 0x3e,
  0x79, 0xfa, 0x43, 0xbc, 0xd3, 0xaa, 0x3a, 0x3d, 0x7d, 0x81, 0x6f, 0xbd,
  0x3f, 0xed, 0xd9, 0xbd, 0xb6, 0x07, 0x31, 0x3d, 0x59, 0xc3, 0xc9, 0xbb,
  0x00, 0x7d, 0x95, 0x3d, 0xdc, 0xf1, 0xac, 0xbd, 0xb9, 0xaa, 0x35, 0x3e,
  0xd5, 0xbb, 0xb0, 0x3d, 0xc5, 0x5e, 0xca, 0xbd, 0xa0, 0x48, 0x0c, 0x3d,
  0xa6, 0x0d, 0xe3, 0xbd, 0xef, 0xa7, 0xb5, 0xbe, 0x7f, 0x4d, 0xa0, 0x3e,
  0xba, 0x9d, 0x95, 0xbe, 0x85, 0x3b, 0xbd, 0x3e, 0x32, 0xc8, 0x8b, 0xbd,
  0xf6, 0xe9, 0x98, 0xbd, 0x90, 0x87, 0x13, 0x3d, 0xca, 0xad, 0x05, 0x3e,
  0x43, 0x36, 0x48, 0x3c, 0x01, 0xf7, 0x19, 0xbe, 0xb7, 0xc6, 0x8f, 0xbd,
  0x07, 0x26, 0xe5, 0x3d, 0xff, 0x7f, 0xc2, 0x3d, 0x28, 0x77, 0x2d, 0xbd,
  0x8d, 0x31, 0x7f, 0xbd, 0x26, 0xde, 0xff, 0xff, 0x10, 0x00, 0x00, 0x00,
  0x0a, 0x00, 0x00, 0x00, 0x1c, 0x00, 0x00, 0x00, 0x38, 0x00, 0x00, 0x00,
  0x04, 0x00, 0x00, 0x00, 0x10, 0x00, 0x00, 0x00, 0x04, 0x00, 0x00, 0x00,
  0x01, 0x00, 0x00, 0x00, 0x08, 0x00, 0x00, 0x00, 0x1a, 0x00, 0x00, 0x00,
  0x73, 0x65, 0x71, 0x75, 0x65, 0x6e, 0x74, 0x69, 0x61, 0x6c, 0x2f, 0x63,
  0x6f, 0x6e, 0x76, 0x32, 0x64, 0x5f, 0x31, 0x2f, 0x43, 0x6f, 0x6e, 0x76,
  0x32, 0x44, 0x00, 0x00, 0x9c, 0xdd, 0xff, 0xff, 0xa6, 0xde, 0xff, 0xff,
  0x04, 0x00, 0x00, 0x00, 0x80, 0x01, 0x00, 0x00, 0xdb, 0x0a, 0xd7, 0xbd,
  0x43, 0x90, 0x51, 0xbd, 0x68, 0x7f, 0x62, 0xbe, 0x3a, 0xe8, 0x1c, 0x3e,
  0x54, 0xd2, 0xa3, 0xbd, 0x7c, 0xf8, 0xe8, 0xbc, 0xfc, 0x23, 0x29, 0x3d,
  0xc2, 0x72, 0x86, 0xbd, 0xe1, 0x5d, 0xca, 0x3d, 0x12, 0xbd, 0x5e, 0x3e,
  0x2f, 0x37, 0x70, 0x3e, 0x8d, 0x29, 0xf8, 0x3d, 0xc6, 0xa8, 0x50, 0x3e,
  0xc3, 0xf7, 0x61, 0x3e, 0x8f, 0x15, 0xe4, 0xbd, 0x51, 0xe7, 0x0e, 0xbe,
  0xd2, 0xd3, 0x65, 0x3e, 0xff, 0xc8, 0x0d, 0x3e, 0xd4, 0xbe, 0xa4, 0x3e,
  0xd6, 0x61, 0x9f, 0x3d, 0xdb, 0x01, 0x39, 0xbe, 0x24, 0x48, 0x61, 0x3e,
  0x81, 0xc5, 0xa7, 0xbb, 0xb8, 0xbb, 0xe8, 0xbd, 0xd1, 0xa1, 0xf7, 0xbd,
  0x02, 0x72, 0x53, 0xbe, 0x68, 0x56, 0x0c, 0x3e, 0xb1, 0x1f, 0x17, 0xbd,
  0x57, 0x67, 0xf7, 0xbe, 0xdf, 0xea, 0x4e, 0x3c, 0x4b, 0xf5, 0xe4, 0x3d,
  0xc0, 0x34, 0x1c, 0xbe, 0xa8, 0x1b, 0x0b, 0xbe, 0x07, 0x17, 0x3d, 0xbc,
  0xd0, 0xa8, 0x8d, 0xbe, 0xd7, 0xb7, 0xc9, 0x3b, 0xaf, 0xdf, 0x20, 0x3f,
  0x40, 0x6d, 0xd6, 0x3c, 0x49, 0x22, 0x0f, 0x3e, 0xc1, 0xb2, 0x09, 0x3f,
  0x4b, 0x01, 0xc2, 0xbd, 0x91, 0x33, 0x03, 0xbe, 0x4c, 0xe0, 0x1f, 0x3f,
  0x53, 0xae, 0xd0, 0xb9, 0x63, 0x61, 0x3a, 0x3e, 0x9a, 0x84, 0xdb, 0x3e,
  0xff, 0x24, 0x3b, 0x3e, 0xed, 0xd5, 0xd7, 0xbd, 0xb2, 0xc5, 0x48, 0xbe,
  0xf7, 0x65, 0xd4, 0xbe, 0xfc, 0x9d, 0x89, 0x3b, 0x3c, 0xd8, 0xea, 0x3d,
  0xbd, 0x12, 0xea, 0xbe, 0xa3, 0x79, 0x1c, 0x3e, 0x89, 0x59, 0x0b, 0xbe,
  0xac, 0xf4, 0xac, 0xbe, 0x56, 0x24, 0x36, 0xbd, 0x10, 0xa3, 0xf5, 0xbd,
  0x7a, 0x58, 0xa0, 0xbe, 0x74, 0x73, 0x5c, 0x3b, 0xfa, 0x3a, 0x01, 0x3f,
  0xa3, 0x8d, 0x24, 0xbd, 0x65, 0x66, 0x04, 0x3e, 0xb5, 0xc7, 0x28, 0x3e,
  0x14, 0xec, 0xf6, 0xbd, 0xf7, 0xad, 0xbc, 0xbc, 0xc7, 0x64, 0xfc, 0x3e,
  0x10, 0x44, 0x84, 0x3d, 0xd7, 0xb7, 0x04, 0x3e, 0x9f, 0x11, 0x0f, 0x3f,
  0x56, 0xa2, 0x49, 0x3e, 0xa9, 0x02, 0x5c, 0x3d, 0x21, 0x8c, 0x39, 0x3e,
  0xe4, 0x90, 0x21, 0x3e, 0xd6, 0x2e, 0xa3, 0xbd, 0x23, 0x6b, 0x9d, 0x3e,
  0x30, 0x9b, 0x85, 0x3d, 0x44, 0x20, 0x2d, 0xbd, 0x7f, 0x57, 0xeb, 0xbd,
  0xdb, 0x4d, 0x39, 0x3d, 0x12, 0xbc, 0xed, 0x3d, 0x49, 0x5a, 0x26, 0xbd,
  0xbb, 0x3a, 0xd4, 0x3d, 0xde, 0x76, 0x22, 0xbd, 0xc2, 0xe9, 0x5b, 0x3e,
  0x45, 0xc3, 0x2c, 0x3d, 0xfd, 0xf0, 0xc9, 0x3d, 0x49, 0x5f, 0xdc, 0x3d,
  0x2a, 0x67, 0x85, 0x3e, 0xa0, 0x7c, 0x9a, 0xbe, 0xf5, 0xf6, 0xf7, 0xbd,
  0x40, 0xb2, 0x79, 0x3c, 0xf7, 0xdd, 0x79, 0xbd, 0xf8, 0x1d, 0x91, 0xbd,
  0x81, 0x48, 0x54, 0x3e, 0x22, 0x7a, 0xa7, 0xbd, 0xfe, 0xdf, 0xff, 0xff,
  0x10, 0x00, 0x00, 0x00, 0x09, 0x00, 0x00, 0x00, 0x1c, 0x00, 0x00, 0x00,
  0x38, 0x00, 0x00, 0x00, 0x04, 0x00, 0x00, 0x00, 0x08, 0x00, 0x00, 0x00,
  0x04, 0x00, 0x00, 0x00, 0x03, 0x00, 0x00, 0x00, 0x01, 0x00, 0x00, 0x00,
  0x18, 0x00, 0x00, 0x00, 0x73, 0x65, 0x71, 0x75, 0x65, 0x6e, 0x74, 0x69,
  0x61, 0x6c, 0x2f, 0x63, 0x6f, 0x6e, 0x76, 0x32, 0x64, 0x2f, 0x43, 0x6f,
  0x6e, 0x76, 0x32, 0x44, 0x00, 0x00, 0x00, 0x00, 0x74, 0xdf, 0xff, 0xff,
  0x7e, 0xe0, 0xff, 0xff, 0x04, 0x00, 0x00, 0x00, 0xc0, 0x00, 0x00, 0x00,
  0xa8, 0xf8, 0x37, 0x3e, 0x88, 0x31, 0xbd, 0xbe, 0x95, 0x1d, 0x60, 0xbe,
  0xf0, 0xfe, 0x88, 0x3e, 0xb8, 0x3f, 0x5e, 0x3e, 0x2f, 0x1d, 0xc5, 0x3e,
  0xe3, 0xb3, 0xce, 0xbd, 0x74, 0x4a, 0xee, 0x3e, 0xb5, 0x11, 0x82, 0xbe,
  0x03, 0xc4, 0xeb, 0xbc, 0x05, 0x4f, 0x99, 0xbe, 0x76, 0xbf, 0xc1, 0xbe,
  0xbe, 0xbf, 0xe5, 0x3e, 0xf1, 0xd9, 0xcc, 0x3e, 0x01, 0xda, 0x67, 0x3d,
  0xe2, 0x62, 0x9d, 0x3e, 0x92, 0x80, 0xc9, 0xbe, 0x6e, 0xea, 0xf1, 0xbe,
  0x12, 0x5d, 0x62, 0xbe, 0xe0, 0x9b, 0xf2, 0x3e, 0xd4, 0xfa, 0xc6, 0x3e,
  0x44, 0xb0, 0x57, 0x3e, 0xc0, 0xee, 0xfa, 0xbe, 0x01, 0x19, 0xe3, 0x3e,
  0x1a, 0xcf, 0xc7, 0x3e, 0x3f, 0xe8, 0xa3, 0x3e, 0xcc, 0x1c, 0xa6, 0xbe,
  0x10, 0x0e, 0x9e, 0xbe, 0x53, 0xbc, 0x45, 0x3e, 0xa9, 0xba, 0x2d, 0xbe,
  0x37, 0x54, 0xcd, 0xbe, 0x05, 0x21, 0xca, 0x3e, 0x7e, 0xf5, 0xfb, 0xbd,
  0xb3, 0x91, 0x28, 0x3e, 0x7a, 0xd1, 0x39, 0x3e, 0x20, 0x32, 0xc5, 0xbe,
  0x84, 0xb1, 0xa6, 0x3d, 0x32, 0x93, 0x99, 0x3d, 0x2c, 0x1c, 0xbd, 0xbe,
  0x37, 0xb8, 0xdb, 0xbe, 0xf3, 0xf9, 0xa8, 0xbe, 0x66, 0x8e, 0xa3, 0xbe,
  0xc7, 0x0f, 0x91, 0xbe, 0x65, 0xf9, 0x5f, 0xbe, 0x44, 0xd1, 0x6c, 0xbe,
  0xf2, 0x81, 0xc6, 0xbb, 0x0d, 0x6f, 0xba, 0xbe, 0x7b, 0x89, 0xc4, 0xbe,
  0x16, 0xe1, 0xff, 0xff, 0x10, 0x00, 0x00, 0x00, 0x08, 0x00, 0x00, 0x00,
  0x14, 0x00, 0x00, 0x00, 0x30, 0x00, 0x00, 0x00, 0x02, 0x00, 0x00, 0x00,
  0x03, 0x00, 0x00, 0x00, 0x10, 0x00, 0x00, 0x00, 0x19, 0x00, 0x00, 0x00,
  0x73, 0x65, 0x71, 0x75, 0x65, 0x6e, 0x74, 0x69, 0x61, 0x6c, 0x2f, 0x64,
  0x65, 0x6e, 0x73, 0x65, 0x5f, 0x31, 0x2f, 0x4d, 0x61, 0x74, 0x4d, 0x75,
  0x6c, 0x00, 0x00, 0x00, 0x84, 0xe0, 0xff, 0xff, 0x8e, 0xe1, 0xff, 0xff,
  0x04, 0x00, 0x00, 0x00, 0x00, 0x1c, 0x00, 0x00, 0x06, 0x9a, 0x21, 0x3e,
  0x1c, 0x8b, 0x33, 0xbe, 0xbc, 0x47, 0x48, 0xbe, 0xae, 0x18, 0xcf, 0xbd,
  0xeb, 0xd6, 0x3a, 0x3e, 0xe2, 0x28, 0xcd, 0xbd, 0x39, 0x07, 0x33, 0xbd,
  0x23, 0xee, 0x5e, 0xbe, 0x5c, 0x4c, 0xcd, 0xbd, 0xaf, 0x9b, 0xf9, 0x3d,
  0xcf, 0x22, 0x61, 0xbe, 0x58, 0xfc, 0xb9, 0x39, 0xa6, 0x20, 0xf6, 0x3c,
  0x67, 0x73, 0x98, 0x3d, 0x50, 0x50, 0x21, 0xbe, 0x4f, 0xf2, 0xfd, 0xbc,
  0xb7, 0x81, 0x39, 0xbe, 0xfc, 0x3a, 0xd5, 0xbd, 0xe0, 0x66, 0x63, 0x3d,
  0x71, 0x3a, 0x36, 0x3c, 0x5b, 0x45, 0x0a, 0x3e, 0x41, 0x22, 0x18, 0xbd,
  0x80, 0xe4, 0x89, 0xbd, 0x0e, 0x71, 0x0a, 0xbd, 0x1c, 0xde, 0x88, 0xbc,
  0x14, 0x15, 0x54, 0xbe, 0x10, 0xef, 0x6b, 0xbd, 0x84, 0xaa, 0x62, 0x3d,
  0x8f, 0x28, 0x39, 0x3e, 0x6f, 0x7b, 0x92, 0xbc, 0x6e, 0x9d, 0x75, 0x3d,
  0xca, 0x67, 0x3a, 0x3c, 0x57, 0xd2, 0xfb, 0xbd, 0xdc, 0xec, 0x74, 0xbd,
  0x18, 0x49, 0xcf, 0x3d, 0xe9, 0x37, 0x8b, 0x3d, 0x1c, 0xf8, 0x38, 0x3e,
  0x4d, 0xcd, 0x21, 0x3e, 0xc4, 0xd0, 0x74, 0xbe, 0x14, 0x40, 0x2f, 0x3e,
  0xfc, 0xb5, 0xb1, 0x3d, 0xac, 0x3a, 0x5e, 0xbc, 0x65, 0x29, 0x38, 0x3d,
  0x20, 0x03, 0x21, 0x3e, 0xc9, 0x01, 0xbf, 0xbd, 0x04, 0xe3, 0x3d, 0xbe,
  0x0b, 0xeb, 0x14, 0x3c, 0x75, 0x4e, 0x27, 0xbe, 0x3e, 0x62, 0x04, 0x3d,
  0x57, 0xc9, 0x1a, 0x3e, 0x07, 0x46, 0x56, 0xbc, 0xc2, 0x27, 0xe5, 0x3d,
  0xe6, 0x60, 0x43, 0xbe, 0xdb, 0xcd, 0x16, 0xbe, 0x7b, 0x83, 0x5b, 0x3d,
  0xfd, 0xc2, 0x17, 0x3e, 0x73, 0x2d, 0xe9, 0xbc, 0x53, 0x32, 0x8f, 0xbe,
  0x98, 0x28, 0xd7, 0xbd, 0x35, 0x50, 0xba, 0x3d, 0x6b, 0x16, 0x68, 0xbe,
  0xe5, 0xea, 0x1e, 0xbd, 0x5f, 0x5c, 0x40, 0xbe, 0x66, 0x4c, 0xc7, 0x3d,
  0x28, 0x95, 0x63, 0xbd, 0xab, 0x16, 0xd7, 0xbd, 0xab, 0xf6, 0xd8, 0xbd,
  0x42, 0x1d, 0x34, 0xbd, 0x0d, 0xb2, 0xb8, 0xbc, 0x18, 0xc1, 0x35, 0x3e,
  0xd8, 0x34, 0x75, 0xbe, 0xc6, 0x70, 0xd0, 0x3c, 0xb7, 0x66, 0x09, 0xbe,
  0xbc, 0x31, 0x81, 0xbe, 0xa6, 0x44, 0xad, 0xbc, 0x35, 0xaf, 0x33, 0xbe,
  0xe1, 0xda, 0x8d, 0x3d, 0xd3, 0xa3, 0x13, 0x3e, 0x15, 0xee, 0x55, 0xbe,
  0x5d, 0xa2, 0xad, 0x3d, 0xcb, 0x58, 0xcf, 0x3b, 0x34, 0xb2, 0xde, 0x3c,
  0xa0, 0x42, 0x31, 0x3e, 0xc7, 0x47, 0x3d, 0xbe, 0x24, 0xb3, 0xde, 0xbd,
  0x84, 0xeb, 0xb3, 0xbd, 0x51, 0xe8, 0x1c, 0x3e, 0x87, 0xd6, 0x78, 0x3d,
  0x44, 0x5f, 0x2f, 0xbe, 0xe3, 0x5d, 0xed, 0xbd, 0x43, 0x59, 0xfe, 0xbd,
  0x46, 0xb2, 0xb4, 0xbd, 0x22, 0x38, 0x0c, 0x3e, 0x16, 0x38, 0x4e, 0xbb,
  0x1d, 0xfb, 0x79, 0x3d, 0xa7, 0x61, 0xc0, 0xbd, 0x13, 0xd1, 0xa1, 0xbd,
  0xe6, 0xa2, 0xf5, 0xbd, 0xa5, 0x55, 0xab, 0xbd, 0xde, 0x19, 0x22, 0xbe,
  0x09, 0x83, 0x05, 0xbe, 0x7b, 0x82, 0x29, 0xbe, 0xf7, 0xa3, 0x39, 0x3d,
  0x8c, 0xd7, 0x92, 0xbd, 0xa8, 0x65, 0x16, 0x3d, 0xf1, 0xd5, 0x85, 0xbe,
  0x3a, 0xd5, 0xe9, 0x3c, 0x54, 0x51, 0x80, 0x3c, 0x67, 0x5c, 0x56, 0xbe,
  0x0a, 0x23, 0x3a, 0xbe, 0xa1, 0xb1, 0x42, 0x3d, 0xe1, 0x7a, 0x1e, 0x3d,
  0xcb, 0x1c, 0x9f, 0x3d, 0x24, 0x5b, 0x7b, 0x3d, 0x98, 0xb9, 0xf3, 0x3d,
  0x3b, 0xf8, 0xee, 0x3c, 0x5e, 0x68, 0x3e, 0x3e, 0x61, 0xec, 0xb7, 0x3d,
  0x38, 0xb0, 0x9a, 0x3e, 0x9a, 0x09, 0x8c, 0x3b, 0x7d, 0x74, 0x84, 0x3d,
  0xf7, 0x78, 0xbb, 0xbd, 0x04, 0x13, 0x16, 0xbe, 0xd5, 0x39, 0x0c, 0x3c,
  0x2c, 0xf4, 0xd6, 0x3b, 0x27, 0xb7, 0xe8, 0xbc, 0x21, 0x7c, 0x89, 0xbe,
  0x15, 0xfd, 0xc8, 0xbd, 0xc3, 0xf8, 0xb8, 0x3d, 0xe6, 0x0a, 0x9f, 0xbd,
  0xc2, 0x05, 0x70, 0xbc, 0x79, 0x19, 0x61, 0xbd, 0x7d, 0xaf, 0x1f, 0x3e,
  0x3f, 0xfe, 0x00, 0xba, 0xf8, 0x88, 0xad, 0x3e, 0xa3, 0xd6, 0xa2, 0x3c,
  0x13, 0x33, 0x4e, 0xbe, 0x8e, 0xbf, 0x22, 0xbd, 0x7a, 0xc0, 0xad, 0x3d,
  0xaa, 0x10, 0xde, 0x3d, 0x4c, 0x53, 0xce, 0x3e, 0xe6, 0x97, 0x34, 0xbe,
  0x30, 0x90, 0xef, 0xbd, 0x86, 0xed, 0xbf, 0xbd, 0x6d, 0xa1, 0x82, 0x3c,
  0x16, 0xbd, 0x99, 0xbd, 0x78, 0x20, 0x06, 0x3e, 0x91, 0xb2, 0x0a, 0x3e,
  0x14, 0x11, 0x13, 0x3e, 0x62, 0x35, 0x8e, 0xbd, 0x4a, 0xba, 0xa6, 0x3e,
  0x76, 0x20, 0x5b, 0x3e, 0x62, 0x19, 0xbc, 0x3d, 0xc2, 0x5d, 0x76, 0x3d,
  0xf2, 0x20, 0x5b, 0xbe, 0x2e, 0x24, 0xad, 0x3c, 0xa4, 0x1f, 0x48, 0x3e,
  0x0e, 0xd9, 0x48, 0xbe, 0x38, 0x47, 0x51, 0x3b, 0x12, 0xae, 0xf3, 0xbd,
  0x9b, 0xb6, 0xbd, 0xbc, 0x27, 0x8a, 0x22, 0xbe, 0xa6, 0xb7, 0x51, 0x3e,
  0x2a, 0x93, 0x81, 0x3e, 0x69, 0x33, 0x6c, 0x3d, 0x15, 0x09, 0x99, 0xbd,
  0x8e, 0xe8, 0x65, 0x3e, 0xbe, 0xdc, 0xac, 0xbd, 0xac, 0x27, 0x4a, 0xbe,
  0x1e, 0x3e, 0x65, 0xbd, 0xb5, 0xed, 0x8c, 0xbd, 0xe5, 0xa6, 0x10, 0x3e,
  0x50, 0x97, 0xa8, 0x3d, 0xc1, 0xc4, 0x88, 0xbe, 0x47, 0x7b, 0x60, 0x3d,
  0xf4, 0x5a, 0x00, 0xbe, 0x13, 0x67, 0xf8, 0xbd, 0x53, 0x01, 0x0b, 0x3e,
  0xc6, 0x83, 0x16, 0xbd, 0xa1, 0x0a, 0x63, 0xbd, 0xb7, 0x9e, 0x03, 0x3d,
  0x7c, 0xc7, 0x32, 0xbe, 0x1d, 0x20, 0x94, 0x3e, 0xd6, 0x22, 0x05, 0x3d,
  0x08, 0xb4, 0x09, 0x3e, 0x67, 0xab, 0x5c, 0x3d, 0x8f, 0x9c, 0x16, 0xbe,
  0x65, 0xbd, 0xa5, 0xbd, 0xa3, 0xf4, 0x0f, 0x3d, 0xa0, 0xd5, 0x78, 0xbe,
  0x13, 0x6c, 0x31, 0xbd, 0xfa, 0xb1, 0x31, 0x3e, 0x2d, 0x1e, 0x30, 0x3e,
  0xd7, 0xc5, 0x47, 0xbe, 0x6d, 0xf3, 0x36, 0xbe, 0xfc, 0xfc, 0x49, 0xbb,
  0x65, 0x84, 0xf2, 0xbd, 0x48, 0xe6, 0x0a, 0xbe, 0x5c, 0x36, 0xd9, 0x3e,
  0x97, 0x3c, 0x32, 0xbd, 0x3e, 0xb7, 0x53, 0xbe, 0xec, 0x82, 0x30, 0xbc,
  0x24, 0xa5, 0x77, 0xbd, 0xf6, 0x04, 0x63, 0x3e, 0x50, 0x21, 0x43, 0x3e,
  0x60, 0xef, 0x14, 0xbe, 0x17, 0xba, 0x4f, 0xbd, 0x51, 0xc3, 0xac, 0x3d,
  0x93, 0x25, 0xda, 0x3d, 0xcf, 0x26, 0x85, 0x3d, 0xc0, 0xfd, 0x08, 0xbe,
  0xf2, 0x05, 0x8f, 0xbd, 0x79, 0x75, 0x2b, 0x3c, 0xe0, 0xf1, 0x11, 0x3e,
  0x8e, 0xc7, 0x1d, 0x3d, 0xca, 0xd0, 0x1b, 0x3e, 0x7f, 0x8f, 0xee, 0xbd,
  0xe9, 0xd5, 0x63, 0x3d, 0x76, 0x5a, 0x91, 0xbd, 0x8e, 0xaa, 0xb5, 0xbd,
  0x4d, 0xb5, 0xe4, 0x3d, 0x4d, 0xbb, 0x30, 0xbe, 0xf1, 0x3a, 0x55, 0xbe,
  0x56, 0xc7, 0x47, 0x3d, 0x02, 0x90, 0x35, 0xbe, 0x62, 0x47, 0xec, 0x3d,
  0x6e, 0x0f, 0x14, 0x3d, 0x1c, 0xae, 0x39, 0x3e, 0xdd, 0xd2, 0xa6, 0xbd,
  0xd4, 0x64, 0x2b, 0xbe, 0x83, 0xc6, 0x30, 0xbe, 0xc8, 0xa6, 0x81, 0x3d,
  0xda, 0x3f, 0xbe, 0x3d, 0x97, 0xfb, 0x18, 0x3e, 0x8f, 0x8f, 0x88, 0xbc,
  0x99, 0x53, 0x0f, 0xbe, 0x4f, 0x2d, 0xc9, 0x3d, 0x1e, 0x45, 0x80, 0xbe,
  0xc5, 0x94, 0xce, 0x3d, 0x77, 0x74, 0x37, 0x3e, 0x66, 0xb5, 0x1f, 0x3d,
  0x7b, 0xbd, 0xd0, 0x3d, 0x2d, 0x3e, 0xd0, 0x3d, 0xbe, 0x53, 0xaf, 0x3d,
  0xf6, 0x18, 0x6f, 0x3d, 0xf4, 0xf3, 0x97, 0x3d, 0xe7, 0xe9, 0x2c, 0x3e,
  0x4d, 0x67, 0xc9, 0x3c, 0xdc, 0xe5, 0xf2, 0x3d, 0x37, 0x0c, 0x15, 0xbe,
  0xdb, 0xfd, 0xd6, 0xbd, 0x3b, 0x31, 0x44, 0x3e, 0x0a, 0xfb, 0xa6, 0x3b,
  0x5e, 0xf4, 0x1d, 0xbe, 0x21, 0x3c, 0x1e, 0xbd, 0x65, 0xd8, 0x44, 0x3d,
  0xf7, 0x6b, 0xff, 0xbd, 0x15, 0x4a, 0x61, 0xbd, 0x5c, 0x3f, 0xd6, 0xbc,
  0xb6, 0x71, 0xcc, 0x3d, 0xb5, 0x9b, 0x03, 0xbe, 0xd5, 0xe9, 0x3a, 0x3e,
  0x21, 0x29, 0x06, 0xbe, 0x6d, 0x22, 0x88, 0x3d, 0x91, 0x06, 0xb2, 0x3c,
  0x3e, 0x01, 0x43, 0xbe, 0xe7, 0xa6, 0x02, 0xbe, 0xab, 0x83, 0x45, 0x3d,
  0x8f, 0x05, 0x21, 0xbe, 0x64, 0x28, 0x24, 0xbe, 0xe1, 0x78, 0x24, 0x3e,
  0x93, 0x32, 0xa1, 0x3d, 0x03, 0xcc, 0x0c, 0x3e, 0xcc, 0x25, 0x62, 0x3d,
  0x91, 0x98, 0xd5, 0xbc, 0x97, 0xc9, 0x18, 0xbc, 0x26, 0x52, 0x39, 0x3c,
  0x86, 0xd0, 0xe7, 0xbd, 0x5f, 0xd8, 0xa5, 0xbd, 0x26, 0x9a, 0xed, 0x3d,
  0xca, 0x83, 0xa2, 0x3d, 0xbe, 0xdc, 0x2f, 0xbe, 0xd9, 0x74, 0x09, 0x3c,
  0x85, 0x8d, 0xa8, 0x3d, 0x1e, 0xdf, 0x3a, 0x3e, 0xb7, 0xb0, 0xe1, 0x3d,
  0xc4, 0xa0, 0x74, 0x3d, 0x4d, 0x22, 0x9d, 0x3d, 0xe7, 0xda, 0xc2, 0xbc,
  0x45, 0xb7, 0x1f, 0x3e, 0x2c, 0xd2, 0xfd, 0x3d, 0xb9, 0xd0, 0x97, 0x3d,
  0xc3, 0xb7, 0xbd, 0xbd, 0xca, 0x4f, 0x92, 0xbd, 0x3a, 0x67, 0x32, 0xbe,
  0xf9, 0xe8, 0xc0, 0x3d, 0xec, 0xfc, 0x4d, 0xbd, 0x34, 0x8c, 0x15, 0xbe,
  0x15, 0xda, 0xc2, 0xbd, 0xd3, 0x9e, 0x1d, 0x3e, 0x71, 0x75, 0xc9, 0x3d,
  0x23, 0xeb, 0xaa, 0x3c, 0x26, 0x00, 0x4a, 0xbe, 0xe4, 0xca, 0x16, 0xbe,
  0x20, 0x4f, 0x35, 0x3d, 0xab, 0x8e, 0x2a, 0xbe, 0x1f, 0x1e, 0xe4, 0x3d,
  0xf6, 0x6c, 0x32, 0xbe, 0xdb, 0x9d, 0x51, 0xbe, 0xa1, 0xca, 0x50, 0xbe,
  0x69, 0x1b, 0x1c, 0xbe, 0x1c, 0x4f, 0x71, 0x3e, 0x4d, 0x58, 0x98, 0xbd,
  0xb8, 0x65, 0xeb, 0xbd, 0x5a, 0x80, 0x09, 0x3c, 0x34, 0x20, 0x3a, 0xbd,
  0xe4, 0x3d, 0xe7, 0xbc, 0x7e, 0x6b, 0x0b, 0xbe, 0xc4, 0x8a, 0xa4, 0x3c,
  0x32, 0x0a, 0xa7, 0xbd, 0xbd, 0x43, 0x33, 0x3e, 0x63, 0xfb, 0x74, 0x3d,
  0x73, 0x1a, 0x24, 0x3e, 0x3d, 0x50, 0x6f, 0x3c, 0x7a, 0x78, 0xb6, 0x3d,
  0x0f, 0x62, 0x55, 0x3e, 0xe3, 0xf8, 0x8a, 0xbd, 0x0e, 0x3a, 0x72, 0x3e,
  0xd9, 0xab, 0x04, 0x3d, 0x31, 0x38, 0x89, 0xbe, 0x98, 0xfd, 0x61, 0xbd,
  0xa8, 0xd4, 0x09, 0x3d, 0x89, 0xe2, 0x90, 0xbd, 0xee, 0x39, 0x1f, 0xbe,
  0xfc, 0xec, 0xb6, 0x3d, 0x96, 0x39, 0xa1, 0xbd, 0xcf, 0x93, 0xa5, 0xbd,
  0xa1, 0xa1, 0x37, 0xbe, 0xdc, 0x9b, 0x63, 0xbe, 0x73, 0xb7, 0xf1, 0x3d,
  0xec, 0x98, 0x02, 0xbe, 0x9d, 0x59, 0xe8, 0x3c, 0x75, 0x29, 0x85, 0xbd,
  0x45, 0x52, 0x40, 0x3e, 0x34, 0x8c, 0x35, 0x3d, 0x6e, 0x07, 0x8a, 0xbe,
  0x97, 0x72, 0xd4, 0xbd, 0x47, 0xbd, 0x43, 0x3d, 0x96, 0x23, 0x16, 0x3e,
  0xc1, 0xa3, 0x00, 0x3d, 0x19, 0x01, 0x3b, 0x3e, 0x96, 0xc6, 0x28, 0xbe,
  0x7d, 0x8f, 0x59, 0x3d, 0xee, 0xa8, 0xcf, 0x3d, 0x27, 0x18, 0x80, 0xbd,
  0x88, 0x8a, 0x31, 0xbe, 0x81, 0x2f, 0xe8, 0x3d, 0x1c, 0xea, 0x26, 0xbe,
  0xf5, 0xf7, 0x1f, 0xbe, 0x49, 0xac, 0x16, 0x3d, 0x50, 0xec, 0x33, 0x3e,
  0x0f, 0xc0, 0x4d, 0xbe, 0xce, 0x82, 0x52, 0x3d, 0x44, 0x39, 0x3e, 0x3e,
  0x3a, 0xe2, 0x6c, 0xbd, 0xec, 0xd9, 0x49, 0xbe, 0xef, 0x24, 0x97, 0xbc,
  0x06, 0x8f, 0x96, 0x3c, 0x60, 0x63, 0x53, 0x3d, 0xa3, 0x4d, 0x38, 0xbe,
  0x51, 0x32, 0x39, 0xbe, 0x33, 0xf5, 0x16, 0x3e, 0xbb, 0xf3, 0xd4, 0xbd,
  0xa1, 0x7b, 0xa3, 0x3c, 0x16, 0x35, 0xed, 0x3d, 0x85, 0xf0, 0x67, 0xbd,
  0xd7, 0xdf, 0x66, 0x3e, 0x58, 0xb0, 0x5e, 0xbe, 0xb4, 0x04, 0x1f, 0xbe,
  0x22, 0xd8, 0x29, 0x3d, 0x34, 0x8b, 0x20, 0x3c, 0xb2, 0x06, 0x2f, 0x3e,
  0x36, 0xad, 0x4a, 0xbe, 0xdb, 0x27, 0x1f, 0xbe, 0x1d, 0x72, 0xb6, 0x3c,
  0x4b, 0x32, 0x01, 0x3d, 0x20, 0x2b, 0x2b, 0xbe, 0x42, 0x88, 0x0e, 0xbe,
  0x81, 0xc5, 0xf1, 0x3d, 0xa9, 0x8b, 0x57, 0xbe, 0xa6, 0x98, 0x15, 0x3c,
  0xa8, 0xa8, 0x19, 0xbe, 0x26, 0x53, 0x40, 0x3e, 0xc7, 0x47, 0x7e, 0xbe,
  0x6d, 0x58, 0x03, 0xbe, 0x34, 0x49, 0x3b, 0x3e, 0x32, 0x5a, 0xb9, 0xbc,
  0x03, 0x28, 0xbf, 0x3d, 0xd0, 0x89, 0x37, 0xbd, 0x8b, 0x14, 0x6a, 0xbe,
  0xab, 0x09, 0xec, 0xbd, 0x84, 0xf4, 0xb3, 0xbd, 0x7f, 0x32, 0xa0, 0x3d,
  0x8c, 0xf0, 0xa6, 0x3b, 0xdf, 0x67, 0x9e, 0x3d, 0x94, 0x99, 0x2f, 0xbe,
  0x59, 0x99, 0x2a, 0xbe, 0x6e, 0x9a, 0x19, 0x3e, 0xa5, 0xe5, 0x0b, 0xbd,
  0x73, 0xec, 0x0c, 0xbe, 0x70, 0x1c, 0x53, 0x3c, 0xbf, 0x3e, 0x01, 0x3e,
  0xee, 0x8d, 0x1c, 0x3d, 0x2c, 0xee, 0x06, 0xbe, 0x2b, 0x7d, 0xa1, 0x3d,
  0xa8, 0xb2, 0xe4, 0xbd, 0x36, 0x58, 0x48, 0xbd, 0xcf, 0x81, 0x58, 0x3d,
  0x5b, 0xe9, 0x62, 0xbe, 0x9e, 0x2b, 0xac, 0xbd, 0xad, 0xdb, 0x4e, 0xbe,
  0x08, 0xfd, 0x17, 0x3e, 0x0a, 0xa0, 0x19, 0xbc, 0x29, 0xbb, 0x05, 0x3d,
  0x09, 0x46, 0x30, 0xbe, 0x52, 0x18, 0xde, 0xbd, 0xe7, 0x4c, 0x8f, 0xbe,
  0x84, 0xef, 0x1c, 0xbe, 0xdc, 0x69, 0x19, 0xbe, 0xf8, 0x6d, 0xb9, 0x3c,
  0x2e, 0x49, 0x8a, 0x3d, 0x24, 0xab, 0xc9, 0x3c, 0x7a, 0x46, 0x42, 0xbc,
  0x11, 0x13, 0x6b, 0xbe, 0x4a, 0x1b, 0x62, 0xbe, 0xbd, 0x5b, 0x3b, 0x3e,
  0x47, 0xc5, 0x92, 0x3d, 0x2c, 0x70, 0xb2, 0x3b, 0x7f, 0xa6, 0x61, 0xbc,
  0xd0, 0xdd, 0xab, 0x3d, 0x7b, 0xec, 0x3b, 0x3d, 0x8c, 0xfc, 0xe3, 0xbd,
  0xca, 0x29, 0xd1, 0xbd, 0x7c, 0xed, 0x3d, 0x3e, 0x1e, 0x6e, 0x9a, 0x3d,
  0xbf, 0xef, 0x96, 0x3d, 0xbf, 0xdc, 0xe1, 0x3d, 0x7b, 0xf2, 0xdb, 0x3d,
  0x04, 0x81, 0x51, 0x3d, 0x82, 0x62, 0x9a, 0x3b, 0xaf, 0xb1, 0xfa, 0x3d,
  0xc7, 0xe1, 0x35, 0x3e, 0xb4, 0x85, 0x03, 0xbd, 0xbe, 0xdf, 0x0e, 0x3e,
  0xea, 0x01, 0x10, 0xbe, 0x42, 0xd5, 0x10, 0xbe, 0xda, 0xc4, 0xac, 0xbd,
  0x65, 0x8a, 0xf1, 0x3d, 0x92, 0xf9, 0x94, 0xbc, 0x03, 0x1e, 0x42, 0x3d,
  0xb2, 0x72, 0x09, 0x3e, 0xf0, 0x50, 0x66, 0xbe, 0xf5, 0x89, 0xaf, 0x3d,
  0xfe, 0xf1, 0x16, 0x3e, 0x28, 0xf2, 0x46, 0x3e, 0x1b, 0x9c, 0x20, 0xbe,
  0xc9, 0xd3, 0xac, 0x3d, 0xef, 0xc4, 0x35, 0x3d, 0x18, 0x2f, 0xf0, 0xbd,
  0x66, 0x34, 0x3a, 0xbe, 0x31, 0xef, 0xab, 0xbc, 0x52, 0x0f, 0xfb, 0x3d,
  0x38, 0xc0, 0xc2, 0xbd, 0x07, 0x8a, 0x40, 0xbe, 0x8a, 0xee, 0x41, 0xbe,
  0xa7, 0xf1, 0x0e, 0x3e, 0x92, 0x74, 0x98, 0xbd, 0x14, 0x55, 0x37, 0xbd,
  0xb3, 0xbe, 0x4a, 0xbe, 0x46, 0xc7, 0x0d, 0xbe, 0x20, 0xa1, 0x5b, 0xbe,
  0x4e, 0x5d, 0x5d, 0xbe, 0xe0, 0x33, 0x16, 0x3e, 0xe5, 0xa7, 0x6e, 0xbd,
  0x78, 0x22, 0x30, 0xbc, 0x6b, 0x4b, 0x68, 0xbe, 0xa9, 0x00, 0xa1, 0x3d,
  0x32, 0xd9, 0x32, 0xbe, 0xd7, 0x7a, 0x0a, 0x3d, 0x34, 0x1d, 0x42, 0xbe,
  0x91, 0x3b, 0x54, 0xbd, 0x04, 0xeb, 0x01, 0xbe, 0x23, 0xb1, 0x09, 0xbe,
  0xf4, 0x4e, 0x35, 0xbd, 0x30, 0x4e, 0xc2, 0xbd, 0xe4, 0xf9, 0x45, 0xbe,
  0x8e, 0x28, 0xf3, 0xbd, 0x5f, 0xa0, 0xe1, 0xbd, 0x90, 0x84, 0xd5, 0x39,
  0x58, 0x03, 0x96, 0xbc, 0x96, 0xe0, 0xec, 0x3d, 0xb1, 0x69, 0x5f, 0xbe,
  0x21, 0x00, 0x4e, 0xbe, 0x84, 0x54, 0x11, 0x3e, 0xe3, 0x53, 0x89, 0x3d,
  0x30, 0xd3, 0x64, 0xbd, 0x77, 0x9f, 0x57, 0xbe, 0x90, 0x91, 0xb5, 0x3d,
  0x7f, 0x1c, 0x3c, 0xbe, 0x6d, 0x69, 0xe2, 0x3c, 0xb2, 0xb3, 0xa7, 0xbd,
  0x53, 0x5d, 0x71, 0x3d, 0x69, 0x84, 0x8f, 0xbd, 0xbf, 0x98, 0x9e, 0x3d,
  0x71, 0xcd, 0x32, 0xbd, 0x25, 0xad, 0x12, 0x3d, 0x15, 0x6e, 0x93, 0xbc,
  0x3c, 0xc6, 0xd5, 0xbd, 0xbc, 0x83, 0x82, 0x3c, 0xac, 0x0f, 0x16, 0x3c,
  0xa4, 0x71, 0x0c, 0x3e, 0x33, 0x93, 0x2c, 0xbe, 0x47, 0x0a, 0x94, 0xbd,
  0xff, 0x8b, 0x65, 0x3d, 0x12, 0x5a, 0xe7, 0x3c, 0x3b, 0xdb, 0xae, 0x3d,
  0x18, 0x52, 0xc9, 0xbd, 0xb2, 0xd0, 0x3a, 0xbe, 0x0f, 0x3a, 0x1a, 0xbe,
  0xa6, 0x47, 0x0c, 0xbe, 0xa8, 0x6b, 0xe2, 0x3d, 0x46, 0x55, 0x02, 0xbe,
  0x83, 0x1b, 0xd4, 0xbd, 0xda, 0xf8, 0x04, 0xbe, 0xf8, 0x23, 0x0a, 0xbe,
  0x93, 0xcc, 0x01, 0xbd, 0xdd, 0x87, 0xd6, 0x3d, 0x07, 0x8a, 0x14, 0xbe,
  0x52, 0x2e, 0x05, 0xbe, 0x75, 0x49, 0x2c, 0x3e, 0x46, 0xe3, 0xf6, 0x3d,
  0xfd, 0x8d, 0x61, 0x3d, 0xca, 0x28, 0x1e, 0xbd, 0x67, 0x56, 0xe0, 0x3d,
  0xc5, 0xdb, 0x35, 0xbe, 0xf8, 0xee, 0x08, 0x3e, 0x44, 0x3f, 0x11, 0x3e,
  0xc4, 0x14, 0x5d, 0xbd, 0xf5, 0x83, 0x40, 0xbe, 0x17, 0x2e, 0xba, 0x3c,
  0xa9, 0x09, 0x14, 0xbe, 0xf5, 0x01, 0x5c, 0xbe, 0x03, 0x07, 0x15, 0xbd,
  0x80, 0x99, 0x5e, 0xbe, 0x47, 0x61, 0x18, 0xbe, 0xe5, 0x4c, 0x47, 0x3c,
  0xee, 0xfe, 0x40, 0x3e, 0x29, 0x00, 0x14, 0x3d, 0xcc, 0x2e, 0x08, 0x3e,
  0x5e, 0x08, 0x23, 0x3e, 0x1c, 0xb7, 0x04, 0x39, 0x14, 0x2d, 0x1a, 0xbd,
  0xee, 0x5d, 0x1a, 0xbe, 0xa9, 0xd5, 0x58, 0x3d, 0xf0, 0x7e, 0xb5, 0xbd,
  0x84, 0x17, 0xa8, 0x3d, 0x22, 0xf8, 0xa4, 0x3d, 0x35, 0x59, 0x14, 0x3e,
  0xcb, 0xc1, 0xa1, 0x3d, 0x1c, 0x82, 0xd8, 0xbd, 0xec, 0xbc, 0xe8, 0x3c,
  0xb1, 0x76, 0x0c, 0x3e, 0xd4, 0xd0, 0x0e, 0x3e, 0xd3, 0xfc, 0x21, 0xbd,
  0xa1, 0xe6, 0x3c, 0xbe, 0x15, 0x36, 0xee, 0x3c, 0x46, 0x53, 0x0a, 0xbe,
  0x17, 0xa3, 0x11, 0x3e, 0xdf, 0xaf, 0x64, 0x3d, 0xed, 0x3f, 0x5c, 0xb8,
  0x4f, 0xb1, 0x7b, 0xbd, 0x45, 0x12, 0xba, 0x3a, 0x90, 0xde, 0xa7, 0xbd,
  0xef, 0x15, 0xa9, 0x3d, 0x2d, 0x53, 0xf0, 0x3d, 0x01, 0x12, 0x66, 0xbe,
  0x78, 0xa8, 0x6a, 0xbe, 0x66, 0xd5, 0x31, 0x3e, 0x7a, 0xca, 0xe3, 0x3d,
  0x23, 0x7e, 0x04, 0x3e, 0xfb, 0x77, 0xa3, 0x3d, 0xbb, 0xe4, 0x19, 0xbd,
  0x7c, 0x17, 0x80, 0xbd, 0xd9, 0x1e, 0xf3, 0xbd, 0xde, 0xf8, 0xce, 0xbd,
  0x3c, 0x01, 0x03, 0xbe, 0x4f, 0xc9, 0x28, 0x3d, 0xab, 0x3b, 0x58, 0xbe,
  0x0b, 0xb6, 0xeb, 0xbd, 0x12, 0xa8, 0xd5, 0x3d, 0xa9, 0x24, 0xc6, 0x3d,
  0x75, 0x62, 0x0c, 0xbe, 0x8b, 0x03, 0x0c, 0x3e, 0x45, 0xc0, 0x44, 0xbd,
  0xf7, 0xdb, 0xe5, 0x3c, 0x7d, 0xaa, 0x68, 0xbe, 0xf5, 0x34, 0x5a, 0xbe,
  0xee, 0xbe, 0x3c, 0xbe, 0x5d, 0x71, 0x3f, 0x3d, 0x1e, 0x0f, 0x2d, 0xbe,
  0x4f, 0xa2, 0x3a, 0x3e, 0xb1, 0xbf, 0x1a, 0x3c, 0xf2, 0x54, 0x0c, 0x3e,
  0x8a, 0xe6, 0xc7, 0x3d, 0x0e, 0x37, 0xe2, 0xbd, 0x5b, 0x1a, 0x31, 0xbe,
  0x0b, 0x57, 0x6a, 0xbe, 0x30, 0xbd, 0xf8, 0xbd, 0xab, 0xd2, 0xbe, 0x3d,
  0x95, 0x86, 0x18, 0x3e, 0xad, 0xb1, 0x09, 0xbe, 0x95, 0x54, 0x30, 0xbd,
  0x0c, 0x2c, 0x69, 0x3d, 0x02, 0x3f, 0x7a, 0xbb, 0x3a, 0x29, 0x8a, 0xbe,
  0xa5, 0x71, 0xc4, 0x3d, 0xfc, 0x66, 0x6d, 0xbd, 0x91, 0x0a, 0x6a, 0xbe,
  0x9a, 0xcc, 0x8c, 0xbd, 0x36, 0xa8, 0xbe, 0x3d, 0x45, 0xce, 0x15, 0xbe,
  0xaa, 0x35, 0x25, 0x3e, 0x4a, 0x76, 0x3f, 0xbe, 0x78, 0x69, 0x33, 0x3d,
  0x6b, 0x7f, 0x2c, 0xbe, 0x27, 0x21, 0x3e, 0xbd, 0xf4, 0x97, 0xcc, 0xbd,
  0xb3, 0x7b, 0xd9, 0xbd, 0xb0, 0x34, 0xaf, 0xbd, 0xff, 0xb5, 0x9e, 0xbd,
  0x56, 0x5c, 0x25, 0xbe, 0xfd, 0x56, 0x1a, 0xbd, 0x1c, 0x5d, 0x59, 0xbe,
  0xdc, 0x81, 0x6e, 0x3d, 0x13, 0xe4, 0x3a, 0xbe, 0x1b, 0x92, 0x4c, 0x3e,
  0x5b, 0x53, 0x08, 0xbe, 0x41, 0x9c, 0x95, 0x3c, 0x27, 0x46, 0x10, 0x3e,
  0xd6, 0x4a, 0xde, 0xbc, 0xa8, 0x26, 0x72, 0xbd, 0x22, 0xaa, 0x4c, 0xbe,
  0x62, 0x25, 0xe0, 0x3d, 0x59, 0xe3, 0x7a, 0xbe, 0xcd, 0x2a, 0x0e, 0xbe,
  0x33, 0x91, 0x38, 0xbe, 0x18, 0x7b, 0xcd, 0x3c, 0xb0, 0x1e, 0x24, 0x3d,
  0xd1, 0x91, 0x47, 0xbd, 0xe2, 0x34, 0x12, 0x3c, 0x0d, 0x81, 0x1c, 0x3d,
  0x57, 0x9e, 0x13, 0xbe, 0x2b, 0xb6, 0x98, 0x3d, 0xc0, 0x2b, 0x69, 0xbe,
  0x23, 0x18, 0xdb, 0x3d, 0xf6, 0xc0, 0x3b, 0xbe, 0x52, 0xbb, 0x1e, 0xbe,
  0x17, 0x34, 0x50, 0xbe, 0xf6, 0xf9, 0x17, 0x3e, 0xaf, 0x9d, 0xb4, 0xbd,
  0x81, 0x45, 0x08, 0xbe, 0x61, 0xd0, 0xe8, 0x3d, 0x45, 0x7e, 0xbb, 0xbc,
  0x19, 0x03, 0x32, 0xbe, 0x6f, 0xe8, 0x79, 0xbd, 0xc2, 0xb8, 0xc5, 0x3d,
  0x2e, 0x5b, 0x2e, 0xbe, 0x15, 0xa3, 0x05, 0x3e, 0xe1, 0xbb, 0x15, 0xbe,
  0x68, 0xb8, 0x4d, 0xbe, 0x0d, 0xf5, 0x08, 0xbe, 0x95, 0x05, 0xbd, 0xbc,
  0x79, 0x75, 0xc2, 0x3c, 0xd9, 0x9b, 0x18, 0x3e, 0xbd, 0xb0, 0xd6, 0x3c,
  0x95, 0xb2, 0xc5, 0xbd, 0x41, 0x2e, 0x23, 0xbe, 0x94, 0xbd, 0x1a, 0xbe,
  0x39, 0x96, 0x6a, 0x3d, 0x7f, 0x2c, 0x27, 0xbe, 0x39, 0x12, 0x15, 0x3e,
  0x98, 0x1a, 0x8a, 0xbd, 0xf3, 0x44, 0xfb, 0x3d, 0xe0, 0xe9, 0x31, 0x3d,
  0x4f, 0x7f, 0x8d, 0xbe, 0x9d, 0xa4, 0x04, 0x3e, 0xfb, 0xe4, 0x19, 0x3e,
  0xd2, 0x7d, 0x68, 0xbd, 0x57, 0x13, 0x73, 0x3d, 0xef, 0xe8, 0xe0, 0x3c,
  0x49, 0x0b, 0xba, 0xbd, 0x64, 0x22, 0x5a, 0xbe, 0xee, 0x67, 0xac, 0x3d,
  0x95, 0x8a, 0xd4, 0xbd, 0x33, 0x6f, 0xac, 0x3d, 0x1d, 0x5a, 0x8a, 0xbd,
  0x63, 0x0e, 0xd1, 0x3c, 0x72, 0x35, 0xc2, 0x3c, 0xd6, 0x2f, 0x2a, 0xbe,
  0x48, 0x5f, 0xb6, 0x3d, 0xd8, 0x83, 0x11, 0xbe, 0x8a, 0xc3, 0xb4, 0x3c,
  0x31, 0xbf, 0xab, 0xbd, 0x0c, 0x43, 0x45, 0xbd, 0x2c, 0x56, 0x06, 0xbd,
  0x8d, 0xfe, 0x86, 0xbd, 0xec, 0xe1, 0x21, 0x3e, 0x73, 0xc3, 0x0a, 0xbd,
  0xc2, 0xe8, 0x33, 0xbe, 0x4c, 0x44, 0xb4, 0xbd, 0xa6, 0x8b, 0xec, 0x3a,
  0x46, 0x55, 0x4e, 0x3e, 0xbe, 0x15, 0x92, 0x3d, 0x82, 0x27, 0x5c, 0xbe,
  0xf7, 0xb4, 0xa1, 0x3c, 0x2c, 0xc5, 0x20, 0xbe, 0x4b, 0x3f, 0x33, 0xbe,
  0xba, 0xb5, 0x6a, 0xbe, 0x60, 0x8f, 0xcb, 0x3c, 0xcd, 0x14, 0x4f, 0xbe,
  0x7c, 0x74, 0x27, 0x3d, 0xd9, 0x83, 0x1f, 0xbe, 0xf1, 0x6a, 0xfd, 0xbd,
  0x30, 0x9f, 0x06, 0xbe, 0x05, 0x55, 0x99, 0xbe, 0x34, 0xd5, 0x25, 0x3d,
  0xab, 0xc3, 0x46, 0xbe, 0x78, 0x8d, 0xf7, 0xbd, 0xfb, 0x4d, 0x87, 0xbd,
  0x85, 0x24, 0xb5, 0x3d, 0x1c, 0xb8, 0xb0, 0x3b, 0x4e, 0x7b, 0x09, 0x3e,
  0x46, 0x31, 0x29, 0x3e, 0x41, 0x09, 0x31, 0xbe, 0xf7, 0x5c, 0x2a, 0xbe,
  0xfa, 0x10, 0x5b, 0xbe, 0x39, 0x8c, 0x5c, 0xbd, 0x12, 0xcc, 0x52, 0xbd,
  0x73, 0x22, 0xb3, 0x3d, 0x21, 0xd7, 0x8f, 0xbe, 0xcc, 0xa2, 0x66, 0xbe,
  0x3e, 0xd8, 0x17, 0x3e, 0x52, 0x65, 0x1c, 0x3e, 0x03, 0x31, 0xe2, 0xbd,
  0x8e, 0xea, 0x5d, 0x3d, 0x30, 0xa6, 0xb0, 0xbd, 0x36, 0xba, 0xdc, 0x3d,
  0x1f, 0xfd, 0x02, 0xbe, 0x5f, 0x39, 0x69, 0xbe, 0x1a, 0xcc, 0xf1, 0x3d,
  0x8c, 0x49, 0x34, 0xbd, 0x18, 0x8c, 0xbb, 0xbb, 0x76, 0xd5, 0xf2, 0xbc,
  0x38, 0x61, 0x10, 0xbd, 0x99, 0xe7, 0x1b, 0xbe, 0xad, 0x2c, 0xbf, 0x3b,
  0x72, 0xcc, 0x69, 0x3d, 0x29, 0x9b, 0xe4, 0xbd, 0xcb, 0x83, 0x6b, 0x3d,
  0xd8, 0x19, 0x23, 0x3d, 0x61, 0x34, 0xdd, 0x3d, 0x71, 0xf4, 0x17, 0x3e,
  0xbb, 0x32, 0x04, 0xbe, 0xeb, 0x4c, 0xee, 0xbd, 0xb6, 0x7f, 0x0c, 0xbe,
  0x1c, 0xcc, 0x03, 0xbd, 0x41, 0xf9, 0xa2, 0xbd, 0x38, 0x32, 0x89, 0xbd,
  0xcf, 0x22, 0x1a, 0x3a, 0x3c, 0x67, 0x5d, 0xbd, 0xb4, 0xaa, 0x37, 0xbe,
  0x99, 0x68, 0x2f, 0x3c, 0x5c, 0xb5, 0x1c, 0xbd, 0x5b, 0xa0, 0x16, 0xbe,
  0x4e, 0xee, 0x26, 0xbe, 0x22, 0x9c, 0xa9, 0xbc, 0x6c, 0x54, 0xb3, 0xbd,
  0xa9, 0x48, 0x04, 0xbe, 0xb3, 0xb3, 0x9a, 0x3d, 0xfa, 0xb0, 0xd4, 0x3d,
  0x81, 0x10, 0x02, 0x3e, 0x82, 0x36, 0x27, 0xbc, 0xf7, 0xdd, 0x30, 0xbe,
  0xfe, 0x57, 0x48, 0xbe, 0xfd, 0x86, 0xb3, 0xbc, 0x1e, 0x58, 0x32, 0xbe,
  0xc3, 0xcc, 0x61, 0xbe, 0x02, 0xf6, 0xa5, 0xbd, 0xd8, 0xff, 0x5f, 0xbc,
  0x35, 0x4b, 0x19, 0xbe, 0x2d, 0x72, 0x6d, 0xbe, 0x5e, 0x47, 0xb4, 0x3d,
  0x69, 0xdb, 0x28, 0x3e, 0x18, 0xa5, 0xe3, 0xbd, 0x36, 0x80, 0x0d, 0xbe,
  0xda, 0x52, 0xcb, 0x3d, 0x7e, 0x24, 0x21, 0xbe, 0x73, 0xd7, 0x4e, 0x3e,
  0x54, 0x8c, 0xf9, 0x3c, 0xa3, 0xa3, 0xcb, 0xbd, 0x18, 0xb1, 0xbb, 0x3b,
  0xbe, 0xea, 0x12, 0x3e, 0xf3, 0x46, 0x12, 0xbe, 0xbc, 0x38, 0xe5, 0xbd,
  0xde, 0x42, 0x2d, 0xbe, 0xf4, 0x2b, 0x37, 0xbd, 0x05, 0x87, 0x2b, 0xbd,
  0xd0, 0xf8, 0x4a, 0x3e, 0xb4, 0x18, 0x89, 0x3d, 0x34, 0x7b, 0xdc, 0xbd,
  0x0f, 0xb6, 0x59, 0xbd, 0x9d, 0xbb, 0x3a, 0x3e, 0x4f, 0x8f, 0x77, 0x3c,
  0x29, 0x51, 0x7e, 0xbd, 0x9a, 0x71, 0x61, 0xbd, 0xa5, 0x02, 0x4f, 0xbc,
  0x10, 0xc9, 0xb7, 0xbd, 0x8a, 0xc8, 0x14, 0x3e, 0x7b, 0x29, 0x67, 0x3c,
  0xfd, 0x47, 0x27, 0xbe, 0x4d, 0xe9, 0xee, 0xbc, 0xb3, 0x77, 0x9c, 0xbc,
  0x3c, 0xad, 0xc2, 0xbc, 0x89, 0xae, 0x2c, 0x3e, 0xa8, 0x5d, 0x2a, 0xbe,
  0xf4, 0xe5, 0x04, 0x3e, 0x89, 0x8e, 0x20, 0x3e, 0xb4, 0xa0, 0xbd, 0xbd,
  0xce, 0x42, 0x8a, 0x3c, 0xfa, 0xaf, 0x28, 0xbd, 0xe4, 0xee, 0x13, 0xbd,
  0x43, 0x39, 0xfa, 0xbc, 0x2a, 0x06, 0xdc, 0xbd, 0x63, 0xd1, 0x51, 0xbe,
  0xad, 0xb5, 0xc9, 0xbd, 0x80, 0x7e, 0x05, 0xbe, 0xe8, 0xee, 0xac, 0xbd,
  0xce, 0xfc, 0xbd, 0x3d, 0xa5, 0x68, 0x20, 0xbe, 0x35, 0x75, 0x58, 0xbe,
  0x48, 0xb5, 0x93, 0x3d, 0x70, 0x60, 0xf2, 0xbd, 0x7d, 0xc9, 0x07, 0xbe,
  0x72, 0xd5, 0xc4, 0x3d, 0xf9, 0x11, 0x8b, 0x3d, 0x31, 0x5f, 0x8a, 0xbd,
  0xa4, 0x0d, 0x53, 0x3d, 0xa7, 0x99, 0x41, 0xbe, 0xd7, 0x2f, 0xf2, 0xbd,
  0xd1, 0xe4, 0x21, 0xbe, 0x2a, 0x63, 0x43, 0x3e, 0x52, 0x37, 0x8e, 0xbd,
  0x0b, 0xd4, 0xc3, 0xbd, 0xd9, 0x33, 0x9c, 0x3d, 0x29, 0x02, 0x9d, 0xbc,
  0x76, 0x6e, 0x30, 0x3e, 0xce, 0x4e, 0x00, 0x3b, 0xed, 0x40, 0xcb, 0xbd,
  0x5f, 0xbe, 0x32, 0xbe, 0x18, 0xdb, 0x97, 0xbd, 0x51, 0x7c, 0x0c, 0xbd,
  0x71, 0xac, 0x33, 0x3e, 0xd6, 0x66, 0x52, 0xbe, 0xdd, 0x44, 0x2b, 0xbe,
  0xcf, 0x95, 0x25, 0xbc, 0xb0, 0xb0, 0xff, 0xbc, 0xaa, 0xc7, 0xd3, 0x3d,
  0xe4, 0xee, 0x15, 0xbe, 0x78, 0x81, 0xa9, 0x3d, 0x23, 0xf1, 0x3b, 0xbd,
  0xa2, 0x3d, 0x41, 0xbe, 0x08, 0xf4, 0x27, 0xbe, 0x54, 0xd0, 0xaa, 0x3d,
  0xb6, 0x9c, 0x11, 0x3e, 0x0d, 0x9c, 0x0c, 0xbe, 0x0a, 0x45, 0x82, 0xbd,
  0x10, 0x58, 0xa4, 0xbd, 0x8e, 0x11, 0x1e, 0xbe, 0x43, 0x35, 0x0a, 0xbe,
  0x8e, 0x4a, 0xdd, 0xbd, 0xa1, 0x92, 0xd2, 0x3d, 0x29, 0xd1, 0x2d, 0x3e,
  0x64, 0x61, 0x4e, 0x3d, 0x78, 0xf6, 0x04, 0xbe, 0x63, 0xf2, 0xf5, 0x3d,
  0x14, 0x6f, 0x88, 0x3c, 0x12, 0xad, 0x27, 0xbe, 0x94, 0x21, 0xb7, 0xbd,
  0x0d, 0x84, 0x9b, 0xbc, 0x01, 0x78, 0x20, 0xbe, 0x3c, 0x98, 0x0d, 0x3e,
  0xe2, 0x2d, 0x27, 0x3e, 0x33, 0x47, 0x93, 0xbe, 0x36, 0x01, 0xde, 0x3b,
  0x49, 0x94, 0x05, 0xbe, 0xbd, 0x41, 0x38, 0xbe, 0x41, 0x76, 0x7e, 0xbe,
  0x93, 0x62, 0x0c, 0xbd, 0xef, 0xcf, 0x43, 0x3b, 0xba, 0x4a, 0x82, 0x3c,
  0x05, 0x38, 0xd7, 0xbd, 0x72, 0xa5, 0x84, 0xbe, 0xee, 0xb3, 0x36, 0xbe,
  0x4e, 0x6d, 0x04, 0xbe, 0x29, 0x43, 0xe4, 0xbd, 0x26, 0x6c, 0x1e, 0x3d,
  0x14, 0x27, 0x15, 0x3e, 0x9f, 0x2c, 0x24, 0xbe, 0x03, 0x61, 0x3e, 0x3d,
  0x75, 0x47, 0x09, 0x3e, 0xb0, 0x19, 0x80, 0xbe, 0x26, 0xd1, 0xb3, 0xbd,
  0xee, 0xfa, 0xa4, 0x3d, 0xee, 0x13, 0x28, 0xbe, 0x11, 0x0d, 0x24, 0xbe,
  0x31, 0x05, 0xef, 0xbd, 0x73, 0x1b, 0xbc, 0xbb, 0xdb, 0x46, 0x98, 0x3d,
  0xfc, 0x58, 0xfd, 0xbd, 0x84, 0x64, 0x4b, 0xbe, 0xe5, 0xf8, 0x9d, 0x3d,
  0x42, 0x16, 0x19, 0xbe, 0x08, 0xac, 0x3c, 0xbd, 0x59, 0x84, 0xa0, 0x3d,
  0xc1, 0x6a, 0x00, 0xbe, 0x9f, 0xba, 0x55, 0xbd, 0x24, 0xd1, 0x01, 0xbe,
  0x72, 0xa2, 0x09, 0xbe, 0x24, 0x33, 0x63, 0xbc, 0x5a, 0xff, 0xd6, 0x3d,
  0x6e, 0x54, 0xea, 0xbd, 0xe5, 0x0a, 0x5f, 0x3b, 0x7a, 0xd4, 0x80, 0xbe,
  0x42, 0xf1, 0x7b, 0x3c, 0x4c, 0x8d, 0x33, 0xbe, 0x11, 0x76, 0x92, 0x3d,
  0x00, 0x05, 0x42, 0x3e, 0x7b, 0x20, 0x73, 0xbc, 0x4d, 0x13, 0xe3, 0x3d,
  0xcf, 0x92, 0x96, 0xbd, 0xc0, 0x70, 0xca, 0xbc, 0x55, 0x69, 0x06, 0x3e,
  0x20, 0x6e, 0xee, 0x3d, 0x4f, 0xe9, 0xf3, 0xbd, 0x13, 0x23, 0xa2, 0xbd,
  0x7d, 0x90, 0x8f, 0xbc, 0x1c, 0xad, 0x0d, 0xbe, 0x18, 0x5c, 0xd8, 0x3d,
  0xb5, 0x12, 0x2f, 0xbe, 0x9c, 0x24, 0xd4, 0x3d, 0x85, 0x7d, 0x09, 0x3d,
  0x2b, 0xd6, 0x4a, 0xbe, 0x77, 0x19, 0xe6, 0x3c, 0xa3, 0x3b, 0x26, 0xbc,
  0xda, 0x51, 0x17, 0xbc, 0xfb, 0xa4, 0x12, 0x3e, 0x57, 0xa6, 0xb6, 0x3d,
  0xea, 0x34, 0x30, 0xbe, 0xcf, 0xb5, 0x5f, 0xbe, 0xa6, 0xc5, 0xd9, 0x3c,
  0xc7, 0xea, 0x87, 0x3c, 0xa8, 0x7f, 0xd8, 0xbb, 0x5e, 0x4c, 0xd5, 0xbd,
  0x7c, 0x4e, 0xa5, 0x3d, 0xd6, 0x85, 0xd4, 0xbd, 0x58, 0x66, 0xf4, 0x3d,
  0x11, 0xd9, 0x2f, 0xbe, 0xc9, 0x0a, 0xb8, 0x3b, 0x3b, 0xbd, 0xa3, 0xbd,
  0x08, 0xa5, 0x24, 0x3e, 0xad, 0x5a, 0x95, 0xbd, 0xf5, 0x5d, 0xf1, 0xbc,
  0x77, 0x97, 0x22, 0xbe, 0xee, 0xe4, 0x3c, 0x3e, 0xcc, 0x5b, 0x06, 0xbe,
  0xc8, 0x1f, 0x97, 0xbc, 0x16, 0x18, 0x66, 0xbe, 0xf8, 0xb7, 0x92, 0x3c,
  0x63, 0xbd, 0x59, 0x3c, 0x4c, 0x7e, 0xc2, 0xbd, 0x47, 0x71, 0xb8, 0x3d,
  0xcf, 0x04, 0xad, 0xbd, 0x75, 0x2a, 0x8c, 0xbc, 0xa4, 0xf5, 0x09, 0x3e,
  0x07, 0x49, 0xc0, 0x3d, 0x73, 0x58, 0x33, 0xbe, 0x17, 0x1c, 0x37, 0xbe,
  0x67, 0x64, 0x36, 0xbe, 0xda, 0x08, 0xaf, 0x3d, 0x15, 0x1a, 0x3e, 0x3d,
  0xba, 0x39, 0x86, 0xbd, 0x05, 0xde, 0x28, 0xbe, 0xf9, 0xfa, 0x5d, 0xbe,
  0xd3, 0x3b, 0xa4, 0xbd, 0x13, 0x16, 0x25, 0xbe, 0x50, 0xfd, 0x5c, 0xbd,
  0x4f, 0x20, 0x9f, 0x3d, 0x78, 0xac, 0x03, 0xbd, 0x80, 0x85, 0x39, 0xbe,
  0x6d, 0xd3, 0xee, 0x3d, 0xf3, 0x76, 0x55, 0xbe, 0x90, 0xd7, 0xa3, 0xbd,
  0x5c, 0x14, 0x85, 0xbd, 0x1b, 0x19, 0x5e, 0xbc, 0x53, 0x2a, 0xe1, 0xbd,
  0x9b, 0x6d, 0x8d, 0xbd, 0xac, 0x22, 0xfb, 0x3d, 0xdc, 0x16, 0x06, 0xbe,
  0xd0, 0xed, 0x3c, 0xbc, 0x71, 0x45, 0x10, 0x3e, 0x4a, 0x3d, 0x77, 0xbe,
  0xd0, 0x73, 0x21, 0x3d, 0x16, 0x81, 0x5d, 0xbe, 0x3f, 0xe8, 0x03, 0x3e,
  0xae, 0x25, 0xb2, 0xbd, 0xd1, 0x72, 0x2c, 0x3e, 0xd0, 0x83, 0x43, 0xbe,
  0xe2, 0x89, 0xcb, 0x39, 0x46, 0x17, 0x27, 0x3d, 0x0f, 0x99, 0x4b, 0xbe,
  0x8e, 0x75, 0x36, 0xbe, 0x7b, 0x7e, 0x0e, 0x3e, 0x63, 0xc8, 0x20, 0x3e,
  0x7d, 0x8c, 0x07, 0xbe, 0xe8, 0xb7, 0x34, 0xbe, 0x0f, 0x4f, 0xa7, 0x3d,
  0xd0, 0x8c, 0x2c, 0x3d, 0xa6, 0xf8, 0x14, 0x3e, 0xa5, 0x0b, 0x60, 0xbe,
  0x4c, 0x44, 0xc7, 0xbd, 0xf1, 0x0d, 0xbd, 0x3d, 0xcc, 0x67, 0x09, 0xbe,
  0x1e, 0xdb, 0x92, 0x3c, 0x27, 0xdd, 0x56, 0x3c, 0xb8, 0x52, 0xd7, 0x3d,
  0x5b, 0x1e, 0xae, 0xbd, 0x05, 0x6c, 0xd9, 0xbc, 0x75, 0x6c, 0xdb, 0x3d,
  0xb4, 0x41, 0x6d, 0x3d, 0xcd, 0xa0, 0x10, 0xbd, 0xdb, 0xc5, 0x09, 0x3d,
  0x91, 0xc8, 0x46, 0xbe, 0x57, 0xd4, 0x72, 0xbe, 0x10, 0x5c, 0x45, 0xbe,
  0x39, 0xf8, 0xbd, 0xbc, 0xad, 0x89, 0x8b, 0x3c, 0xb2, 0x11, 0x1d, 0xbd,
  0x8c, 0xa8, 0x35, 0x3d, 0xac, 0x92, 0x55, 0xbd, 0x06, 0x23, 0x27, 0xbe,
  0xcd, 0xce, 0x6f, 0xbb, 0x9a, 0x7c, 0x3f, 0x3e, 0xdc, 0xa9, 0x8c, 0x3d,
  0x84, 0xaa, 0xe1, 0x3d, 0x6b, 0x3d, 0xf4, 0xbd, 0xf7, 0xd8, 0x2e, 0xbe,
  0xb6, 0x10, 0xef, 0xbd, 0xb9, 0x28, 0xee, 0x3d, 0xfd, 0xcc, 0x18, 0x3e,
  0xca, 0xdf, 0xe7, 0xbd, 0xc0, 0x4c, 0x7b, 0xbc, 0x0c, 0xc5, 0x7f, 0xbe,
  0x23, 0xfd, 0x3c, 0xbe, 0x07, 0xe9, 0x14, 0xbe, 0x63, 0x9c, 0xa3, 0x3d,
  0x0b, 0x2d, 0x1b, 0x3e, 0xc3, 0x13, 0xa9, 0x3d, 0x39, 0x13, 0x3e, 0xbe,
  0xb4, 0x35, 0x88, 0xbd, 0xf2, 0x31, 0xc9, 0x3c, 0x74, 0xaf, 0x10, 0x3e,
  0xb4, 0xce, 0x9d, 0x3c, 0xa8, 0x68, 0x17, 0xbd, 0xc8, 0x6d, 0x1a, 0xbb,
  0x68, 0x1e, 0x47, 0xbe, 0x33, 0xb1, 0xf0, 0xbd, 0x7b, 0x14, 0x42, 0xbe,
  0xd8, 0x0d, 0xcc, 0xbd, 0xa9, 0x36, 0x55, 0xbe, 0x52, 0x8a, 0x94, 0xbd,
  0x57, 0xed, 0x2c, 0xbe, 0x1a, 0xa8, 0x9e, 0xbd, 0x97, 0xb1, 0x06, 0xbd,
  0xe4, 0x69, 0x53, 0x3e, 0x80, 0x88, 0xb5, 0x3d, 0xd8, 0xd4, 0x3c, 0x3d,
  0x1f, 0xbe, 0x17, 0x3e, 0xb8, 0xbb, 0x8d, 0xbe, 0xf3, 0xba, 0x88, 0x39,
  0xf8, 0xb1, 0x01, 0xbe, 0x7b, 0xb9, 0x21, 0x3e, 0xbc, 0xe9, 0x35, 0x3d,
  0x81, 0xbe, 0x1b, 0xbd, 0x41, 0xd5, 0x17, 0x3e, 0x9d, 0x0c, 0x83, 0xbe,
  0x65, 0xc9, 0x32, 0x3d, 0x66, 0x13, 0x27, 0xbe, 0xb3, 0x97, 0x16, 0xbe,
  0xe3, 0x9e, 0x2d, 0x3d, 0xea, 0x4d, 0x8e, 0xbd, 0xcd, 0x87, 0x34, 0xbe,
  0x26, 0x79, 0xa3, 0x3b, 0xaa, 0xb0, 0x06, 0x3e, 0x5b, 0x2e, 0x4a, 0xbd,
  0x89, 0xf2, 0x36, 0xbd, 0xb6, 0xab, 0xa2, 0xbc, 0x6b, 0xe3, 0xa9, 0xbd,
  0x09, 0xc7, 0xc3, 0xbd, 0xe1, 0x08, 0x9e, 0x3d, 0x5b, 0xbd, 0x8a, 0xbc,
  0xe1, 0x62, 0x25, 0x3e, 0xa2, 0xd5, 0x03, 0x3e, 0x1d, 0xf9, 0x9c, 0xbd,
  0x5c, 0x8c, 0x3b, 0x3f, 0x00, 0x44, 0x43, 0xbd, 0xc5, 0x28, 0xa2, 0xbc,
  0x6c, 0xd4, 0x7e, 0x3f, 0x76, 0x3c, 0x59, 0x3e, 0xcd, 0x79, 0x88, 0x3d,
  0x6f, 0xf2, 0xcf, 0xbc, 0xa1, 0x9d, 0x6f, 0xbe, 0xf5, 0x44, 0xad, 0x3e,
  0xcf, 0xe1, 0xc3, 0xbe, 0x80, 0x9b, 0x77, 0xbe, 0xa6, 0x40, 0xa1, 0xbe,
  0x23, 0x9b, 0x63, 0x3e, 0x5d, 0xb7, 0x67, 0xbe, 0xb5, 0x7d, 0x26, 0x3e,
  0x3c, 0x86, 0x03, 0x3d, 0xe6, 0xc8, 0x3c, 0x3e, 0x31, 0x9c, 0xe6, 0x3e,
  0x0a, 0x1c, 0xbf, 0xbd, 0xc5, 0x14, 0x38, 0x3f, 0x2b, 0x05, 0x62, 0x3d,
  0x11, 0xd8, 0x12, 0x3e, 0xd0, 0x1b, 0xe7, 0xbc, 0x14, 0xbe, 0x0d, 0xbe,
  0xe8, 0x0e, 0x58, 0x3e, 0x6c, 0x0e, 0xd7, 0x3d, 0xc9, 0xb2, 0x43, 0xbe,
  0x56, 0x41, 0x15, 0xbe, 0x08, 0x36, 0xf8, 0x3d, 0x11, 0xad, 0xac, 0xbd,
  0x22, 0x61, 0x76, 0xbe, 0xdd, 0x32, 0x42, 0x3d, 0xc0, 0xbd, 0x4a, 0x3e,
  0x4b, 0xb4, 0xcf, 0xbc, 0x83, 0x32, 0x5a, 0x3e, 0x30, 0xaf, 0x2f, 0x3f,
  0xf9, 0xcc, 0x4a, 0x3e, 0x34, 0x61, 0x39, 0xbd, 0x95, 0xf5, 0xe6, 0xbd,
  0x93, 0x92, 0x21, 0x3d, 0xbf, 0x2f, 0x4a, 0x3e, 0x49, 0x22, 0x9c, 0x3e,
  0x80, 0x5b, 0x2c, 0xbe, 0xbd, 0xc7, 0xe1, 0x3d, 0xaf, 0x8b, 0xdb, 0xbc,
  0x08, 0x0a, 0x18, 0xbc, 0x1f, 0x49, 0xb8, 0x3b, 0x90, 0x8e, 0x4a, 0x3d,
  0x7f, 0x6a, 0x34, 0x3d, 0x4f, 0xc6, 0xcd, 0x3e, 0x0a, 0xed, 0x6c, 0x3e,
  0x76, 0xa5, 0xec, 0x3e, 0xf9, 0xae, 0x7c, 0x3b, 0xb6, 0x68, 0x05, 0xbd,
  0x9f, 0x75, 0x21, 0xbe, 0x5c, 0xeb, 0x62, 0xbd, 0x18, 0xc3, 0x01, 0x3e,
  0x37, 0x9c, 0xed, 0x3c, 0x84, 0x5a, 0xd0, 0xbd, 0x0a, 0x31, 0x99, 0xbc,
  0xf8, 0x96, 0x5e, 0xbc, 0x6f, 0xd5, 0x33, 0x3d, 0xdd, 0x90, 0x03, 0x3e,
  0xec, 0xd5, 0x00, 0x3d, 0x54, 0x3d, 0x26, 0x3e, 0xc5, 0x63, 0x8a, 0x3b,
  0x52, 0xe4, 0xd3, 0xbd, 0x47, 0x9a, 0xaf, 0x3e, 0x9d, 0xfd, 0x19, 0x3e,
  0x40, 0xb8, 0x9a, 0x3e, 0xe1, 0xf1, 0x3f, 0xbd, 0x75, 0x94, 0x17, 0xbe,
  0x31, 0x2e, 0xfe, 0x3d, 0x72, 0xf2, 0xe3, 0x3d, 0xc4, 0x55, 0x57, 0xbe,
  0x51, 0xb6, 0x99, 0xbc, 0x91, 0x89, 0x65, 0xbe, 0xda, 0x46, 0x00, 0xbe,
  0x2b, 0xa9, 0x70, 0x3e, 0x1f, 0x56, 0xb4, 0x3d, 0x6f, 0xaf, 0xe4, 0x3c,
  0x2d, 0x64, 0x05, 0x3e, 0x0e, 0x56, 0x05, 0xb9, 0x58, 0x92, 0xaa, 0x3e,
  0xa7, 0x5b, 0x21, 0x3e, 0x8a, 0x8b, 0xbb, 0x3c, 0xa6, 0xdf, 0x74, 0xbc,
  0xd8, 0xcd, 0x38, 0x3d, 0x1e, 0x58, 0xf7, 0xbc, 0x92, 0xfb, 0x34, 0x3e,
  0xf3, 0x8d, 0x4b, 0xbe, 0xeb, 0xc9, 0x39, 0x3e, 0x31, 0xc9, 0xdd, 0x3c,
  0xac, 0x0a, 0x6d, 0x3d, 0x63, 0xa8, 0xbf, 0xbc, 0x14, 0x7a, 0x26, 0xbe,
  0x4e, 0x4d, 0xbd, 0xbc, 0x09, 0x44, 0x50, 0x3e, 0x40, 0x6c, 0x65, 0x3e,
  0x8b, 0x22, 0x1d, 0xbe, 0x8c, 0x50, 0x8e, 0xbe, 0x55, 0xcd, 0xaf, 0x3e,
  0x0a, 0xdd, 0xd0, 0xbd, 0x46, 0x60, 0x9e, 0xbd, 0xd6, 0x3f, 0x0a, 0x3e,
  0x05, 0x0b, 0xa9, 0x3d, 0xf3, 0x8a, 0x5d, 0xbe, 0x9b, 0xa9, 0x2c, 0x3d,
  0x84, 0x02, 0xba, 0xbd, 0x59, 0xf8, 0xed, 0xbd, 0x2b, 0xad, 0x03, 0xbd,
  0x85, 0x55, 0x0a, 0xbe, 0xff, 0xc8, 0xb2, 0x3e, 0xf3, 0x99, 0xc0, 0xbd,
  0x3d, 0xc7, 0x0d, 0x3d, 0xbf, 0x6d, 0xae, 0x3e, 0x36, 0xb0, 0x02, 0x3e,
  0xbe, 0x5a, 0x36, 0x3e, 0x87, 0x21, 0x18, 0xbe, 0xb1, 0x96, 0x48, 0xbe,
  0x93, 0x23, 0xba, 0x3d, 0x99, 0x52, 0xf6, 0xbc, 0x56, 0x58, 0x41, 0xbe,
  0x44, 0x6d, 0x03, 0xbe, 0x6d, 0x16, 0xf3, 0x3d, 0x5f, 0x4f, 0x01, 0xbd,
  0x18, 0x01, 0xee, 0x3c, 0x7e, 0x61, 0x8b, 0x3d, 0x85, 0x86, 0x84, 0x3e,
  0xd3, 0x3a, 0x87, 0xbc, 0xfc, 0xf4, 0x30, 0xbe, 0x91, 0xbf, 0xf7, 0x3e,
  0x22, 0x4b, 0xc7, 0x3d, 0x6d, 0x48, 0x4e, 0x3e, 0x5a, 0x9e, 0x66, 0xbd,
  0x17, 0xed, 0x02, 0x3d, 0x09, 0xba, 0x9a, 0xbc, 0x1c, 0xdd, 0x29, 0xbd,
  0x52, 0x97, 0xb1, 0x3d, 0xd4, 0x07, 0x39, 0xbe, 0x17, 0x27, 0x3d, 0x3e,
  0x67, 0xd8, 0xaa, 0x3c, 0x75, 0x6e, 0x17, 0xbd, 0x54, 0x88, 0x47, 0xbe,
  0xad, 0xfa, 0x86, 0x3e, 0xa0, 0x7b, 0xc6, 0x3d, 0x09, 0xb7, 0x14, 0xbe,
  0x98, 0x9f, 0xfa, 0x3e, 0xb0, 0xf1, 0x40, 0xbe, 0xb9, 0xa2, 0x0a, 0x3d,
  0xe9, 0x8b, 0x60, 0xbc, 0xa1, 0x23, 0xdb, 0xbd, 0x76, 0xe3, 0x95, 0xbc,
  0x47, 0xab, 0x78, 0xbe, 0x2a, 0x95, 0x33, 0xbe, 0xfe, 0xf7, 0xd4, 0xbd,
  0xf6, 0x4a, 0xb4, 0xbc, 0x83, 0x13, 0x0a, 0x3e, 0xbb, 0x72, 0x04, 0x3e,
  0xb7, 0xa2, 0x49, 0x3d, 0x91, 0x60, 0xc4, 0x3d, 0xff, 0xaf, 0x5e, 0x3e,
  0x2f, 0x68, 0x1a, 0x3c, 0xae, 0x6a, 0x8d, 0x3e, 0x89, 0xb7, 0xd5, 0xbd,
  0x28, 0x55, 0xa1, 0xbd, 0xfc, 0x38, 0xb2, 0xbd, 0x78, 0xdf, 0xf1, 0xbd,
  0x5a, 0x6c, 0x5e, 0x3e, 0xed, 0x0c, 0x0f, 0xbe, 0x10, 0x33, 0x93, 0xbe,
  0x83, 0x0a, 0x20, 0x3e, 0x2f, 0x9f, 0x7b, 0x3e, 0x53, 0x91, 0xea, 0xbd,
  0xdc, 0xf4, 0x8f, 0x3e, 0x9d, 0xeb, 0x26, 0xbc, 0x07, 0x72, 0x25, 0x3d,
  0x95, 0x50, 0xb5, 0xbd, 0x3b, 0x9b, 0xe7, 0xbd, 0x83, 0x49, 0xa9, 0x3e,
  0xa9, 0x76, 0xd8, 0x3d, 0x07, 0xc2, 0x4b, 0x3e, 0xb3, 0x4f, 0x8e, 0xbd,
  0xb8, 0x99, 0xbb, 0xbd, 0x4b, 0x40, 0x85, 0xbd, 0x33, 0xdb, 0x1a, 0xbe,
  0xcd, 0x2d, 0xb5, 0xbd, 0x73, 0x5f, 0x01, 0xbe, 0xe2, 0x1a, 0xa3, 0xbd,
  0x3b, 0x8e, 0xad, 0xbd, 0xd3, 0x73, 0x58, 0xbc, 0x93, 0x22, 0x46, 0x3e,
  0x9d, 0x6e, 0x30, 0x3e, 0x79, 0x8f, 0x8d, 0xbc, 0xe7, 0xc1, 0xf0, 0xbb,
  0x99, 0x9f, 0x92, 0x3e, 0x41, 0xbc, 0x41, 0x3e, 0x47, 0x4a, 0xa3, 0xbd,
  0x85, 0x5f, 0x3f, 0xbe, 0x35, 0xbe, 0x0c, 0xbe, 0xac, 0xb4, 0xda, 0xbc,
  0xd8, 0x84, 0x72, 0x3d, 0x6f, 0x75, 0x43, 0xbe, 0x93, 0x8c, 0xb2, 0xbb,
  0xdd, 0x8d, 0x41, 0xbe, 0x28, 0x8b, 0x3d, 0xbd, 0x6c, 0xdd, 0x6a, 0x3e,
  0x51, 0x0f, 0xbb, 0x3d, 0xd8, 0xf7, 0x94, 0x3d, 0xe3, 0x99, 0x6b, 0x3e,
  0x25, 0x78, 0xae, 0xbd, 0x4d, 0x7e, 0x9e, 0xbd, 0x1f, 0x59, 0x64, 0x3e,
  0xb3, 0x98, 0x95, 0x3e, 0xaa, 0x2a, 0x27, 0xbd, 0x2a, 0x3a, 0x2a, 0xbe,
  0xce, 0xb8, 0xc5, 0x3b, 0xff, 0x1e, 0xb7, 0x3d, 0x44, 0xd9, 0x26, 0xbe,
  0xd9, 0x64, 0xd2, 0x3c, 0x2f, 0x13, 0x8d, 0x3c, 0x03, 0xba, 0x19, 0x3e,
  0x31, 0xa1, 0x42, 0xbe, 0xde, 0x85, 0x3e, 0x3e, 0x65, 0x56, 0x01, 0x3e,
  0x37, 0xc3, 0x0d, 0xbd, 0x9a, 0xe4, 0x17, 0x3e, 0xd3, 0x8b, 0x13, 0xbe,
  0xfc, 0x6f, 0xf3, 0xbc, 0xd8, 0xf1, 0x08, 0x3e, 0xdb, 0xa2, 0x94, 0xbd,
  0xe3, 0xb1, 0xfd, 0x3d, 0xa7, 0x6f, 0x03, 0x3e, 0xc6, 0xeb, 0x2e, 0x3e,
  0x2a, 0x3d, 0x7d, 0xbd, 0x66, 0x84, 0x9c, 0xbd, 0xc0, 0xc4, 0xaa, 0xbc,
  0xa8, 0xe2, 0x65, 0xbe, 0x9b, 0x3d, 0x1a, 0xbd, 0x09, 0xc2, 0x2e, 0x3e,
  0x82, 0x98, 0x04, 0xbd, 0x65, 0x7b, 0x1e, 0xbe, 0xfe, 0x46, 0x6e, 0x3d,
  0xfb, 0xa9, 0xcc, 0xbb, 0x0e, 0xdb, 0x59, 0xbd, 0xea, 0x57, 0x23, 0x3e,
  0x44, 0xfc, 0x86, 0xbe, 0xe0, 0x1b, 0x43, 0xbe, 0x4f, 0x3a, 0x68, 0xbe,
  0x49, 0x28, 0x2f, 0x3e, 0xa7, 0x56, 0x63, 0x3d, 0xa2, 0xa3, 0x19, 0xbe,
  0x35, 0x23, 0xd0, 0xbd, 0x16, 0x7f, 0x0a, 0x3e, 0x79, 0x9c, 0x9f, 0x3d,
  0x20, 0xa8, 0xe2, 0x3c, 0xe4, 0xd6, 0x81, 0xbe, 0x6d, 0xe7, 0xdb, 0xbd,
  0xc4, 0x4b, 0x3c, 0x3d, 0x42, 0x75, 0x03, 0xbd, 0xf0, 0xd7, 0x18, 0xbc,
  0x25, 0x4e, 0xf1, 0x3d, 0x0e, 0xfb, 0x32, 0xbe, 0x9c, 0x2d, 0xb9, 0xbd,
  0xd4, 0x1b, 0x3d, 0x3e, 0x51, 0x4d, 0x43, 0x3e, 0xab, 0xb2, 0x74, 0xbe,
  0x1a, 0xe7, 0xdd, 0xbd, 0xab, 0x14, 0x54, 0xbe, 0x76, 0x83, 0x34, 0xbd,
  0x38, 0xfb, 0xfa, 0x3d, 0x29, 0xe4, 0x49, 0xbd, 0x21, 0xfa, 0xb0, 0xbc,
  0xab, 0xdb, 0x55, 0xbd, 0xd5, 0x83, 0x29, 0xbe, 0xcd, 0x79, 0x95, 0xbd,
  0x1e, 0xd4, 0xe5, 0x3c, 0x20, 0xcd, 0x07, 0x3e, 0x2a, 0x96, 0xc9, 0xbd,
  0x8e, 0xa1, 0x8e, 0xbd, 0x84, 0x36, 0x4a, 0x3d, 0x05, 0xdc, 0x91, 0x3c,
  0x4a, 0x4b, 0x97, 0x3d, 0x90, 0x4b, 0x88, 0x3d, 0xd0, 0xb9, 0x94, 0xbd,
  0xbf, 0x9d, 0x12, 0x3e, 0x8f, 0xf8, 0x1e, 0x3e, 0x97, 0xf3, 0x14, 0xbe,
  0xcd, 0x7d, 0x3c, 0xbc, 0x09, 0x30, 0xca, 0xbd, 0xc9, 0xe2, 0x3b, 0x3b,
  0x80, 0x53, 0xa8, 0xbd, 0x28, 0x1f, 0x6b, 0xbe, 0xb0, 0x0a, 0xb1, 0xbc,
  0x77, 0x4a, 0x89, 0xb5, 0x13, 0x38, 0x4b, 0xbe, 0x98, 0x0f, 0xa2, 0xbd,
  0x36, 0x4b, 0xdb, 0x3c, 0xe5, 0x77, 0x16, 0xbe, 0xfb, 0xb3, 0x8c, 0xbe,
  0x9f, 0xf0, 0xfa, 0xbd, 0x38, 0x9c, 0x34, 0x3c, 0xc0, 0x63, 0x6f, 0x3d,
  0x58, 0x9e, 0x07, 0xbc, 0xb9, 0x03, 0x2f, 0x3d, 0x0b, 0xa2, 0xc9, 0x38,
  0xd6, 0x5b, 0x4d, 0x3d, 0x9d, 0x55, 0x9d, 0x3d, 0xc7, 0xfb, 0xc4, 0x3d,
  0x61, 0x78, 0xaf, 0x3d, 0x8b, 0xf4, 0x4f, 0xbe, 0x2c, 0xc5, 0x3f, 0xbe,
  0xf4, 0xf7, 0x2f, 0x3e, 0xaf, 0xc1, 0x36, 0x3e, 0x84, 0x48, 0x5d, 0xbd,
  0x9a, 0x20, 0x07, 0xbe, 0x23, 0xe2, 0x9b, 0x3d, 0xc9, 0xc0, 0x54, 0xbd,
  0x27, 0x80, 0x22, 0xbd, 0x42, 0x6b, 0xf0, 0xbd, 0xd2, 0x0e, 0x33, 0xbe,
  0xe6, 0x9b, 0x07, 0x3e, 0x9e, 0x7d, 0xc4, 0x3c, 0x06, 0x82, 0x0c, 0xbe,
  0x27, 0x99, 0x0c, 0x3d, 0xa2, 0x87, 0x0e, 0xbe, 0x70, 0xe9, 0x27, 0xbe,
  0xb9, 0x45, 0xd5, 0x3d, 0x71, 0xea, 0x5e, 0xbd, 0x16, 0x23, 0x48, 0x3e,
  0x1f, 0xed, 0x23, 0x3d, 0xe0, 0x07, 0x87, 0xbe, 0x8c, 0x4d, 0x37, 0x3d,
  0xef, 0xe5, 0x81, 0xbe, 0x5d, 0xec, 0xf5, 0x3d, 0x6f, 0x3c, 0x6a, 0xbe,
  0xc9, 0x20, 0x18, 0xbe, 0xc5, 0x3c, 0x17, 0xbe, 0x25, 0xdf, 0xa0, 0x3d,
  0xe1, 0xce, 0x05, 0x3e, 0x44, 0x07, 0xa7, 0x3d, 0xf3, 0x9c, 0x74, 0xbe,
  0x5f, 0x66, 0x1c, 0x3d, 0x9a, 0x86, 0x0b, 0xbe, 0xa1, 0x5a, 0x3e, 0xbe,
  0x15, 0x8c, 0x21, 0xbe, 0x36, 0xf8, 0x0b, 0xbd, 0xa4, 0xe9, 0xc7, 0x3d,
  0x9f, 0x77, 0x07, 0xbd, 0x87, 0xb4, 0x08, 0xbe, 0x9a, 0x28, 0x58, 0xbe,
  0x2f, 0x88, 0xc4, 0x3d, 0xe0, 0x00, 0x27, 0x3c, 0xda, 0x5d, 0xd9, 0x3c,
  0x9e, 0x85, 0x1d, 0xbe, 0xce, 0x90, 0xca, 0x3d, 0xc4, 0xcc, 0x38, 0xbe,
  0x27, 0x47, 0xff, 0x3d, 0x65, 0x7c, 0x83, 0x3b, 0x31, 0x9c, 0x16, 0xbd,
  0x7c, 0x76, 0x4b, 0x3d, 0xf9, 0x71, 0xf6, 0x3d, 0x96, 0x37, 0x2b, 0x3d,
  0xd4, 0x1f, 0xee, 0xbd, 0xb1, 0xae, 0x51, 0xbe, 0x7b, 0x0c, 0x88, 0xbe,
  0x9c, 0xc0, 0xad, 0x3d, 0xab, 0xed, 0x98, 0x3d, 0x64, 0xdc, 0x58, 0xbd,
  0x29, 0x82, 0x9c, 0xbd, 0x85, 0xbd, 0x32, 0x3e, 0x82, 0x81, 0x2f, 0x3d,
  0x1c, 0xc3, 0x44, 0x3d, 0xfc, 0x38, 0x54, 0xbe, 0x09, 0x05, 0x38, 0xbe,
  0xf8, 0x6f, 0x1c, 0xbe, 0x0c, 0xf6, 0x01, 0xbe, 0xb7, 0xa8, 0x53, 0xbe,
  0xe9, 0x6b, 0x48, 0xbe, 0x79, 0x46, 0xb3, 0x3d, 0xe1, 0x73, 0xa4, 0xbd,
  0xa7, 0xc2, 0x7c, 0xbe, 0xc9, 0xa1, 0x9f, 0x3d, 0x3a, 0x18, 0x4d, 0xbe,
  0x97, 0x95, 0x4a, 0xbd, 0xf5, 0x8e, 0xbb, 0x3c, 0x08, 0xed, 0xe5, 0xbc,
  0x1c, 0x81, 0x45, 0xbe, 0xb3, 0x2b, 0x78, 0xbd, 0x3f, 0xf4, 0x80, 0xbe,
  0xbc, 0x05, 0xbc, 0x3d, 0xb8, 0x66, 0x5e, 0xbe, 0x68, 0xaa, 0x55, 0xbe,
  0x65, 0xa7, 0xd1, 0x3c, 0x3e, 0x00, 0x3e, 0xbe, 0x76, 0x5a, 0xa4, 0xbd,
  0x48, 0x75, 0x7e, 0xbe, 0x8c, 0xe3, 0x17, 0xbd, 0x1f, 0x68, 0xab, 0x3d,
  0xcd, 0xc7, 0x38, 0x3e, 0x89, 0x22, 0x46, 0x3d, 0x88, 0x59, 0xb6, 0xbd,
  0xb0, 0x27, 0xb8, 0xbd, 0xae, 0x6b, 0x82, 0xbe, 0x5d, 0xbd, 0x0f, 0x3d,
  0x9b, 0xe5, 0x54, 0x3c, 0x12, 0x23, 0xbd, 0x3c, 0xb0, 0xf5, 0x8f, 0xbc,
  0xc0, 0x40, 0x4b, 0x3d, 0x57, 0xb8, 0xc9, 0xbd, 0xbb, 0x9a, 0x1a, 0xbe,
  0x7d, 0x12, 0x3a, 0xbe, 0xc4, 0xb9, 0x48, 0xbe, 0xe7, 0x36, 0x72, 0xbe,
  0xa3, 0xba, 0x1a, 0x3e, 0x73, 0x09, 0x85, 0xbd, 0x5b, 0x50, 0x0b, 0x3e,
  0xbc, 0xe0, 0x0d, 0xbd, 0x91, 0xdd, 0x8e, 0xbd, 0xa2, 0x4c, 0xb7, 0xbd,
  0x5e, 0xa7, 0xef, 0x3d, 0x5c, 0xc7, 0xbe, 0x3c, 0xc4, 0x69, 0x6a, 0xbe,
  0x1b, 0x87, 0x61, 0xbc, 0xf3, 0xdf, 0x9b, 0xbd, 0x07, 0x26, 0x1c, 0x3e,
  0x7a, 0x19, 0x40, 0xbe, 0xbb, 0x85, 0x1a, 0x3d, 0xdb, 0x73, 0x52, 0x3c,
  0x11, 0x45, 0x6a, 0xbe, 0x6a, 0xae, 0xc0, 0x3d, 0x43, 0x13, 0x27, 0xbe,
  0x63, 0x87, 0xc4, 0xbc, 0xd5, 0x30, 0xfe, 0xbd, 0x81, 0xec, 0x3a, 0xbe,
  0x15, 0x63, 0x67, 0xbd, 0x51, 0x8f, 0x31, 0xbd, 0x87, 0x90, 0x38, 0xbd,
  0x6f, 0x95, 0x62, 0xbd, 0x32, 0x2f, 0xa9, 0xbd, 0xe0, 0x8e, 0xc6, 0x3d,
  0x21, 0x2d, 0x61, 0xbe, 0x12, 0xfa, 0xa3, 0x3c, 0x7c, 0xcd, 0x20, 0x3d,
  0x1d, 0x83, 0x85, 0xbd, 0x1b, 0xbf, 0x1e, 0x3c, 0xee, 0xda, 0x12, 0xbe,
  0x03, 0x1b, 0x67, 0xbe, 0xda, 0xd8, 0x4e, 0xbd, 0xcf, 0x6d, 0xf9, 0x3d,
  0x3b, 0x93, 0x55, 0xbd, 0x7f, 0x16, 0x1a, 0xbe, 0x7a, 0x64, 0xa3, 0x3d,
  0x55, 0x72, 0x5c, 0xbe, 0x2e, 0x5c, 0x9b, 0xbe, 0xf1, 0x1c, 0x74, 0xbe,
  0x24, 0x69, 0xcb, 0xbb, 0x6d, 0x57, 0xe6, 0x3d, 0x5d, 0xd6, 0xcb, 0x3d,
  0xf0, 0x14, 0x95, 0x3d, 0x6a, 0xb9, 0x67, 0xbd, 0xb6, 0xf4, 0x0c, 0x3e,
  0xae, 0xe5, 0xb9, 0xbd, 0x44, 0x01, 0x1f, 0x3e, 0x62, 0x7f, 0xb2, 0xbd,
  0x50, 0x0c, 0xe2, 0x3d, 0xc9, 0x9e, 0xd8, 0xbc, 0x4d, 0x30, 0x33, 0xbd,
  0xa1, 0x91, 0x39, 0x3e, 0xdb, 0x35, 0xdf, 0x3d, 0x05, 0x72, 0x03, 0x3c,
  0x46, 0x16, 0x21, 0x3d, 0x06, 0x83, 0xd6, 0xbd, 0x2f, 0x4d, 0x3d, 0x3c,
  0x81, 0x22, 0x46, 0xbe, 0x84, 0xf5, 0x94, 0xbd, 0x3f, 0x6c, 0x35, 0xbe,
  0x54, 0x21, 0x94, 0xbd, 0x67, 0x06, 0xe3, 0xbd, 0x40, 0x00, 0x99, 0x3d,
  0xbc, 0x11, 0x53, 0xbe, 0x61, 0xbd, 0x68, 0xbe, 0x25, 0x91, 0x57, 0xbe,
  0x8c, 0x16, 0x6c, 0xbe, 0x4a, 0x2b, 0x4b, 0xbe, 0x55, 0xcb, 0x0b, 0x3e,
  0x39, 0x8b, 0x52, 0xbe, 0x54, 0x65, 0x2e, 0xbe, 0x6b, 0xb4, 0x26, 0x3e,
  0x31, 0xbb, 0xde, 0x3c, 0x04, 0x30, 0xdb, 0x3c, 0xf4, 0x6b, 0x68, 0xbd,
  0x20, 0x73, 0x18, 0xbe, 0x12, 0x72, 0xc1, 0x3d, 0xb0, 0x7e, 0x37, 0x3d,
  0xc6, 0x1c, 0xcd, 0x3d, 0x83, 0x39, 0xc1, 0xba, 0xe4, 0xd9, 0x02, 0x3d,
  0xe4, 0xc4, 0x4f, 0xbd, 0x72, 0xdd, 0xd8, 0xbc, 0x1f, 0xcd, 0x44, 0xbd,
  0x52, 0x1b, 0xcf, 0xbd, 0xa4, 0x93, 0x08, 0xbe, 0xc1, 0x31, 0x73, 0x3c,
  0xa4, 0x0a, 0x29, 0xbd, 0x92, 0x89, 0x9a, 0xbd, 0xbc, 0xe1, 0x82, 0xbd,
  0x5c, 0x0a, 0x8a, 0xbe, 0xd7, 0x8c, 0xc9, 0x3d, 0x19, 0xee, 0x13, 0xbd,
  0x80, 0x88, 0xec, 0xba, 0x15, 0xb5, 0xe7, 0xbc, 0x4c, 0x43, 0x45, 0x3d,
  0x39, 0x2d, 0xce, 0xbd, 0x8a, 0xf8, 0x11, 0xbe, 0xb0, 0x7e, 0x8e, 0x3d,
  0x19, 0x7a, 0x15, 0x3e, 0x6f, 0xac, 0x85, 0x3d, 0x48, 0xbb, 0x4b, 0xbd,
  0x07, 0xef, 0x9c, 0xbc, 0x81, 0x86, 0xf4, 0xbc, 0x6b, 0xb8, 0x47, 0xbe,
  0xfc, 0x9e, 0xf4, 0x3d, 0x40, 0xc6, 0x50, 0xbe, 0xa7, 0x35, 0x85, 0xbe,
  0x32, 0xa1, 0xfe, 0x3d, 0x85, 0x4f, 0xa3, 0x3c, 0x02, 0x0b, 0x5b, 0xbe,
  0xf0, 0x5a, 0x71, 0xbd, 0xe0, 0xa6, 0x35, 0xbe, 0x0d, 0xf3, 0xaa, 0x3c,
  0xb7, 0x7d, 0x01, 0xbe, 0x83, 0xc0, 0x80, 0x3d, 0x24, 0x25, 0x43, 0x3d,
  0xe3, 0x99, 0x96, 0xbe, 0xd0, 0x06, 0x6d, 0xbe, 0x71, 0x09, 0x19, 0x3c,
  0xda, 0x24, 0x2e, 0x3d, 0x4d, 0x06, 0xd1, 0xbd, 0x35, 0x58, 0x09, 0xbd,
  0x80, 0x92, 0xb9, 0xbc, 0x91, 0x72, 0x00, 0xbe, 0x72, 0xa1, 0x91, 0x3d,
  0x4c, 0x77, 0x57, 0xbe, 0xa1, 0xd9, 0x8b, 0xbd, 0xaa, 0x72, 0x9e, 0x3b,
  0x73, 0x4d, 0x76, 0x3d, 0x44, 0xbe, 0x92, 0x3d, 0x7a, 0x28, 0x83, 0xbe,
  0x53, 0xf8, 0x28, 0xbe, 0xd9, 0x71, 0x96, 0xbe, 0x5a, 0x78, 0xc7, 0x3d,
  0xe8, 0xf2, 0xb1, 0x3d, 0xc6, 0x56, 0x04, 0x3e, 0x82, 0xe2, 0x1e, 0xbd,
  0xdb, 0x5d, 0xf4, 0x3d, 0x99, 0xe6, 0x01, 0x3e, 0xb7, 0xf8, 0xc5, 0xbc,
  0x25, 0xd0, 0xed, 0xbd, 0xae, 0x21, 0x3a, 0x3e, 0x6e, 0x18, 0x50, 0xbe,
  0xfe, 0x21, 0x0a, 0x3e, 0x63, 0x70, 0x2c, 0x3e, 0xc5, 0x33, 0x01, 0xbe,
  0xa3, 0x4b, 0x3e, 0x3e, 0xc8, 0x21, 0xba, 0xbd, 0x44, 0x2c, 0x0f, 0x3b,
  0x75, 0xa6, 0x82, 0x3b, 0x64, 0x41, 0x06, 0xbe, 0x7d, 0xc1, 0xec, 0xbd,
  0x51, 0x89, 0x2b, 0x3d, 0x94, 0x45, 0x80, 0xbe, 0x91, 0x29, 0x06, 0xbd,
  0xb5, 0xe2, 0xd8, 0xbc, 0xcd, 0x3c, 0x12, 0xbd, 0xd9, 0x62, 0x1e, 0x3e,
  0x71, 0x44, 0x22, 0x3d, 0x36, 0xb6, 0x3d, 0xbb, 0x8c, 0xd2, 0x13, 0xbe,
  0x57, 0xb7, 0x82, 0xbe, 0x51, 0x3b, 0xa8, 0x3d, 0xbd, 0x25, 0xd5, 0xbc,
  0x91, 0x5f, 0x26, 0xbe, 0x3d, 0xdc, 0x44, 0xbe, 0xed, 0xd7, 0x27, 0x3e,
  0x71, 0x30, 0x7e, 0xbd, 0x26, 0x2a, 0x2a, 0xbe, 0x6b, 0x29, 0x8b, 0x3d,
  0xc4, 0xcc, 0x58, 0xbd, 0xe4, 0xba, 0xd7, 0x3c, 0x9c, 0x8e, 0xbf, 0x3d,
  0xfa, 0x80, 0x2c, 0x3e, 0x5b, 0xda, 0x6f, 0x3d, 0x4d, 0xb5, 0x1b, 0xbe,
  0xc1, 0x9d, 0xa0, 0x3d, 0xc4, 0x8d, 0x67, 0xbd, 0xd5, 0x6b, 0x29, 0x3e,
  0xee, 0xf3, 0x3e, 0xbd, 0x09, 0xd3, 0x92, 0xbb, 0x58, 0x44, 0x6f, 0xbe,
  0x0e, 0xb4, 0xee, 0xbd, 0xf4, 0x1a, 0x78, 0x3d, 0xe5, 0x11, 0x64, 0xbe,
  0xd6, 0x6e, 0x9f, 0x3d, 0x1e, 0x7c, 0xb5, 0x3d, 0xe6, 0x34, 0x04, 0x3e,
  0x5f, 0x2d, 0xee, 0x3c, 0x20, 0x69, 0x26, 0x3e, 0xf9, 0xe8, 0x0a, 0x3e,
  0x14, 0xb9, 0x01, 0x3d, 0x97, 0x20, 0x41, 0x3e, 0x57, 0xee, 0x47, 0xbe,
  0x53, 0xcd, 0x70, 0xbe, 0xe2, 0x30, 0x44, 0xbc, 0x8d, 0x72, 0x99, 0xbc,
  0xe6, 0xe3, 0xce, 0x3d, 0xf5, 0xba, 0xab, 0xbb, 0x51, 0x85, 0x2b, 0x3e,
  0x1e, 0xe2, 0xe5, 0x3d, 0x41, 0x6f, 0x1e, 0xbe, 0xdb, 0xc8, 0x03, 0xbe,
  0x9d, 0xb8, 0x47, 0x3d, 0x30, 0xa8, 0xaf, 0x3c, 0x89, 0xd6, 0x57, 0x3d,
  0x10, 0x39, 0x02, 0x3c, 0x94, 0x83, 0x45, 0x3d, 0xf3, 0xde, 0x5d, 0xbd,
  0x4c, 0x48, 0xb5, 0x3d, 0xe8, 0xc2, 0x14, 0x3e, 0xd3, 0xc3, 0x19, 0x3e,
  0x7a, 0x60, 0x00, 0xbe, 0xfd, 0xb5, 0x00, 0xbe, 0xbc, 0x7b, 0x95, 0xbc,
  0xc1, 0x02, 0x16, 0x3e, 0xb7, 0xfb, 0xb4, 0xbd, 0x92, 0x00, 0x13, 0xbd,
  0x10, 0xb5, 0x40, 0xbe, 0xe0, 0x45, 0xd5, 0x3d, 0x0b, 0x01, 0x6b, 0xbe,
  0x6a, 0x40, 0xc1, 0xbd, 0x27, 0x98, 0x7a, 0xbe, 0x2a, 0x47, 0xff, 0xbd,
  0x6d, 0x08, 0x40, 0xbd, 0x9d, 0x73, 0x66, 0xbe, 0x91, 0x82, 0x09, 0x3e,
  0x91, 0x8d, 0x4a, 0x3d, 0x59, 0xc4, 0x81, 0xbe, 0x9e, 0x74, 0x61, 0xbe,
  0x1a, 0x76, 0x01, 0xbe, 0xdb, 0xac, 0x5d, 0x3d, 0x5f, 0xa2, 0x91, 0xbe,
  0x62, 0xc5, 0x76, 0xbe, 0x6f, 0x38, 0x18, 0xbe, 0x3f, 0x13, 0x43, 0xbe,
  0x06, 0xe3, 0x03, 0x3e, 0x21, 0xb9, 0x29, 0xbe, 0xcc, 0x5c, 0x01, 0x3e,
  0x9b, 0x26, 0x00, 0xbd, 0x21, 0xa6, 0xda, 0xbc, 0x3c, 0xad, 0x85, 0xbe,
  0x93, 0xa7, 0x3a, 0x3d, 0x18, 0x5f, 0xc2, 0xba, 0x50, 0x1d, 0x4e, 0xbe,
  0x38, 0xf5, 0xea, 0x3c, 0x87, 0xc3, 0x31, 0x3e, 0x44, 0xa5, 0x49, 0x3e,
  0xa9, 0x52, 0xe4, 0x3c, 0x86, 0xff, 0xca, 0x3d, 0x63, 0x2d, 0x04, 0xbe,
  0x66, 0xfd, 0xff, 0xff, 0x10, 0x00, 0x00, 0x00, 0x07, 0x00, 0x00, 0x00,
  0x14, 0x00, 0x00, 0x00, 0x2c, 0x00, 0x00, 0x00, 0x02, 0x00, 0x00, 0x00,
  0x10, 0x00, 0x00, 0x00, 0x70, 0x00, 0x00, 0x00, 0x17, 0x00, 0x00, 0x00,
  0x73, 0x65, 0x71, 0x75, 0x65, 0x6e, 0x74, 0x69, 0x61, 0x6c, 0x2f, 0x64,
  0x65, 0x6e, 0x73, 0x65, 0x2f, 0x4d, 0x61, 0x74, 0x4d, 0x75, 0x6c, 0x00,
  0xd0, 0xfc, 0xff, 0xff, 0xda, 0xfd, 0xff, 0xff, 0x04, 0x00, 0x00, 0x00,
  0x08, 0x00, 0x00, 0x00, 0xff, 0xff, 0xff, 0xff, 0x70, 0x00, 0x00, 0x00,
  0x00, 0x00, 0x0e, 0x00, 0x18, 0x00, 0x08, 0x00, 0x07, 0x00, 0x0c, 0x00,
  0x10, 0x00, 0x14, 0x00, 0x0e, 0x00, 0x00, 0x00, 0x00, 0x00, 0x00, 0x02,
  0x10, 0x00, 0x00, 0x00, 0x06, 0x00, 0x00, 0x00, 0x10, 0x00, 0x00, 0x00,
  0x2c, 0x00, 0x00, 0x00, 0x01, 0x00, 0x00, 0x00, 0x02, 0x00, 0x00, 0x00,
  0x18, 0x00, 0x00, 0x00, 0x73, 0x65, 0x71, 0x75, 0x65, 0x6e, 0x74, 0x69,
  0x61, 0x6c, 0x2f, 0x66, 0x6c, 0x61, 0x74, 0x74, 0x65, 0x6e, 0x2f, 0x43,
  0x6f, 0x6e, 0x73, 0x74, 0x00, 0x00, 0x00, 0x00, 0x38, 0xfd, 0xff, 0xff,
  0x42, 0xfe, 0xff, 0xff, 0x04, 0x00, 0x00, 0x00, 0x0c, 0x00, 0x00, 0x00,
  0x41, 0xa2, 0xf6, 0xb9, 0x58, 0x54, 0x94, 0xbc, 0x49, 0xfb, 0xc3, 0xbc,
  0x26, 0xfe, 0xff, 0xff, 0x10, 0x00, 0x00, 0x00, 0x05, 0x00, 0x00, 0x00,
  0x10, 0x00, 0x00, 0x00, 0x44, 0x00, 0x00, 0x00, 0x01, 0x00, 0x00, 0x00,
  0x03, 0x00, 0x00, 0x00, 0x32, 0x00, 0x00, 0x00, 0x73, 0x65, 0x71, 0x75,
  0x65, 0x6e, 0x74, 0x69, 0x61, 0x6c, 0x2f, 0x64, 0x65, 0x6e, 0x73, 0x65,
  0x5f, 0x31, 0x2f, 0x42, 0x69, 0x61, 0x73, 0x41, 0x64, 0x64, 0x2f, 0x52,
  0x65, 0x61, 0x64, 0x56, 0x61, 0x72, 0x69, 0x61, 0x62, 0x6c, 0x65, 0x4f,
  0x70, 0x2f, 0x72, 0x65, 0x73, 0x6f, 0x75, 0x72, 0x63, 0x65, 0x00, 0x00,
  0xa8, 0xfd, 0xff, 0xff, 0xb2, 0xfe, 0xff, 0xff, 0x04, 0x00, 0x00, 0x00,
  0x40, 0x00, 0x00, 0x00, 0x9f, 0x0e, 0x42, 0xbd, 0x76, 0x01, 0x94, 0x3c,
  0x07, 0xce, 0x25, 0xbd, 0x72, 0x48, 0xaa, 0xbd, 0x5c, 0xb8, 0x1e, 0xbd,
  0x71, 0x9d, 0xd0, 0xbd, 0x23, 0x23, 0x82, 0xbd, 0x6d, 0xad, 0x97, 0xbd,
  0x9f, 0xb3, 0xc4, 0xbd, 0x98, 0x90, 0xf6, 0xbd, 0x7b, 0xfb, 0x89, 0x3e,
  0x30, 0xe1, 0x9b, 0xbd, 0x81, 0xc7, 0x8a, 0xbd, 0xeb, 0xeb, 0x08, 0xbe,
  0xa3, 0xd4, 0xa1, 0xbd, 0x98, 0x2e, 0x9a, 0xbd, 0xca, 0xfe, 0xff, 0xff,
  0x10, 0x00, 0x00, 0x00, 0x04, 0x00, 0x00, 0x00, 0x10, 0x00, 0x00, 0x00,
  0x44, 0x00, 0x00, 0x00, 0x01, 0x00, 0x00, 0x00, 0x10, 0x00, 0x00, 0x00,
  0x30, 0x00, 0x00, 0x00, 0x73, 0x65, 0x71, 0x75, 0x65, 0x6e, 0x74, 0x69,
  0x61, 0x6c, 0x2f, 0x64, 0x65, 0x6e, 0x73, 0x65, 0x2f, 0x42, 0x69, 0x61,
  0x73, 0x41, 0x64, 0x64, 0x2f, 0x52, 0x65, 0x61, 0x64, 0x56, 0x61, 0x72,
  0x69, 0x61, 0x62, 0x6c, 0x65, 0x4f, 0x70, 0x2f, 0x72, 0x65, 0x73, 0x6f,
  0x75, 0x72, 0x63, 0x65, 0x00, 0x00, 0x00, 0x00, 0x4c, 0xfe, 0xff, 0xff,
  0x56, 0xff, 0xff, 0xff, 0x04, 0x00, 0x00, 0x00, 0x40, 0x00, 0x00, 0x00,
  0x10, 0xdd, 0xb3, 0xbd, 0xfc, 0x09, 0x47, 0x3d, 0x0a, 0x41, 0x2d, 0xbe,
  0x60, 0xc5, 0x65, 0x3c, 0x6c, 0x0b, 0xba, 0xbd, 0xf4, 0x48, 0xa8, 0xbd,
  0x0f, 0x52, 0x95, 0x3e, 0x2f, 0xf3, 0xb1, 0xbb, 0xa7, 0x60, 0x6f, 0xbc,
  0x7a, 0x62, 0x2a, 0x3d, 0xfa, 0x5e, 0xc3, 0x3d, 0x62, 0xe9, 0xd5, 0xbd,
  0x68, 0x43, 0x99, 0x3d, 0x02, 0x60, 0x0e, 0xbe, 0xb3, 0x48, 0x9b, 0xbc,
  0x8a, 0x19, 0x68, 0xbd, 0x6e, 0xff, 0xff, 0xff, 0x10, 0x00, 0x00, 0x00,
  0x03, 0x00, 0x00, 0x00, 0x10, 0x00, 0x00, 0x00, 0x48, 0x00, 0x00, 0x00,
  0x01, 0x00, 0x00, 0x00, 0x10, 0x00, 0x00, 0x00, 0x33, 0x00, 0x00, 0x00,
  0x73, 0x65, 0x71, 0x75, 0x65, 0x6e, 0x74, 0x69, 0x61, 0x6c, 0x2f, 0x63,
  0x6f, 0x6e, 0x76, 0x32, 0x64, 0x5f, 0x31, 0x2f, 0x42, 0x69, 0x61, 0x73,
  0x41, 0x64, 0x64, 0x2f, 0x52, 0x65, 0x61, 0x64, 0x56, 0x61, 0x72, 0x69,
  0x61, 0x62, 0x6c, 0x65, 0x4f, 0x70, 0x2f, 0x72, 0x65, 0x73, 0x6f, 0x75,
  0x72, 0x63, 0x65, 0x00, 0x04, 0x00, 0x06, 0x00, 0x04, 0x00, 0x00, 0x00,
  0x00, 0x00, 0x06, 0x00, 0x08, 0x00, 0x04, 0x00, 0x06, 0x00, 0x00, 0x00,
  0x04, 0x00, 0x00, 0x00, 0x20, 0x00, 0x00, 0x00, 0x73, 0xad, 0x03, 0xbf,
  0x32, 0x8b, 0xb9, 0xbe, 0x1b, 0x71, 0x60, 0xbd, 0xee, 0x3c, 0x19, 0xbc,
  0x8f, 0x16, 0xad, 0xbd, 0xe6, 0x44, 0xf7, 0x3a, 0x48, 0xbe, 0xeb, 0xbe,
  0x3e, 0x30, 0xd8, 0xbe, 0x00, 0x00, 0x0e, 0x00, 0x14, 0x00, 0x04, 0x00,
  0x00, 0x00, 0x08, 0x00, 0x0c, 0x00, 0x10, 0x00, 0x0e, 0x00, 0x00, 0x00,
  0x10, 0x00, 0x00, 0x00, 0x02, 0x00, 0x00, 0x00, 0x10, 0x00, 0x00, 0x00,
  0x44, 0x00, 0x00, 0x00, 0x01, 0x00, 0x00, 0x00, 0x08, 0x00, 0x00, 0x00,
  0x31, 0x00, 0x00, 0x00, 0x73, 0x65, 0x71, 0x75, 0x65, 0x6e, 0x74, 0x69,
  0x61, 0x6c, 0x2f, 0x63, 0x6f, 0x6e, 0x76, 0x32, 0x64, 0x2f, 0x42, 0x69,
  0x61, 0x73, 0x41, 0x64, 0x64, 0x2f, 0x52, 0x65, 0x61, 0x64, 0x56, 0x61,
  0x72, 0x69, 0x61, 0x62, 0x6c, 0x65, 0x4f, 0x70, 0x2f, 0x72, 0x65, 0x73,
  0x6f, 0x75, 0x72, 0x63, 0x65, 0x00, 0x00, 0x00, 0x90, 0xff, 0xff, 0xff,
  0x14, 0x00, 0x18, 0x00, 0x04, 0x00, 0x00, 0x00, 0x08, 0x00, 0x0c, 0x00,
  0x10, 0x00, 0x00, 0x00, 0x00, 0x00, 0x14, 0x00, 0x14, 0x00, 0x00, 0x00,
  0x14, 0x00, 0x00, 0x00, 0x01, 0x00, 0x00, 0x00, 0x20, 0x00, 0x00, 0x00,
  0x44, 0x00, 0x00, 0x00, 0x2c, 0x00, 0x00, 0x00, 0x04, 0x00, 0x00, 0x00,
  0x01, 0x00, 0x00, 0x00, 0x40, 0x00, 0x00, 0x00, 0x03, 0x00, 0x00, 0x00,
  0x01, 0x00, 0x00, 0x00, 0x0c, 0x00, 0x00, 0x00, 0x63, 0x6f, 0x6e, 0x76,
  0x32, 0x64, 0x5f, 0x69, 0x6e, 0x70, 0x75, 0x74, 0x00, 0x00, 0x00, 0x00,
  0x04, 0x00, 0x00, 0x00, 0xff, 0xff, 0xff, 0xff, 0x40, 0x00, 0x00, 0x00,
  0x03, 0x00, 0x00, 0x00, 0x01, 0x00, 0x00, 0x00, 0xfc, 0xff, 0xff, 0xff,
  0x04, 0x00, 0x04, 0x00, 0x04, 0x00, 0x00, 0x00
};

unsigned int model_tflite_len = 13052;// Fill the int in `src/model.cc` here