#include "magic_wand_model_data.h"

// We need to keep the data array aligned on some architectures.
#ifdef __has_attribute
#define HAVE_ATTRIBUTE(x) __has_attribute(x)
#else
#define HAVE_ATTRIBUTE(x) 0
#endif
#if HAVE_ATTRIBUTE(aligned) || (defined(__GNUC__) && !defined(__clang__))
#define DATA_ALIGN_ATTRIBUTE __attribute__((aligned(4)))
#else
#define DATA_ALIGN_ATTRIBUTE
#endif

const unsigned char g_magic_wand_model_data[] DATA_ALIGN_ATTRIBUTE = {
  // Paste the data of the char array in `src/model.cc` here


  0x1c, 0x00, 0x00, 0x00, 0x54, 0x46, 0x4c, 0x33, 0x14, 0x00, 0x20, 0x00,
  0x04, 0x00, 0x08, 0x00, 0x0c, 0x00, 0x10, 0x00, 0x14, 0x00, 0x00, 0x00,
  0x18, 0x00, 0x1c, 0x00, 0x14, 0x00, 0x00, 0x00, 0x03, 0x00, 0x00, 0x00,
  0x18, 0x00, 0x00, 0x00, 0x2c, 0x00, 0x00, 0x00, 0xd8, 0x00, 0x00, 0x00,
  0x2c, 0x00, 0x00, 0x00, 0x80, 0x00, 0x00, 0x00, 0x78, 0x00, 0x00, 0x00,
  0x05, 0x00, 0x00, 0x00, 0x28, 0x07, 0x00, 0x00, 0x44, 0x06, 0x00, 0x00,
  0xbc, 0x03, 0x00, 0x00, 0xf8, 0x02, 0x00, 0x00, 0xac, 0x01, 0x00, 0x00,
  0x01, 0x00, 0x00, 0x00, 0xd0, 0x00, 0x00, 0x00, 0x14, 0x00, 0x00, 0x00,
  0xdc, 0x32, 0x00, 0x00, 0xd8, 0x32, 0x00, 0x00, 0xd0, 0x31, 0x00, 0x00,
  0x1c, 0x31, 0x00, 0x00, 0x74, 0x30, 0x00, 0x00, 0xfc, 0x2f, 0x00, 0x00,
  0x90, 0x2f, 0x00, 0x00, 0x40, 0x13, 0x00, 0x00, 0xec, 0x11, 0x00, 0x00,
  0x10, 0x10, 0x00, 0x00, 0xb4, 0x07, 0x00, 0x00, 0xb0, 0x32, 0x00, 0x00,
  0xac, 0x32, 0x00, 0x00, 0xa8, 0x32, 0x00, 0x00, 0xa4, 0x32, 0x00, 0x00,
  0xa0, 0x32, 0x00, 0x00, 0x9c, 0x32, 0x00, 0x00, 0x98, 0x32, 0x00, 0x00,
  0x94, 0x32, 0x00, 0x00, 0x3c, 0x00, 0x00, 0x00, 0x00, 0x00, 0x00, 0x00,
  0x01, 0x00, 0x00, 0x00, 0x0c, 0x00, 0x00, 0x00, 0x08, 0x00, 0x0c, 0x00,
  0x04, 0x00, 0x08, 0x00, 0x08, 0x00, 0x00, 0x00, 0x08, 0x00, 0x00, 0x00,
  0x13, 0x00, 0x00, 0x00, 0x13, 0x00, 0x00, 0x00, 0x6d, 0x69, 0x6e, 0x5f,
  0x72, 0x75, 0x6e, 0x74, 0x69, 0x6d, 0x65, 0x5f, 0x76, 0x65, 0x72, 0x73,
  0x69, 0x6f, 0x6e, 0x00, 0xb6, 0xce, 0xff, 0xff, 0x04, 0x00, 0x00, 0x00,
  0x10, 0x00, 0x00, 0x00, 0x31, 0x2e, 0x35, 0x2e, 0x30, 0x00, 0x00, 0x00,
  0x00, 0x00, 0x00, 0x00, 0x00, 0x00, 0x00, 0x00, 0x0f, 0x00, 0x00, 0x00,
  0x4d, 0x4c, 0x49, 0x52, 0x20, 0x43, 0x6f, 0x6e, 0x76, 0x65, 0x72, 0x74,
  0x65, 0x64, 0x2e, 0x00, 0x00, 0x00, 0x0e, 0x00, 0x18, 0x00, 0x04, 0x00,
  0x08, 0x00, 0x0c, 0x00, 0x10, 0x00, 0x14, 0x00, 0x0e, 0x00, 0x00, 0x00,
  0x14, 0x00, 0x00, 0x00, 0x5c, 0x00, 0x00, 0x00, 0x60, 0x00, 0x00, 0x00,
  0x64, 0x00, 0x00, 0x00, 0x84, 0x00, 0x00, 0x00, 0x12, 0x00, 0x00, 0x00,
  0x9c, 0x31, 0x00, 0x00, 0x2c, 0x31, 0x00, 0x00, 0x88, 0x30, 0x00, 0x00,
  0xe0, 0x2f, 0x00, 0x00, 0x38, 0x2f, 0x00, 0x00, 0xd4, 0x2e, 0x00, 0x00,
  0x6c, 0x2e, 0x00, 0x00, 0x18, 0x12, 0x00, 0x00, 0xbc, 0x10, 0x00, 0x00,
  0xe0, 0x0e, 0x00, 0x00, 0x0c, 0x06, 0x00, 0x00, 0x28, 0x05, 0x00, 0x00,
  0xe8, 0x03, 0x00, 0x00, 0x3c, 0x03, 0x00, 0x00, 0x98, 0x02, 0x00, 0x00,
  0xd4, 0x01, 0x00, 0x00, 0x10, 0x01, 0x00, 0x00, 0x84, 0x00, 0x00, 0x00,
  0x01, 0x00, 0x00, 0x00, 0x00, 0x00, 0x00, 0x00, 0x01, 0x00, 0x00, 0x00,
  0x11, 0x00, 0x00, 0x00, 0x08, 0x00, 0x00, 0x00, 0x74, 0x05, 0x00, 0x00,
  0x94, 0x04, 0x00, 0x00, 0x78, 0x03, 0x00, 0x00, 0xbc, 0x02, 0x00, 0x00,
  0x30, 0x02, 0x00, 0x00, 0x50, 0x01, 0x00, 0x00, 0xa8, 0x00, 0x00, 0x00,
  0x10, 0x00, 0x00, 0x00, 0x04, 0x00, 0x00, 0x00, 0x6d, 0x61, 0x69, 0x6e,
  0x00, 0x00, 0x00, 0x00, 0x7a, 0xff, 0xff, 0xff, 0x00, 0x00, 0x00, 0x09,
  0x04, 0x00, 0x00, 0x00, 0x1c, 0x00, 0x00, 0x00, 0x10, 0x00, 0x00, 0x00,
  0x04, 0x00, 0x00, 0x00, 0xb2, 0xcf, 0xff, 0xff, 0x00, 0x00, 0x80, 0x3f,
  0x01, 0x00, 0x00, 0x00, 0x11, 0x00, 0x00, 0x00, 0x01, 0x00, 0x00, 0x00,
  0x10, 0x00, 0x00, 0x00, 0xa0, 0xfa, 0xff, 0xff, 0x19, 0x00, 0x00, 0x00,
  0x00, 0x00, 0x00, 0x19, 0x01, 0x00, 0x00, 0x00, 0x40, 0xcf, 0xff, 0xff,
  0x14, 0x00, 0x00, 0x00, 0x12, 0x00, 0x00, 0x00, 0x18, 0x00, 0x00, 0x00,
  0x30, 0x00, 0x00, 0x00, 0x20, 0x00, 0x00, 0x00, 0x02, 0x00, 0x00, 0x00,
  0x01, 0x00, 0x00, 0x00, 0x04, 0x00, 0x00, 0x00, 0x08, 0x00, 0x00, 0x00,
  0x49, 0x64, 0x65, 0x6e, 0x74, 0x69, 0x74, 0x79, 0x00, 0x00, 0x00, 0x00,
  0x02, 0x00, 0x00, 0x00, 0xff, 0xff, 0xff, 0xff, 0x04, 0x00, 0x00, 0x00,
  0x24, 0xd0, 0xff, 0xff, 0x00, 0x00, 0x0e, 0x00, 0x18, 0x00, 0x08, 0x00,
  0x0c, 0x00, 0x10, 0x00, 0x07, 0x00, 0x14, 0x00, 0x0e, 0x00, 0x00, 0x00,
  0x00, 0x00, 0x00, 0x08, 0x03, 0x00, 0x00, 0x00, 0x18, 0x00, 0x00, 0x00,
  0x0c, 0x00, 0x00, 0x00, 0x04, 0x00, 0x00, 0x00, 0x40, 0xcf, 0xff, 0xff,
  0x01, 0x00, 0x00, 0x00, 0x10, 0x00, 0x00, 0x00, 0x03, 0x00, 0x00, 0x00,
  0x0f, 0x00, 0x00, 0x00, 0x07, 0x00, 0x00, 0x00, 0x04, 0x00, 0x00, 0x00,
  0xc8, 0xcf, 0xff, 0xff, 0x14, 0x00, 0x00, 0x00, 0x11, 0x00, 0x00, 0x00,
  0x18, 0x00, 0x00, 0x00, 0x5c, 0x00, 0x00, 0x00, 0x4c, 0x00, 0x00, 0x00,
  0x02, 0x00, 0x00, 0x00, 0x01, 0x00, 0x00, 0x00, 0x04, 0x00, 0x00, 0x00,
  0x34, 0x00, 0x00, 0x00, 0x73, 0x65, 0x71, 0x75, 0x65, 0x6e, 0x74, 0x69,
  0x61, 0x6c, 0x2f, 0x64, 0x65, 0x6e, 0x73, 0x65, 0x5f, 0x31, 0x2f, 0x4d,
  0x61, 0x74, 0x4d, 0x75, 0x6c, 0x3b, 0x73, 0x65, 0x71, 0x75, 0x65, 0x6e,
  0x74, 0x69, 0x61, 0x6c, 0x2f, 0x64, 0x65, 0x6e, 0x73, 0x65, 0x5f, 0x31,
  0x2f, 0x42, 0x69, 0x61, 0x73, 0x41, 0x64, 0x64, 0x00, 0x00, 0x00, 0x00,
  0x02, 0x00, 0x00, 0x00, 0xff, 0xff, 0xff, 0xff, 0x04, 0x00, 0x00, 0x00,
  0xc8, 0xcf, 0xff, 0xff, 0xda, 0xfc, 0xff, 0xff, 0x00, 0x00, 0x00, 0x08,
  0x03, 0x00, 0x00, 0x00, 0x24, 0x00, 0x00, 0x00, 0x18, 0x00, 0x00, 0x00,
  0x0c, 0x00, 0x00, 0x00, 0x00, 0x00, 0x06, 0x00, 0x08, 0x00, 0x07, 0x00,
  0x06, 0x00, 0x00, 0x00, 0x00, 0x00, 0x00, 0x01, 0x01, 0x00, 0x00, 0x00,
  0x0f, 0x00, 0x00, 0x00, 0x03, 0x00, 0x00, 0x00, 0x0e, 0x00, 0x00, 0x00,
  0x06, 0x00, 0x00, 0x00, 0x03, 0x00, 0x00, 0x00, 0xe8, 0xfb, 0xff, 0xff,
  0x09, 0x00, 0x00, 0x00, 0x00, 0x00, 0x00, 0x09, 0x01, 0x00, 0x00, 0x00,
  0x88, 0xd0, 0xff, 0xff, 0x14, 0x00, 0x00, 0x00, 0x10, 0x00, 0x00, 0x00,
  0x18, 0x00, 0x00, 0x00, 0x6c, 0x00, 0x00, 0x00, 0x5c, 0x00, 0x00, 0x00,
  0x02, 0x00, 0x00, 0x00, 0x01, 0x00, 0x00, 0x00, 0x10, 0x00, 0x00, 0x00,
  0x46, 0x00, 0x00, 0x00, 0x73, 0x65, 0x71, 0x75, 0x65, 0x6e, 0x74, 0x69,
  0x61, 0x6c, 0x2f, 0x64, 0x65, 0x6e, 0x73, 0x65, 0x2f, 0x4d, 0x61, 0x74,
  0x4d, 0x75, 0x6c, 0x3b, 0x73, 0x65, 0x71, 0x75, 0x65, 0x6e, 0x74, 0x69,
  0x61, 0x6c, 0x2f, 0x64, 0x65, 0x6e, 0x73, 0x65, 0x2f, 0x52, 0x65, 0x6c,
  0x75, 0x3b, 0x73, 0x65, 0x71, 0x75, 0x65, 0x6e, 0x74, 0x69, 0x61, 0x6c,
  0x2f, 0x64, 0x65, 0x6e, 0x73, 0x65, 0x2f, 0x42, 0x69, 0x61, 0x73, 0x41,
  0x64, 0x64, 0x00, 0x00, 0x02, 0x00, 0x00, 0x00, 0xff, 0xff, 0xff, 0xff,
  0x10, 0x00, 0x00, 0x00, 0xa8, 0xd1, 0xff, 0xff, 0x00, 0x00, 0x0a, 0x00,
  0x10, 0x00, 0x04, 0x00, 0x08, 0x00, 0x0c, 0x00, 0x0a, 0x00, 0x00, 0x00,
  0x02, 0x00, 0x00, 0x00, 0x10, 0x00, 0x00, 0x00, 0x04, 0x00, 0x00, 0x00,
  0x01, 0x00, 0x00, 0x00, 0x0e, 0x00, 0x00, 0x00, 0x02, 0x00, 0x00, 0x00,
  0x0d, 0x00, 0x00, 0x00, 0x05, 0x00, 0x00, 0x00, 0xa8, 0xfc, 0xff, 0xff,
  0x16, 0x00, 0x00, 0x00, 0x00, 0x00, 0x00, 0x16, 0x01, 0x00, 0x00, 0x00,
  0x48, 0xd1, 0xff, 0xff, 0x14, 0x00, 0x00, 0x00, 0x0f, 0x00, 0x00, 0x00,
  0x18, 0x00, 0x00, 0x00, 0x40, 0x00, 0x00, 0x00, 0x30, 0x00, 0x00, 0x00,
  0x02, 0x00, 0x00, 0x00, 0x01, 0x00, 0x00, 0x00, 0x70, 0x00, 0x00, 0x00,
  0x1a, 0x00, 0x00, 0x00, 0x73, 0x65, 0x71, 0x75, 0x65, 0x6e, 0x74, 0x69,
  0x61, 0x6c, 0x2f, 0x66, 0x6c, 0x61, 0x74, 0x74, 0x65, 0x6e, 0x2f, 0x52,
  0x65, 0x73, 0x68, 0x61, 0x70, 0x65, 0x00, 0x00, 0x02, 0x00, 0x00, 0x00,
  0xff, 0xff, 0xff, 0xff, 0x70, 0x00, 0x00, 0x00, 0x2c, 0xd1, 0xff, 0xff,
  0x3e, 0xfe, 0xff, 0xff, 0x00, 0x00, 0x00, 0x05, 0x01, 0x00, 0x00, 0x00,
  0x38, 0x00, 0x00, 0x00, 0x2c, 0x00, 0x00, 0x00, 0x14, 0x00, 0x00, 0x00,
  0x00, 0x00, 0x0e, 0x00, 0x14, 0x00, 0x00, 0x00, 0x10, 0x00, 0x0c, 0x00,
  0x08, 0x00, 0x04, 0x00, 0x0e, 0x00, 0x00, 0x00, 0x03, 0x00, 0x00, 0x00,
  0x01, 0x00, 0x00, 0x00, 0x03, 0x00, 0x00, 0x00, 0x01, 0x00, 0x00, 0x00,
  0x01, 0x00, 0x00, 0x00, 0x0d, 0x00, 0x00, 0x00, 0x01, 0x00, 0x00, 0x00,
  0x0c, 0x00, 0x00, 0x00, 0xe8, 0xd1, 0xff, 0xff, 0x14, 0x00, 0x00, 0x00,
  0x0e, 0x00, 0x00, 0x00, 0x20, 0x00, 0x00, 0x00, 0x58, 0x00, 0x00, 0x00,
  0x40, 0x00, 0x00, 0x00, 0x04, 0x00, 0x00, 0x00, 0x01, 0x00, 0x00, 0x00,
  0x07, 0x00, 0x00, 0x00, 0x01, 0x00, 0x00, 0x00, 0x10, 0x00, 0x00, 0x00,
  0x22, 0x00, 0x00, 0x00, 0x73, 0x65, 0x71, 0x75, 0x65, 0x6e, 0x74, 0x69,
  0x61, 0x6c, 0x2f, 0x6d, 0x61, 0x78, 0x5f, 0x70, 0x6f, 0x6f, 0x6c, 0x69,
  0x6e, 0x67, 0x32, 0x64, 0x5f, 0x31, 0x2f, 0x4d, 0x61, 0x78, 0x50, 0x6f,
  0x6f, 0x6c, 0x00, 0x00, 0x04, 0x00, 0x00, 0x00, 0xff, 0xff, 0xff, 0xff,
  0x07, 0x00, 0x00, 0x00, 0x01, 0x00, 0x00, 0x00, 0x10, 0x00, 0x00, 0x00,
  0xe4, 0xd1, 0xff, 0xff, 0x1a, 0xfe, 0xff, 0xff, 0x00, 0x00, 0x00, 0x01,
  0x24, 0x00, 0x00, 0x00, 0x18, 0x00, 0x00, 0x00, 0x04, 0x00, 0x00, 0x00,
  0x0c, 0xfe, 0xff, 0xff, 0x01, 0x00, 0x00, 0x00, 0x01, 0x00, 0x00, 0x00,
  0x00, 0x00, 0x00, 0x01, 0x01, 0x00, 0x00, 0x00, 0x0c, 0x00, 0x00, 0x00,
  0x03, 0x00, 0x00, 0x00, 0x0b, 0x00, 0x00, 0x00, 0x09, 0x00, 0x00, 0x00,
  0x02, 0x00, 0x00, 0x00, 0x90, 0xd2, 0xff, 0xff, 0x14, 0x00, 0x00, 0x00,
  0x0d, 0x00, 0x00, 0x00, 0x20, 0x00, 0x00, 0x00, 0xb8, 0x00, 0x00, 0x00,
  0xa0, 0x00, 0x00, 0x00, 0x04, 0x00, 0x00, 0x00, 0x01, 0x00, 0x00, 0x00,
  0x15, 0x00, 0x00, 0x00, 0x01, 0x00, 0x00, 0x00, 0x10, 0x00, 0x00, 0x00,
  0x83, 0x00, 0x00, 0x00, 0x73, 0x65, 0x71, 0x75, 0x65, 0x6e, 0x74, 0x69,
  0x61, 0x6c, 0x2f, 0x63, 0x6f, 0x6e, 0x76, 0x32, 0x64, 0x5f, 0x31, 0x2f,
  0x52, 0x65, 0x6c, 0x75, 0x3b, 0x73, 0x65, 0x71, 0x75, 0x65, 0x6e, 0x74,
  0x69, 0x61, 0x6c, 0x2f, 0x63, 0x6f, 0x6e, 0x76, 0x32, 0x64, 0x5f, 0x31,
  0x2f, 0x42, 0x69, 0x61, 0x73, 0x41, 0x64, 0x64, 0x3b, 0x73, 0x65, 0x71,
  0x75, 0x65, 0x6e, 0x74, 0x69, 0x61, 0x6c, 0x2f, 0x63, 0x6f, 0x6e, 0x76,
  0x32, 0x64, 0x5f, 0x31, 0x2f, 0x43, 0x6f, 0x6e, 0x76, 0x32, 0x44, 0x3b,
  0x73, 0x65, 0x71, 0x75, 0x65, 0x6e, 0x74, 0x69, 0x61, 0x6c, 0x2f, 0x63,
  0x6f, 0x6e, 0x76, 0x32, 0x64, 0x5f, 0x31, 0x2f, 0x42, 0x69, 0x61, 0x73,
  0x41, 0x64, 0x64, 0x2f, 0x52, 0x65, 0x61, 0x64, 0x56, 0x61, 0x72, 0x69,
  0x61, 0x62, 0x6c, 0x65, 0x4f, 0x70, 0x2f, 0x72, 0x65, 0x73, 0x6f, 0x75,
  0x72, 0x63, 0x65, 0x00, 0x04, 0x00, 0x00, 0x00, 0xff, 0xff, 0xff, 0xff,
  0x15, 0x00, 0x00, 0x00, 0x01, 0x00, 0x00, 0x00, 0x10, 0x00, 0x00, 0x00,
  0xfc, 0xd3, 0xff, 0xff, 0x00, 0x00, 0x0e, 0x00, 0x1a, 0x00, 0x08, 0x00,
  0x0c, 0x00, 0x10, 0x00, 0x07, 0x00, 0x14, 0x00, 0x0e, 0x00, 0x00, 0x00,
  0x00, 0x00, 0x00, 0x05, 0x01, 0x00, 0x00, 0x00, 0x3c, 0x00, 0x00, 0x00,
  0x30, 0x00, 0x00, 0x00, 0x14, 0x00, 0x00, 0x00, 0x00, 0x00, 0x0e, 0x00,
  0x18, 0x00, 0x17, 0x00, 0x10, 0x00, 0x0c, 0x00, 0x08, 0x00, 0x04, 0x00,
  0x0e, 0x00, 0x00, 0x00, 0x03, 0x00, 0x00, 0x00, 0x03, 0x00, 0x00, 0x00,
  0x03, 0x00, 0x00, 0x00, 0x03, 0x00, 0x00, 0x00, 0x00, 0x00, 0x00, 0x01,
  0x01, 0x00, 0x00, 0x00, 0x0b, 0x00, 0x00, 0x00, 0x01, 0x00, 0x00, 0x00,
  0x0a, 0x00, 0x00, 0x00, 0x2c, 0xff, 0xff, 0xff, 0x11, 0x00, 0x00, 0x00,
  0x00, 0x00, 0x00, 0x11, 0x01, 0x00, 0x00, 0x00, 0xcc, 0xd3, 0xff, 0xff,
  0x14, 0x00, 0x00, 0x00, 0x0c, 0x00, 0x00, 0x00, 0x20, 0x00, 0x00, 0x00,
  0x58, 0x00, 0x00, 0x00, 0x40, 0x00, 0x00, 0x00, 0x04, 0x00, 0x00, 0x00,
  0x01, 0x00, 0x00, 0x00, 0x15, 0x00, 0x00, 0x00, 0x01, 0x00, 0x00, 0x00,
  0x08, 0x00, 0x00, 0x00, 0x20, 0x00, 0x00, 0x00, 0x73, 0x65, 0x71, 0x75,
  0x65, 0x6e, 0x74, 0x69, 0x61, 0x6c, 0x2f, 0x6d, 0x61, 0x78, 0x5f, 0x70,
  0x6f, 0x6f, 0x6c, 0x69, 0x6e, 0x67, 0x32, 0x64, 0x2f, 0x4d, 0x61, 0x78,
  0x50, 0x6f, 0x6f, 0x6c, 0x00, 0x00, 0x00, 0x00, 0x04, 0x00, 0x00, 0x00,
  0xff, 0xff, 0xff, 0xff, 0x15, 0x00, 0x00, 0x00, 0x01, 0x00, 0x00, 0x00,
  0x08, 0x00, 0x00, 0x00, 0xd8, 0xd4, 0xff, 0xff, 0x00, 0x00, 0x0e, 0x00,
  0x14, 0x00, 0x00, 0x00, 0x08, 0x00, 0x0c, 0x00, 0x07, 0x00, 0x10, 0x00,
  0x0e, 0x00, 0x00, 0x00, 0x00, 0x00, 0x00, 0x01, 0x30, 0x00, 0x00, 0x00,
  0x24, 0x00, 0x00, 0x00, 0x10, 0x00, 0x00, 0x00, 0x0c, 0x00, 0x10, 0x00,
  0x00, 0x00, 0x04, 0x00, 0x08, 0x00, 0x0f, 0x00, 0x0c, 0x00, 0x00, 0x00,
  0x01, 0x00, 0x00, 0x00, 0x01, 0x00, 0x00, 0x00, 0x00, 0x00, 0x00, 0x01,
  0x01, 0x00, 0x00, 0x00, 0x0a, 0x00, 0x00, 0x00, 0x03, 0x00, 0x00, 0x00,
  0x00, 0x00, 0x00, 0x00, 0x08, 0x00, 0x00, 0x00, 0x01, 0x00, 0x00, 0x00,
  0x0c, 0x00, 0x10, 0x00, 0x0b, 0x00, 0x00, 0x00, 0x0c, 0x00, 0x04, 0x00,
  0x0c, 0x00, 0x00, 0x00, 0x03, 0x00, 0x00, 0x00, 0x00, 0x00, 0x00, 0x03,
  0x01, 0x00, 0x00, 0x00, 0xac, 0xd4, 0xff, 0xff, 0x14, 0x00, 0x00, 0x00,
  0x0b, 0x00, 0x00, 0x00, 0x20, 0x00, 0x00, 0x00, 0xb0, 0x00, 0x00, 0x00,
  0x98, 0x00, 0x00, 0x00, 0x04, 0x00, 0x00, 0x00, 0x01, 0x00, 0x00, 0x00,
  0x40, 0x00, 0x00, 0x00, 0x03, 0x00, 0x00, 0x00, 0x08, 0x00, 0x00, 0x00,
  0x7b, 0x00, 0x00, 0x00, 0x73, 0x65, 0x71, 0x75, 0x65, 0x6e, 0x74, 0x69,
  0x61, 0x6c, 0x2f, 0x63, 0x6f, 0x6e, 0x76, 0x32, 0x64, 0x2f, 0x52, 0x65,
  0x6c, 0x75, 0x3b, 0x73, 0x65, 0x71, 0x75, 0x65, 0x6e, 0x74, 0x69, 0x61,
  0x6c, 0x2f, 0x63, 0x6f, 0x6e, 0x76, 0x32, 0x64, 0x2f, 0x42, 0x69, 0x61,
  0x73, 0x41, 0x64, 0x64, 0x3b, 0x73, 0x65, 0x71, 0x75, 0x65, 0x6e, 0x74,
  0x69, 0x61, 0x6c, 0x2f, 0x63, 0x6f, 0x6e, 0x76, 0x32, 0x64, 0x2f, 0x43,
  0x6f, 0x6e, 0x76, 0x32, 0x44, 0x3b, 0x73, 0x65, 0x71, 0x75, 0x65, 0x6e,
  0x74, 0x69, 0x61, 0x6c, 0x2f, 0x63, 0x6f, 0x6e, 0x76, 0x32, 0x64, 0x2f,
  0x42, 0x69, 0x61, 0x73, 0x41, 0x64, 0x64, 0x2f, 0x52, 0x65, 0x61, 0x64,
  0x56, 0x61, 0x72, 0x69, 0x61, 0x62, 0x6c, 0x65, 0x4f, 0x70, 0x2f, 0x72,
  0x65, 0x73, 0x6f, 0x75, 0x72, 0x63, 0x65, 0x00, 0x04, 0x00, 0x00, 0x00,
  0xff, 0xff, 0xff, 0xff, 0x40, 0x00, 0x00, 0x00, 0x03, 0x00, 0x00, 0x00,
  0x08, 0x00, 0x00, 0x00, 0x00, 0xd5, 0xff, 0xff, 0x0a, 0xd6, 0xff, 0xff,
  0x04, 0x00, 0x00, 0x00, 0x00, 0x08, 0x00, 0x00, 0xa7, 0xa0, 0x33, 0xbd,
  0x76, 0x55, 0xaf, 0x3e, 0x47, 0xf4, 0xd0, 0xbd, 0xd5, 0x07, 0x0e, 0xbd,
  0x05, 0x99, 0xab, 0xbc, 0x97, 0x2e, 0x04, 0xbe, 0x20, 0xeb, 0xdc, 0x3d,
  0xa5, 0x5a, 0x03, 0xbe, 0x49, 0x78, 0xd9, 0x3c, 0x92, 0x4c, 0x8e, 0xbb,
  0x46, 0x30, 0xc0, 0xbd, 0x78, 0x56, 0x6e, 0x3e, 0xdd, 0x7a, 0x3c, 0x3e,
  0xcd, 0x6a, 0x0a, 0xbe, 0x3b, 0x8c, 0xfc, 0x3d, 0x08, 0xae, 0xbe, 0xbc,
  0xfc, 0x77, 0x94, 0xbd, 0x4a, 0xf6, 0x0f, 0x3d, 0x0d, 0x06, 0x71, 0xbd,
  0x1c, 0xd7, 0x0a, 0xbd, 0xb1, 0x9e, 0x1f, 0x3e, 0xac, 0x81, 0xff, 0xbd,
  0x15, 0x7b, 0x3b, 0x3e, 0x00, 0xe4, 0x52, 0xbd, 0xd6, 0xfb, 0xba, 0xbd,
  0xa1, 0x48, 0x39, 0xbd, 0xe6, 0xfb, 0x2c, 0x3e, 0x55, 0x7e, 0xfd, 0xbd,
  0x1c, 0x70, 0x37, 0x3e, 0xa1, 0x62, 0x22, 0xbe, 0xd2, 0xe6, 0xe3, 0xba,
  0x81, 0x9d, 0x2a, 0xbd, 0x69, 0xbd, 0x4a, 0x3e, 0x5c, 0xde, 0x31, 0x3c,
  0x3d, 0x6d, 0x99, 0xbd, 0x06, 0xd2, 0xe6, 0x3e, 0x9d, 0x4a, 0xf1, 0xbc,
  0xff, 0x37, 0xa7, 0x3e, 0xd4, 0xb1, 0x86, 0xbd, 0x1d, 0x49, 0x4c, 0x3e,
  0xcb, 0x39, 0x00, 0xbe, 0x8b, 0x8b, 0x9c, 0xbc, 0xa2, 0xc6, 0x7c, 0xba,
  0x4b, 0x6e, 0x6f, 0xbd, 0xc1, 0x36, 0x23, 0xbc, 0xa8, 0x1f, 0x29, 0x3c,
  0xbd, 0xdd, 0x8b, 0xbc, 0x84, 0xb3, 0x54, 0x3d, 0x06, 0x14, 0x05, 0x3d,
  0x45, 0x4a, 0xbe, 0x3b, 0xdd, 0x89, 0x9d, 0xbd, 0xe2, 0xc9, 0x1a, 0x3e,
  0x18, 0x39, 0xc2, 0x3d, 0xe2, 0x1d, 0xa0, 0xbc, 0x6b, 0xb5, 0xc4, 0x3c,
  0x23, 0x10, 0x2d, 0xbb, 0xbf, 0xfc, 0x68, 0xbd, 0x19, 0x11, 0x14, 0xbd,
  0xfd, 0x93, 0x68, 0xbd, 0xdf, 0x82, 0x5f, 0xbd, 0x43, 0x31, 0x2e, 0x3d,
  0x10, 0x57, 0x83, 0xbd, 0x5d, 0x6f, 0x45, 0x3d, 0x43, 0x9e, 0xff, 0xbc,
  0xa4, 0x16, 0x56, 0xbe, 0x7e, 0x52, 0x8d, 0xbd, 0xeb, 0x87, 0x98, 0xbe,
  0xdf, 0xf0, 0x6e, 0x3e, 0x43, 0xe9, 0xd8, 0xbe, 0x9d, 0x88, 0xea, 0xbd,
  0xb8, 0xde, 0x81, 0xbe, 0xa1, 0x51, 0xd4, 0xbc, 0x84, 0x2b, 0xe9, 0xbd,
  0x0c, 0x38, 0x92, 0xbd, 0xbf, 0x51, 0xd8, 0x3e, 0x82, 0x50, 0x9b, 0x3d,
  0xc7, 0x97, 0x05, 0xbf, 0x35, 0xc7, 0xa4, 0xbc, 0x81, 0x79, 0x9b, 0xbd,
  0x97, 0xa8, 0x82, 0x3c, 0x56, 0x58, 0x9d, 0xbd, 0x65, 0x2a, 0xa9, 0x3d,
  0x80, 0x32, 0x17, 0xbb, 0x2b, 0x41, 0xac, 0x3b, 0x88, 0x82, 0xf4, 0xbe,
  0x3a, 0x9f, 0x25, 0x3d, 0xca, 0x67, 0xbd, 0xbd, 0x0d, 0xf8, 0x6d, 0x3d,
  0xf4, 0x4d, 0xc0, 0x3d, 0xf2, 0xc6, 0x1f, 0x3d, 0xc5, 0x31, 0x4f, 0xbb,
  0xb0, 0xa5, 0xad, 0x3d, 0xea, 0xea, 0x02, 0xbe, 0x6a, 0xf7, 0x83, 0x3c,
  0xf8, 0xe1, 0xbd, 0xbd, 0x67, 0x8e, 0x96, 0x3d, 0x0e, 0x8f, 0x03, 0x3e,
  0xb3, 0xef, 0x42, 0x3e, 0xac, 0xea, 0x8f, 0x3d, 0x55, 0xa3, 0x0a, 0xbe,
  0x39, 0xc8, 0x86, 0xbd, 0xca, 0xc8, 0xa4, 0xbd, 0x98, 0xdc, 0x26, 0x3c,
  0x5b, 0xc7, 0x24, 0x3e, 0x91, 0xf7, 0xa2, 0x3a, 0x3e, 0xad, 0x43, 0xbe,
  0x2c, 0x71, 0xf4, 0x3e, 0x5a, 0xc8, 0x74, 0xbe, 0x3c, 0x31, 0x8f, 0xbd,
  0xcf, 0x93, 0x79, 0xbe, 0x0a, 0x26, 0x29, 0xbe, 0xc0, 0xc6, 0x86, 0xbe,
  0x9b, 0x16, 0x96, 0x3d, 0x8b, 0x63, 0x36, 0xbf, 0xd1, 0xaa, 0x53, 0x3d,
  0x37, 0x01, 0x83, 0xbe, 0xec, 0x8f, 0x8a, 0x3e, 0xe1, 0x78, 0x3b, 0xbf,
  0x75, 0xfe, 0x52, 0x3e, 0x90, 0x8a, 0x0b, 0xbd, 0x4e, 0x13, 0x07, 0xbd,
  0x1c, 0x1a, 0x8e, 0xbe, 0x76, 0xe7, 0xb3, 0xbe, 0xf6, 0x5d, 0xfc, 0xbd,
  0xb5, 0xf8, 0x6d, 0x3d, 0x8a, 0xcb, 0x7b, 0x3d, 0x91, 0xa0, 0xcd, 0xbd,
  0x7d, 0xb2, 0x94, 0x3e, 0x71, 0xa7, 0x33, 0xbe, 0x70, 0x5d, 0xb9, 0xbd,
  0x62, 0xd7, 0xd0, 0xbc, 0x94, 0x3c, 0x5b, 0xbe, 0x69, 0x9a, 0x69, 0xbe,
  0x4f, 0xfd, 0x68, 0xbd, 0xc0, 0x90, 0xd0, 0x3c, 0xf8, 0xe0, 0xa8, 0xbe,
  0x85, 0x06, 0x30, 0xbe, 0x2e, 0x2a, 0x04, 0xbe, 0x08, 0x7f, 0xbf, 0xbd,
  0xbb, 0xba, 0x91, 0xbe, 0xce, 0x4d, 0xb1, 0xbe, 0xc8, 0x95, 0x87, 0xbe,
  0x4f, 0x99, 0xc4, 0x3e, 0x36, 0x38, 0xe9, 0xbe, 0x4e, 0x31, 0x21, 0xbc,
  0xe4, 0xc9, 0xa5, 0x3d, 0xc8, 0x1f, 0x3c, 0xbe, 0x31, 0x8f, 0x81, 0xbd,
  0x47, 0x33, 0x59, 0x3e, 0x07, 0x8f, 0x4d, 0xbe, 0x53, 0x54, 0xdd, 0x3d,
  0xea, 0xa3, 0x4c, 0xbe, 0x06, 0xf3, 0x6a, 0xbe, 0x0d, 0xd0, 0x46, 0xbd,
  0x68, 0xbd, 0xe9, 0xbd, 0x86, 0xce, 0xf0, 0x3e, 0x66, 0x9e, 0x02, 0xbd,
  0xe3, 0x9b, 0x2e, 0xbd, 0x74, 0xc8, 0x26, 0xbd, 0x65, 0x42, 0xbb, 0x3e,
  0x14, 0x7e, 0x5f, 0xbe, 0x89, 0x97, 0x87, 0x3c, 0xb4, 0x91, 0x33, 0xbe,
  0x13, 0x6b, 0x5b, 0xbe, 0x79, 0x97, 0xda, 0xbe, 0xb2, 0x08, 0x0f, 0xbd,
  0x1d, 0x39, 0xbb, 0xbe, 0x8b, 0xe4, 0xe3, 0xbd, 0x3f, 0x3c, 0xb5, 0x3e,
  0xb8, 0x06, 0x0c, 0xbe, 0x5b, 0x1b, 0xcb, 0xbe, 0x5d, 0xc7, 0x5b, 0x3e,
  0x32, 0xc6, 0x6e, 0xbe, 0xbf, 0xb4, 0x55, 0x3e, 0xfb, 0xfa, 0xb8, 0xbe,
  0xa1, 0x87, 0x35, 0xbe, 0xc0, 0xde, 0x89, 0x3e, 0x5c, 0xe0, 0xb1, 0xbd,
  0xf2, 0x5a, 0xdf, 0xbd, 0xf7, 0x40, 0x83, 0x3e, 0x37, 0x98, 0x74, 0x3e,
  0x86, 0xcc, 0xa1, 0x3d, 0x42, 0x6f, 0x06, 0x3d, 0xd6, 0xab, 0x45, 0xbe,
  0x89, 0xb3, 0xff, 0xbd, 0x03, 0xbd, 0x92, 0xbd, 0x84, 0xfd, 0xbd, 0x3d,
  0x03, 0x46, 0x1c, 0xbe, 0xdd, 0x4b, 0xc3, 0x3d, 0xfc, 0x26, 0x31, 0xbe,
  0xce, 0xc2, 0xb4, 0x3e, 0xfc, 0xac, 0x54, 0xbe, 0x1f, 0xea, 0x8a, 0xbc,
  0x39, 0x2d, 0x90, 0xbe, 0x83, 0x4e, 0xec, 0x3e, 0x6c, 0xa0, 0x83, 0xbe,
  0x6d, 0x8d, 0xbf, 0x3c, 0x2a, 0xa5, 0x06, 0xbf, 0x13, 0xe1, 0x67, 0x3e,
  0xf6, 0x0b, 0xfb, 0xbe, 0xf3, 0x82, 0x4d, 0xbc, 0x0e, 0x1d, 0x0e, 0x3d,
  0x5a, 0x9a, 0x78, 0xbc, 0x35, 0xdd, 0x5e, 0xbe, 0xea, 0xaa, 0x8a, 0x3c,
  0x5f, 0x13, 0x19, 0xbe, 0xe7, 0xd7, 0x88, 0x3d, 0xc4, 0x20, 0xe2, 0xbe,
  0xdc, 0x1c, 0xf9, 0x3d, 0x00, 0x9f, 0x06, 0x3e, 0x38, 0x84, 0xc0, 0xbd,
  0x31, 0xa0, 0x1c, 0xbe, 0x4d, 0x1a, 0xdc, 0xbc, 0xcc, 0x1d, 0xd2, 0xbd,
  0xcf, 0xcd, 0xc9, 0xbc, 0x71, 0x0f, 0x8c, 0xbe, 0x3e, 0xa6, 0x32, 0xbd,
  0x07, 0x03, 0xed, 0xbd, 0xe2, 0xa4, 0xba, 0xbd, 0xcd, 0x48, 0x35, 0x3d,
  0x79, 0xd7, 0xca, 0x3d, 0x76, 0x01, 0x40, 0xbe, 0x68, 0x1a, 0x9d, 0x3d,
  0x3e, 0xab, 0xbd, 0x3e, 0x6c, 0x2b, 0xde, 0x3b, 0xe9, 0xa1, 0x0f, 0x3e,
  0xb9, 0x1c, 0x3b, 0x3e, 0x2f, 0xca, 0xda, 0xbd, 0xbd, 0xfd, 0x17, 0xbe,
  0x57, 0x2c, 0xbe, 0x3d, 0x6d, 0x50, 0xb1, 0xbd, 0x1c, 0xd3, 0xd8, 0xbc,
  0x5e, 0xd6, 0xb9, 0x3d, 0x95, 0x92, 0x17, 0x3c, 0x0d, 0x17, 0x5e, 0x3d,
  0x07, 0x31, 0xf2, 0xbd, 0x41, 0x83, 0x07, 0xbe, 0x0d, 0x7c, 0xf9, 0x3e,
  0x66, 0x26, 0xe4, 0xbd, 0x83, 0xce, 0x9a, 0xbb, 0x35, 0xf0, 0x39, 0x3e,
  0x76, 0x82, 0x49, 0xbe, 0xea, 0x78, 0x2e, 0x3e, 0x7b, 0x33, 0x9b, 0xbc,
  0x3b, 0x2f, 0x69, 0xbd, 0x10, 0x4d, 0xa4, 0xbe, 0xe5, 0xf7, 0xe7, 0xbd,
  0xe7, 0xf3, 0x33, 0xbe, 0xbb, 0x41, 0x39, 0xbe, 0x20, 0xc0, 0x15, 0xbf,
  0x4f, 0x74, 0x13, 0xbf, 0xe7, 0x7f, 0xa4, 0x3e, 0x43, 0x3d, 0x2f, 0x3e,
  0x38, 0xf9, 0xe4, 0xbe, 0xc4, 0x90, 0x0e, 0x3d, 0x09, 0x0e, 0x54, 0xbe,
  0xba, 0xf1, 0x98, 0xbd, 0x5e, 0x22, 0x00, 0xbe, 0xc4, 0x8b, 0x90, 0x3d,
  0x2b, 0x1b, 0x61, 0xbe, 0x1d, 0x7f, 0x6b, 0xbf, 0xb5, 0x44, 0xe3, 0xbd,
  0x4a, 0xd5, 0x94, 0x3e, 0xb8, 0x40, 0xdb, 0x3c, 0x21, 0x7a, 0xa5, 0x3c,
  0x83, 0xb9, 0xb6, 0xbb, 0xe0, 0xe7, 0x99, 0xbd, 0x47, 0x2b, 0x22, 0xbe,
  0xcd, 0xf9, 0x78, 0xbf, 0x47, 0xc4, 0xe3, 0xbd, 0x84, 0x97, 0x6b, 0x3d,
  0xf0, 0x82, 0xad, 0xbd, 0xf8, 0x24, 0xe7, 0x3d, 0xa6, 0x31, 0xde, 0xbd,
  0x27, 0xf9, 0x17, 0x3e, 0x1b, 0x76, 0x9a, 0x3d, 0x01, 0x17, 0x22, 0xbf,
  0xb1, 0x34, 0x25, 0x3d, 0x23, 0x0f, 0x3c, 0x3e, 0x55, 0x1d, 0x03, 0x3c,
  0xbb, 0x5a, 0x46, 0xbc, 0x1b, 0x89, 0xe4, 0xbc, 0x05, 0xdc, 0x38, 0xbc,
  0x42, 0x17, 0x3a, 0xbd, 0x16, 0x8f, 0x44, 0xbf, 0xeb, 0xb8, 0xe8, 0xbd,
  0xf1, 0xe3, 0x2a, 0x3d, 0x4b, 0x05, 0x9d, 0x3b, 0x97, 0xd3, 0x01, 0xbf,
  0xfe, 0xee, 0x74, 0xbe, 0x46, 0x3a, 0xf2, 0xbe, 0x7b, 0x46, 0x89, 0xbe,
  0xf3, 0xdb, 0xbc, 0xbd, 0xb4, 0x74, 0x1c, 0xbe, 0x10, 0x5e, 0x62, 0xbd,
  0x66, 0x69, 0x1a, 0xbe, 0xd5, 0x83, 0xc6, 0xbd, 0x9b, 0x0e, 0xfa, 0x3e,
  0xcd, 0xe9, 0x58, 0x3d, 0x53, 0x88, 0x16, 0xbe, 0xb1, 0x85, 0xb4, 0x3e,
  0x90, 0x0e, 0xad, 0x3e, 0x4b, 0xa4, 0xa0, 0xbd, 0xee, 0x00, 0x8f, 0x3e,
  0xcf, 0x38, 0xe3, 0x3d, 0xb3, 0x5b, 0xc4, 0xbd, 0xae, 0xd6, 0xa4, 0x3e,
  0xdf, 0x87, 0x99, 0xbd, 0x42, 0x66, 0xa3, 0xbd, 0x92, 0xee, 0x8b, 0xbd,
  0x2a, 0x1c, 0xfc, 0xbd, 0xa9, 0x42, 0x73, 0xbd, 0x8d, 0x40, 0x88, 0x3d,
  0x86, 0xbd, 0x90, 0xbe, 0x0f, 0x8c, 0x85, 0xbd, 0xbf, 0xea, 0xd0, 0xbd,
  0xf9, 0x90, 0x3c, 0xbe, 0xba, 0x9f, 0x03, 0xbe, 0x7c, 0xe9, 0x1f, 0xbe,
  0x83, 0xa8, 0xd1, 0xbd, 0x9f, 0xb0, 0x73, 0xbd, 0x9b, 0x10, 0x37, 0xbe,
  0x74, 0x10, 0x6e, 0x3d, 0x03, 0xe7, 0x4b, 0xbe, 0x1d, 0x5e, 0xae, 0xbd,
  0x5c, 0x5d, 0x29, 0xbe, 0x18, 0xe4, 0xc8, 0xbd, 0x9d, 0x23, 0xc1, 0xbd,
  0xad, 0x85, 0xab, 0xbe, 0xdd, 0x11, 0xf7, 0xbd, 0x29, 0xa3, 0xd3, 0xbb,
  0x3b, 0x87, 0x0a, 0xbe, 0x71, 0xdf, 0x9f, 0xbe, 0x64, 0xe7, 0x11, 0xbe,
  0xed, 0x35, 0x0c, 0xbd, 0x14, 0x70, 0xc0, 0xbd, 0xf9, 0x83, 0x6c, 0xbe,
  0x2d, 0x03, 0x71, 0xbe, 0x4f, 0x52, 0x80, 0x3e, 0x98, 0x4e, 0x33, 0xbe,
  0x88, 0xda, 0xa8, 0xbd, 0xfc, 0xc6, 0xb6, 0xbd, 0x1c, 0x73, 0x58, 0xbd,
  0xce, 0xbc, 0x68, 0xbe, 0xcd, 0x97, 0x2d, 0xbe, 0xb5, 0xae, 0x20, 0xbe,
  0xe6, 0xbe, 0xf2, 0x3b, 0xdc, 0x6d, 0x0e, 0x3d, 0xd7, 0xfe, 0xee, 0xbd,
  0x3c, 0x18, 0x09, 0xbe, 0x80, 0xc0, 0xca, 0xbd, 0x44, 0x66, 0xa2, 0xbd,
  0xf0, 0x06, 0x09, 0xbe, 0x18, 0x51, 0x0a, 0xbe, 0xf8, 0x4d, 0xa4, 0xbd,
  0xab, 0x45, 0x4e, 0x3e, 0x34, 0x75, 0x49, 0x3e, 0xb0, 0x1c, 0x92, 0xbe,
  0xab, 0xf7, 0x21, 0x3f, 0x55, 0x4b, 0x77, 0xbe, 0x44, 0x98, 0xa2, 0xbe,
  0x71, 0x2a, 0xbf, 0x3c, 0x84, 0x4d, 0xf3, 0xbc, 0xd8, 0xa6, 0x81, 0xbe,
  0x63, 0x2f, 0x39, 0xbd, 0xb4, 0xfb, 0x44, 0xbe, 0xda, 0xcf, 0x6c, 0xbd,
  0x1d, 0x84, 0x61, 0xbe, 0x10, 0x0e, 0x44, 0xbe, 0x35, 0x69, 0x5e, 0xbc,
  0x0d, 0xf3, 0xa1, 0x3c, 0xca, 0xe9, 0x70, 0xbe, 0x25, 0xca, 0xc0, 0xbd,
  0xee, 0xdd, 0x02, 0xbe, 0xdb, 0x1c, 0x8c, 0xbd, 0xed, 0xa0, 0x19, 0xbe,
  0x1d, 0xbd, 0x88, 0x3d, 0xe1, 0xb4, 0x38, 0x3d, 0x4e, 0x4c, 0x9b, 0xbd,
  0x9e, 0xc7, 0x18, 0xbe, 0x33, 0x2f, 0x03, 0xbe, 0xea, 0xbe, 0x03, 0x3f,
  0x8a, 0x9c, 0xf2, 0xbd, 0xdd, 0xc2, 0x78, 0x3d, 0x6f, 0x9a, 0x46, 0xbd,
  0x28, 0x77, 0x50, 0x3f, 0x42, 0x24, 0x17, 0x3c, 0x76, 0x32, 0x0f, 0xbe,
  0x53, 0x71, 0xb6, 0x3e, 0xee, 0x1a, 0x64, 0x3b, 0x7b, 0x4d, 0x3e, 0xbd,
  0xde, 0x5a, 0x16, 0x3e, 0x5f, 0x6d, 0xc2, 0x3c, 0xd4, 0xe1, 0x97, 0xbc,
  0xca, 0x72, 0x16, 0x3e, 0xcd, 0xc6, 0x27, 0xbe, 0xab, 0xc2, 0x3c, 0xbe,
  0xdb, 0x0a, 0x0d, 0xbc, 0xcb, 0x72, 0xbf, 0xbd, 0x65, 0x02, 0x94, 0xbd,
  0x4e, 0x4a, 0x75, 0x3c, 0xeb, 0x4e, 0xfa, 0xbb, 0x39, 0x71, 0x12, 0x3d,
  0x8a, 0x8f, 0xfd, 0xbd, 0xea, 0x7e, 0xb3, 0x3d, 0x75, 0xa7, 0x97, 0xbd,
  0x51, 0xfc, 0x25, 0xbe, 0xa5, 0x13, 0x9a, 0xbd, 0xbd, 0x39, 0xd8, 0xbd,
  0x9a, 0x0e, 0xa6, 0xbd, 0x77, 0x96, 0x8a, 0xbd, 0x8a, 0x50, 0xf2, 0xbd,
  0x3f, 0x15, 0xb4, 0x3d, 0xd9, 0xd8, 0xbd, 0xbd, 0xe3, 0xdb, 0xc0, 0xbd,
  0xe4, 0x60, 0xb8, 0xbd, 0xcf, 0xdc, 0xe7, 0xbe, 0x7b, 0xad, 0xe1, 0xbd,
  0x19, 0x25, 0x06, 0xbe, 0x57, 0x6b, 0x55, 0xbd, 0x70, 0x29, 0xc4, 0xbd,
  0xbe, 0x21, 0x64, 0xbd, 0x1c, 0x58, 0xca, 0xbe, 0x8c, 0x5e, 0xa0, 0x3d,
  0xf3, 0x2d, 0xb5, 0xbe, 0x39, 0x8d, 0x5c, 0xbd, 0xa6, 0x12, 0xac, 0xbe,
  0x50, 0xe6, 0xcb, 0x3d, 0x2a, 0xb9, 0x86, 0x3e, 0xa7, 0x31, 0x0c, 0xbd,
  0x13, 0xe8, 0x28, 0xbe, 0xad, 0x4a, 0x21, 0x3e, 0xa0, 0xc1, 0xde, 0xbe,
  0x61, 0x39, 0x70, 0x3e, 0x85, 0x63, 0xe3, 0xbe, 0xb1, 0x64, 0xc7, 0xbd,
  0xb8, 0xed, 0xc4, 0xbe, 0x25, 0x26, 0x81, 0xbc, 0xa4, 0x97, 0x49, 0xbf,
  0x1d, 0x4e, 0x17, 0xbd, 0x1c, 0xba, 0xa2, 0xbe, 0x33, 0x0b, 0x87, 0x3d,
  0xda, 0x5f, 0x91, 0xbe, 0x45, 0x95, 0xfe, 0x3c, 0x7f, 0xd3, 0x14, 0xbd,
  0x86, 0xfa, 0x6d, 0x3e, 0x06, 0x5f, 0x53, 0x3d, 0xae, 0x4b, 0x5b, 0x3d,
  0x2a, 0x43, 0xe7, 0x3e, 0x09, 0x2f, 0x0a, 0x3e, 0x9a, 0x67, 0xbc, 0x3d,
  0xcb, 0xaa, 0x17, 0x3d, 0x9f, 0x6e, 0x1c, 0xbe, 0x6f, 0x3c, 0xa5, 0x3d,
  0x34, 0x77, 0x80, 0xbe, 0x85, 0xc9, 0x29, 0x3e, 0x6b, 0x5a, 0xb5, 0x3e,
  0x47, 0xb1, 0x3b, 0xbf, 0xc6, 0x4e, 0xb9, 0xbe, 0xcd, 0x1d, 0xe5, 0x3c,
  0x82, 0xb9, 0x30, 0x3e, 0xa4, 0x68, 0x0a, 0xbf, 0x35, 0x2f, 0x5a, 0xbe,
  0x01, 0x2b, 0x2f, 0xbe, 0xcf, 0x0a, 0xf3, 0xbe, 0xda, 0x43, 0x5d, 0xb9,
  0x88, 0xd0, 0x80, 0xbf, 0x6f, 0x94, 0xdd, 0xbc, 0xa3, 0x0f, 0x29, 0x3c,
  0x4e, 0x77, 0xde, 0xbe, 0xad, 0x9e, 0x10, 0x3e, 0x2d, 0x0b, 0x5e, 0xbd,
  0xe9, 0xc8, 0x23, 0xbf, 0xf1, 0x52, 0x4d, 0x3e, 0xd6, 0xfb, 0x5a, 0xbe,
  0xf0, 0x52, 0x40, 0xbe, 0x23, 0xc3, 0xdf, 0xbc, 0x60, 0xf5, 0xb3, 0x3d,
  0xc3, 0x40, 0x55, 0x3e, 0x0d, 0x41, 0xf7, 0x3c, 0x52, 0x60, 0x89, 0xbe,
  0x7e, 0xce, 0xfa, 0xbd, 0x50, 0x11, 0x75, 0xbe, 0x4f, 0x1d, 0x05, 0xbd,
  0x7d, 0x80, 0xfe, 0xbd, 0xc3, 0xb2, 0xa1, 0xbd, 0x10, 0x19, 0x0a, 0xbe,
  0xe0, 0x31, 0x4f, 0xbd, 0x96, 0x0d, 0x05, 0xbf, 0xb4, 0x16, 0xbb, 0xbd,
  0xd9, 0xcc, 0x31, 0xbe, 0xcf, 0x65, 0x1f, 0xbe, 0x35, 0x5f, 0x2c, 0x3e,
  0x42, 0xfd, 0x05, 0xbe, 0xb6, 0x4a, 0x67, 0xbe, 0xd5, 0x3c, 0x01, 0xbe,
  0xca, 0x2f, 0x28, 0xbd, 0x45, 0xa9, 0x68, 0xbd, 0xb7, 0x10, 0x22, 0xbe,
  0xcc, 0x4c, 0x89, 0x3a, 0x9a, 0x9a, 0x43, 0x3d, 0x5a, 0x97, 0x06, 0xbc,
  0x94, 0xee, 0x0b, 0x3d, 0x40, 0x16, 0x1c, 0x3d, 0x4c, 0xc9, 0xcb, 0x3d,
  0x9f, 0x90, 0x2b, 0x3e, 0x52, 0xe0, 0xaf, 0x3e, 0xbd, 0xb0, 0x43, 0x3d,
  0x5b, 0xec, 0xf2, 0xba, 0x35, 0x32, 0xa4, 0x3e, 0x29, 0xad, 0x42, 0x3e,
  0xcb, 0x5a, 0xb3, 0x3d, 0xe2, 0xdd, 0xff, 0xff, 0x10, 0x00, 0x00, 0x00,
  0x0a, 0x00, 0x00, 0x00, 0x1c, 0x00, 0x00, 0x00, 0x38, 0x00, 0x00, 0x00,
  0x04, 0x00, 0x00, 0x00, 0x10, 0x00, 0x00, 0x00, 0x04, 0x00, 0x00, 0x00,
  0x01, 0x00, 0x00, 0x00, 0x08, 0x00, 0x00, 0x00, 0x1a, 0x00, 0x00, 0x00,
  0x73, 0x65, 0x71, 0x75, 0x65, 0x6e, 0x74, 0x69, 0x61, 0x6c, 0x2f, 0x63,
  0x6f, 0x6e, 0x76, 0x32, 0x64, 0x5f, 0x31, 0x2f, 0x43, 0x6f, 0x6e, 0x76,
  0x32, 0x44, 0x00, 0x00, 0x58, 0xdd, 0xff, 0xff, 0x62, 0xde, 0xff, 0xff,
  0x04, 0x00, 0x00, 0x00, 0x80, 0x01, 0x00, 0x00, 0xa9, 0x1a, 0x04, 0x3e,
  0x3b, 0x2f, 0x4c, 0x3c, 0x31, 0xef, 0xb4, 0x3d, 0x1e, 0xc8, 0xb3, 0x3e,
  0x92, 0x56, 0x04, 0x3e, 0xa4, 0x19, 0x9a, 0x3c, 0x0f, 0x89, 0x80, 0x3d,
  0xbc, 0x46, 0x26, 0xbd, 0xbc, 0xb7, 0x1e, 0xbe, 0xa3, 0x4c, 0xd9, 0xbe,
  0x09, 0x36, 0x09, 0xbe, 0xfc, 0x49, 0x34, 0x3e, 0x0b, 0x11, 0x82, 0xbc,
  0x4d, 0xc9, 0xef, 0xba, 0x4b, 0x5c, 0xbd, 0x3b, 0xbb, 0xdf, 0x98, 0xbe,
  0xb6, 0x7b, 0xb7, 0xbe, 0x59, 0x71, 0x2f, 0x3e, 0x2b, 0xea, 0x09, 0x3f,
  0x08, 0xc8, 0x9d, 0x3e, 0xec, 0xdf, 0xa4, 0xbd, 0x21, 0x80, 0x33, 0x3d,
  0x21, 0xed, 0x2a, 0x3e, 0xbd, 0xaf, 0x65, 0xbd, 0xaf, 0xf8, 0x3b, 0x3d,
  0x29, 0x7e, 0x86, 0xbe, 0xe1, 0x0b, 0xb8, 0x3d, 0xd6, 0x37, 0x86, 0x3e,
  0xad, 0x5e, 0xaa, 0x3e, 0xb8, 0xa8, 0x97, 0x3d, 0x38, 0x93, 0x86, 0x3b,
  0x9f, 0x5a, 0x36, 0x3e, 0xaf, 0x16, 0x95, 0x3d, 0x2e, 0xaf, 0x91, 0xbd,
  0x63, 0x90, 0xb0, 0xbd, 0x25, 0x98, 0x0f, 0xbd, 0xfb, 0x62, 0x78, 0x3e,
  0x08, 0x1f, 0x50, 0x3e, 0xa8, 0x22, 0x9b, 0xbe, 0x93, 0x05, 0x81, 0xbd,
  0x88, 0x85, 0x4d, 0x3d, 0x31, 0x8b, 0x0b, 0xbd, 0xbe, 0xdb, 0x41, 0x3d,
  0x3b, 0x11, 0x85, 0x3d, 0x1f, 0x7b, 0xc1, 0xbd, 0xed, 0x25, 0x55, 0x3e,
  0x4d, 0xcd, 0x30, 0xbe, 0x63, 0xe8, 0xac, 0x3d, 0x34, 0x37, 0x25, 0xbe,
  0x92, 0x0c, 0x7d, 0x3d, 0x53, 0x71, 0x83, 0xbb, 0x0e, 0x9f, 0xb2, 0xbe,
  0xdd, 0xf8, 0xa1, 0xbd, 0x30, 0xd1, 0x8a, 0xbe, 0x22, 0x52, 0x8b, 0x3e,
  0xc8, 0x5a, 0xa4, 0xbe, 0xd4, 0x13, 0x83, 0xbc, 0xde, 0x38, 0x33, 0x3e,
  0x42, 0xe9, 0xa5, 0x3e, 0xe6, 0xce, 0x39, 0x3e, 0xbe, 0x1e, 0xe4, 0x3c,
  0xe8, 0xf6, 0xa0, 0x3c, 0xd1, 0xef, 0x18, 0xbd, 0x52, 0x06, 0xdb, 0x3d,
  0xb9, 0x0b, 0x63, 0xbd, 0xcd, 0x81, 0x47, 0xbe, 0xbf, 0x0f, 0x74, 0x3e,
  0x8d, 0x11, 0xb5, 0x3d, 0xc0, 0xfd, 0x54, 0x3e, 0x24, 0x5d, 0x18, 0x3e,
  0x3b, 0xb2, 0xa0, 0x3c, 0xb3, 0x08, 0x6a, 0x3e, 0x88, 0x3c, 0x36, 0xbd,
  0x23, 0xd1, 0x69, 0xbe, 0x1a, 0x5a, 0x86, 0x3e, 0xc1, 0x0d, 0x39, 0xbe,
  0x99, 0x28, 0x81, 0xbd, 0xd8, 0xcd, 0x84, 0x3e, 0xbf, 0xb3, 0x03, 0x3d,
  0x3d, 0xa1, 0x5c, 0x3e, 0x4f, 0x63, 0x51, 0xbd, 0xd0, 0x95, 0x65, 0x3e,
  0x53, 0x2f, 0x7c, 0x3e, 0x39, 0x61, 0x95, 0xbe, 0x33, 0x97, 0x06, 0x3d,
  0x7e, 0x4b, 0x28, 0xbc, 0xea, 0x75, 0x11, 0xbe, 0xf8, 0x91, 0xa4, 0x3a,
  0x6e, 0x93, 0x83, 0xbd, 0xf7, 0xc2, 0x3d, 0xbc, 0x11, 0xc3, 0x19, 0x3e,
  0x7e, 0xf7, 0xdd, 0x3d, 0xa9, 0x34, 0x30, 0xbe, 0xfa, 0x5d, 0xb7, 0x3e,
  0xe5, 0x65, 0x03, 0x3e, 0x22, 0xd3, 0x1a, 0x3e, 0xba, 0xdf, 0xff, 0xff,
  0x10, 0x00, 0x00, 0x00, 0x09, 0x00, 0x00, 0x00, 0x1c, 0x00, 0x00, 0x00,
  0x38, 0x00, 0x00, 0x00, 0x04, 0x00, 0x00, 0x00, 0x08, 0x00, 0x00, 0x00,
  0x04, 0x00, 0x00, 0x00, 0x03, 0x00, 0x00, 0x00, 0x01, 0x00, 0x00, 0x00,
  0x18, 0x00, 0x00, 0x00, 0x73, 0x65, 0x71, 0x75, 0x65, 0x6e, 0x74, 0x69,
  0x61, 0x6c, 0x2f, 0x63, 0x6f, 0x6e, 0x76, 0x32, 0x64, 0x2f, 0x43, 0x6f,
  0x6e, 0x76, 0x32, 0x44, 0x00, 0x00, 0x00, 0x00, 0x30, 0xdf, 0xff, 0xff,
  0x3a, 0xe0, 0xff, 0xff, 0x04, 0x00, 0x00, 0x00, 0x00, 0x01, 0x00, 0x00,
  0x6e, 0x40, 0xdd, 0xbe, 0x2f, 0xb6, 0x3f, 0xbd, 0x50, 0x6a, 0xe7, 0x3c,
  0x52, 0x5c, 0x7a, 0x3d, 0x78, 0x0b, 0x98, 0xbd, 0xfb, 0x49, 0xbf, 0x3e,
  0x30, 0x24, 0x7f, 0x3e, 0x3c, 0xc5, 0x69, 0x3a, 0x1b, 0xb7, 0x3f, 0x3e,
  0xc0, 0xfb, 0x85, 0xbe, 0xdf, 0x59, 0xc0, 0xbe, 0xb7, 0xaa, 0x1f, 0x3a,
  0x11, 0x87, 0xb4, 0x3d, 0xcf, 0x66, 0xb1, 0xbd, 0x5f, 0x31, 0x4e, 0x3e,
  0x0c, 0x68, 0xf8, 0x3d, 0xfd, 0x11, 0xd6, 0xbe, 0xb1, 0xfd, 0xfe, 0xbc,
  0x31, 0x9a, 0xd0, 0x3c, 0xd6, 0x67, 0x07, 0x3e, 0x3a, 0x46, 0xf0, 0xbc,
  0x47, 0x5f, 0x26, 0xbf, 0xaf, 0x66, 0x3f, 0xbf, 0x21, 0xae, 0x23, 0xbc,
  0xf7, 0xf0, 0xff, 0x3d, 0xba, 0x08, 0x69, 0xbe, 0x26, 0xac, 0x65, 0xbe,
  0x3a, 0x06, 0xda, 0xbb, 0xd6, 0x5f, 0xb9, 0xbe, 0xca, 0x75, 0xfb, 0xbe,
  0x62, 0x46, 0x14, 0x3e, 0x93, 0xec, 0x49, 0x3e, 0xe8, 0x2c, 0xd4, 0xbe,
  0xca, 0xe3, 0xe6, 0x3c, 0xff, 0x0c, 0xb9, 0x3d, 0x26, 0x1f, 0x10, 0x3e,
  0x8f, 0xaf, 0xff, 0x3c, 0xd8, 0xe5, 0x08, 0xbe, 0x21, 0xa8, 0x1e, 0x3d,
  0xb5, 0x0b, 0xdc, 0x3d, 0x87, 0xc7, 0xa9, 0x3d, 0x1e, 0xcb, 0x88, 0xbe,
  0xa8, 0x24, 0x36, 0xbe, 0xd2, 0xfb, 0x8c, 0x3d, 0x9a, 0x4c, 0xe1, 0xbe,
  0xd6, 0x99, 0xcc, 0xbe, 0xeb, 0x75, 0x47, 0x3e, 0x9e, 0x1b, 0xfb, 0x3d,
  0x21, 0x01, 0xbd, 0xbe, 0x69, 0x27, 0x29, 0xbc, 0x93, 0x37, 0xd9, 0x3c,
  0xff, 0xd2, 0x3c, 0x3e, 0x1f, 0x75, 0xa8, 0xbc, 0xc4, 0xc8, 0x13, 0xbf,
  0x10, 0xe4, 0xaf, 0xbe, 0xe0, 0x44, 0x0d, 0x3e, 0x67, 0xad, 0x17, 0x3e,
  0x4e, 0xab, 0x9f, 0xbe, 0xfc, 0xbb, 0x15, 0xbe, 0xa5, 0x07, 0x92, 0x3c,
  0x3b, 0xf6, 0x3e, 0x3d, 0x76, 0x1a, 0x1d, 0xbf, 0x7a, 0x86, 0x21, 0x3e,
  0x88, 0x82, 0x8b, 0x3d, 0x12, 0xe1, 0xff, 0xff, 0x10, 0x00, 0x00, 0x00,
  0x08, 0x00, 0x00, 0x00, 0x14, 0x00, 0x00, 0x00, 0x30, 0x00, 0x00, 0x00,
  0x02, 0x00, 0x00, 0x00, 0x04, 0x00, 0x00, 0x00, 0x10, 0x00, 0x00, 0x00,
  0x19, 0x00, 0x00, 0x00, 0x73, 0x65, 0x71, 0x75, 0x65, 0x6e, 0x74, 0x69,
  0x61, 0x6c, 0x2f, 0x64, 0x65, 0x6e, 0x73, 0x65, 0x5f, 0x31, 0x2f, 0x4d,
  0x61, 0x74, 0x4d, 0x75, 0x6c, 0x00, 0x00, 0x00, 0x80, 0xe0, 0xff, 0xff,
  0x8a, 0xe1, 0xff, 0xff, 0x04, 0x00, 0x00, 0x00, 0x00, 0x1c, 0x00, 0x00,
  0x26, 0x35, 0x72, 0xbd, 0x77, 0x28, 0x2d, 0x3c, 0x78, 0xd6, 0x44, 0x3e,
  0x00, 0xd3, 0xe0, 0xbc, 0xe0, 0x26, 0x0e, 0xbe, 0xc4, 0x40, 0xec, 0xbc,
  0xab, 0x73, 0xae, 0xbd, 0xec, 0x17, 0xb3, 0xbe, 0x39, 0xe8, 0x8c, 0x3e,
  0xc1, 0x92, 0xb7, 0xbd, 0x85, 0xec, 0x9c, 0xbe, 0xe9, 0xf2, 0x5f, 0xbf,
  0xf4, 0x48, 0x33, 0xbe, 0xd4, 0x55, 0x03, 0x3e, 0x03, 0x75, 0x0e, 0xbf,
  0x9c, 0x1b, 0x87, 0xbe, 0x20, 0xef, 0xcc, 0x3d, 0xb4, 0x72, 0x87, 0x3d,
  0xc5, 0x5e, 0xa4, 0xbc, 0x60, 0x76, 0x85, 0x3e, 0xda, 0x99, 0x50, 0xbe,
  0x48, 0x50, 0x55, 0x3e, 0x9d, 0xbc, 0x78, 0xbe, 0x5f, 0xa4, 0xd8, 0xbe,
  0x69, 0xe1, 0x0f, 0x3d, 0x33, 0x12, 0x41, 0xbe, 0x35, 0x43, 0x51, 0xbf,
  0xe4, 0x5e, 0x3c, 0xbf, 0xb7, 0xd1, 0xa8, 0x3d, 0x43, 0x9c, 0x1a, 0x3e,
  0xeb, 0x48, 0x96, 0xbe, 0xa5, 0xb9, 0xb5, 0xbe, 0x77, 0x87, 0x06, 0x3e,
  0x8f, 0x65, 0x90, 0x3d, 0xb3, 0x9b, 0x13, 0xbd, 0xe6, 0xce, 0xca, 0x3e,
  0xe0, 0xe0, 0xf3, 0xbc, 0xc7, 0xc5, 0x6e, 0xbd, 0xfc, 0x8b, 0x3c, 0xbe,
  0xfc, 0xa9, 0x4d, 0xbe, 0x3e, 0xba, 0x52, 0x39, 0x11, 0x3f, 0x78, 0x3d,
  0x72, 0xce, 0xd5, 0xbe, 0x00, 0xfe, 0x08, 0xbf, 0x08, 0x27, 0x99, 0x3e,
  0x06, 0x15, 0xb7, 0x3d, 0x3b, 0xe1, 0x92, 0xbe, 0xe1, 0xd1, 0x46, 0xbe,
  0x25, 0x32, 0x05, 0x3e, 0x60, 0x24, 0x14, 0x3d, 0xbc, 0xcd, 0xa8, 0xbd,
  0x07, 0x9c, 0x29, 0x3e, 0x90, 0x51, 0x74, 0x3e, 0x9d, 0x73, 0x03, 0x3d,
  0x4a, 0x1e, 0x64, 0xbd, 0xba, 0xb1, 0xfb, 0xbc, 0x92, 0x52, 0xd9, 0xbd,
  0xaf, 0x67, 0x39, 0x3d, 0xfc, 0x5c, 0xab, 0xbe, 0x7d, 0xd6, 0xa5, 0xbe,
  0xb6, 0xe8, 0x95, 0x3e, 0x91, 0x8c, 0xd6, 0x3d, 0xb7, 0x4e, 0x0f, 0xbe,
  0x16, 0x79, 0xfd, 0xbd, 0x4f, 0x3d, 0xe9, 0x3d, 0xd2, 0x58, 0x5a, 0x3d,
  0x2f, 0x20, 0xa9, 0xbd, 0xcd, 0xfb, 0x81, 0x3e, 0x79, 0x5c, 0x98, 0x3d,
  0x39, 0x82, 0x95, 0xbd, 0x32, 0x18, 0x12, 0xbe, 0xbc, 0xc5, 0x76, 0xbe,
  0xa1, 0x16, 0xfa, 0xbd, 0x37, 0x60, 0x9c, 0x3e, 0xe9, 0xb8, 0x16, 0xbf,
  0x10, 0xae, 0xdd, 0xbe, 0xe8, 0xd2, 0x63, 0x3e, 0x59, 0xe8, 0x6c, 0x3e,
  0xa0, 0x19, 0x1b, 0xbe, 0x1e, 0x6a, 0x0f, 0xbf, 0x91, 0x54, 0x6b, 0x3d,
  0x6d, 0xd6, 0x16, 0x3d, 0x37, 0x6f, 0x3b, 0xbd, 0xcc, 0xea, 0xbc, 0xbc,
  0xac, 0xda, 0xb4, 0xbd, 0x5c, 0x42, 0x1a, 0xbe, 0x3a, 0xd4, 0x0d, 0x3c,
  0x66, 0x04, 0x13, 0xbf, 0xa5, 0x3e, 0xa0, 0xbd, 0x5f, 0x8e, 0x2d, 0xbe,
  0xa4, 0x39, 0xe6, 0xbe, 0xbf, 0x4c, 0xe6, 0xbe, 0x84, 0xed, 0x38, 0x3e,
  0x4b, 0x30, 0x9c, 0x3e, 0x13, 0x0d, 0xf7, 0xbe, 0x2f, 0x89, 0x4f, 0xbf,
  0x66, 0x21, 0xf5, 0x3c, 0x3c, 0xf0, 0x22, 0x3b, 0xdb, 0x14, 0x8a, 0x3c,
  0xaa, 0x09, 0x6b, 0xbc, 0x70, 0x18, 0x21, 0x3d, 0x92, 0xf4, 0x21, 0xbd,
  0xef, 0xea, 0x36, 0x3e, 0xb9, 0x9e, 0xce, 0xbc, 0x22, 0xf5, 0x61, 0xbd,
  0x11, 0x03, 0x4b, 0xbd, 0xf8, 0xbd, 0xf0, 0xbe, 0xb5, 0x07, 0x39, 0xbf,
  0x76, 0x24, 0x58, 0xbd, 0xea, 0x72, 0x81, 0x3e, 0xb9, 0xe5, 0x41, 0xbe,
  0x8b, 0x59, 0x82, 0xbe, 0x42, 0x7a, 0x64, 0xbc, 0x3f, 0x1a, 0x0e, 0xbf,
  0x68, 0x46, 0x2c, 0xbf, 0x77, 0x43, 0x0d, 0x3e, 0x57, 0x60, 0xe3, 0x3e,
  0xa0, 0xa0, 0xe2, 0xbe, 0x2a, 0xf0, 0xed, 0x3e, 0x13, 0xb0, 0xa3, 0xbe,
  0x76, 0x0d, 0xe2, 0xbe, 0x23, 0x82, 0x59, 0xbe, 0x01, 0x14, 0x2e, 0x3f,
  0x99, 0x83, 0xd8, 0x3d, 0xe1, 0xa5, 0x16, 0xbe, 0x9f, 0xb3, 0x99, 0xbe,
  0x72, 0x50, 0x01, 0xbf, 0xde, 0x9f, 0x31, 0x3e, 0x07, 0x5c, 0x4d, 0x3d,
  0x46, 0x1c, 0xf0, 0x3c, 0x87, 0x3e, 0x69, 0xbe, 0xf5, 0xd0, 0x04, 0xbe,
  0x8a, 0x30, 0xb9, 0x3e, 0xf5, 0xe0, 0xd6, 0x3d, 0x8e, 0x64, 0xf5, 0x3d,
  0xf4, 0xca, 0xc9, 0x3b, 0x0c, 0xba, 0xb7, 0xbe, 0xe3, 0x87, 0x54, 0x3e,
  0x14, 0x90, 0xa6, 0x3e, 0x12, 0x26, 0xc0, 0x3b, 0xce, 0xea, 0x69, 0x3e,
  0x03, 0x86, 0x74, 0xbe, 0xb2, 0xcb, 0x54, 0xbe, 0x92, 0xd9, 0xd7, 0x3d,
  0x50, 0x38, 0xe8, 0xbc, 0x51, 0x43, 0xe3, 0xbb, 0x75, 0xc0, 0xfa, 0x3d,
  0x32, 0xe2, 0x44, 0x3e, 0x99, 0xe5, 0xd9, 0x3d, 0x6b, 0x89, 0x91, 0xbd,
  0xd9, 0x81, 0x2b, 0x3e, 0x0c, 0x6d, 0xc3, 0x3d, 0xc7, 0xe8, 0xcb, 0xba,
  0x3d, 0xe8, 0x4d, 0x3e, 0x40, 0xff, 0x16, 0x3f, 0xac, 0x97, 0xa1, 0xbd,
  0x13, 0x35, 0x03, 0xbd, 0x36, 0xdd, 0x1c, 0x3e, 0x62, 0x36, 0xee, 0xbd,
  0x6e, 0x55, 0x52, 0x3e, 0xea, 0x32, 0x04, 0xbe, 0xab, 0xf9, 0x52, 0xbd,
  0x1f, 0x3e, 0x23, 0x3e, 0xd9, 0xd1, 0xd6, 0x3e, 0x6f, 0xd5, 0xe3, 0xbc,
  0x2a, 0x0b, 0xea, 0xbc, 0xcd, 0x58, 0xc9, 0x3d, 0x85, 0x65, 0x28, 0xbe,
  0x4d, 0x46, 0x3f, 0x3e, 0xb2, 0x37, 0x3d, 0x3e, 0x25, 0x76, 0x0d, 0x3f,
  0xee, 0x50, 0xc4, 0xbd, 0x86, 0xc6, 0x1a, 0xbe, 0xf8, 0x79, 0x39, 0x3e,
  0x15, 0x57, 0xbc, 0xbd, 0x8c, 0x81, 0xb3, 0x3d, 0x7a, 0x94, 0xd7, 0xbd,
  0x98, 0x3f, 0x3d, 0xbd, 0xf4, 0x51, 0xcd, 0x3d, 0x4a, 0x18, 0xf2, 0x3e,
  0xac, 0x6c, 0x34, 0x3e, 0x86, 0xe2, 0xd6, 0xbd, 0x8d, 0x4a, 0x44, 0x3e,
  0x30, 0x44, 0xaa, 0xbc, 0x83, 0xba, 0x83, 0x3d, 0xb5, 0xf4, 0x2e, 0x3e,
  0xae, 0xe4, 0x23, 0x3f, 0xee, 0x13, 0x3e, 0xbe, 0x68, 0xee, 0xa9, 0xbd,
  0xed, 0x7b, 0xfc, 0xbe, 0x4a, 0xf9, 0x8d, 0xbc, 0xfc, 0xbe, 0xc6, 0x3d,
  0xce, 0x5c, 0xde, 0xbd, 0x5a, 0xe2, 0x00, 0xbd, 0xff, 0x15, 0x8d, 0x3d,
  0xda, 0x6f, 0x11, 0x3e, 0x4b, 0x2e, 0x5d, 0x3e, 0x21, 0x59, 0xe1, 0xbd,
  0x0b, 0x9a, 0x9d, 0x3e, 0x3e, 0x71, 0x7e, 0xbe, 0x82, 0xac, 0x09, 0x3e,
  0x22, 0x34, 0xb9, 0xbd, 0xdb, 0xc6, 0x12, 0x3f, 0x46, 0x71, 0xc8, 0xbb,
  0x2e, 0x59, 0x45, 0xbe, 0xf1, 0x7f, 0x89, 0xbe, 0x6b, 0xe8, 0xaf, 0xbe,
  0x3b, 0x27, 0x17, 0x3e, 0x01, 0x1d, 0x37, 0xbc, 0x3a, 0x60, 0xd1, 0x3d,
  0xab, 0x02, 0x8c, 0x3d, 0x93, 0xea, 0xc2, 0xbe, 0x4d, 0xc3, 0x0d, 0x3e,
  0x65, 0x74, 0x82, 0xbe, 0x04, 0x98, 0x68, 0xbe, 0x9a, 0x47, 0x95, 0x3d,
  0x8a, 0x7a, 0x72, 0x3d, 0xd1, 0x9a, 0x93, 0x3d, 0xa6, 0xcc, 0x48, 0xbe,
  0xf8, 0x73, 0xe2, 0x3d, 0x1d, 0x2b, 0x25, 0xbb, 0x60, 0x8c, 0x11, 0xbe,
  0xda, 0x4a, 0x59, 0xbe, 0x7a, 0xc5, 0x91, 0xbc, 0x49, 0x1c, 0x53, 0xbc,
  0xd2, 0xfb, 0x1d, 0xbf, 0x9a, 0x18, 0xcf, 0xbe, 0x80, 0x64, 0x83, 0x3d,
  0x19, 0x2e, 0xc9, 0x3e, 0x94, 0xe6, 0xde, 0xbe, 0xeb, 0x67, 0x6e, 0x3e,
  0xc1, 0x50, 0xbe, 0xbe, 0x0d, 0x30, 0x3b, 0xbe, 0x5c, 0xf7, 0x96, 0xbe,
  0xff, 0x1c, 0xa1, 0x3f, 0x3c, 0xd9, 0xe2, 0x3d, 0x88, 0xb7, 0xbb, 0xbe,
  0x9c, 0x06, 0xbf, 0xbe, 0x4c, 0xe2, 0x08, 0xbe, 0x21, 0x5c, 0xac, 0x3d,
  0xed, 0xa6, 0xce, 0xbc, 0x31, 0xa2, 0xca, 0xbe, 0xc5, 0x1d, 0x27, 0x3d,
  0x97, 0x5d, 0x31, 0x3e, 0x29, 0xa8, 0xc8, 0x3e, 0x87, 0x1d, 0x66, 0xbe,
  0x84, 0x3c, 0x4c, 0xbd, 0xbf, 0x71, 0x0d, 0xbd, 0x16, 0xb4, 0x50, 0xbd,
  0x15, 0x3e, 0xf4, 0x3d, 0x3f, 0x12, 0x9a, 0x3f, 0x26, 0xd7, 0x35, 0x3e,
  0xe8, 0x78, 0x37, 0xbc, 0x44, 0xca, 0x11, 0x3c, 0x19, 0xc9, 0x2a, 0x3c,
  0x64, 0x27, 0x04, 0x3e, 0xe5, 0x80, 0x17, 0xbe, 0x9b, 0x8f, 0x2d, 0xbe,
  0xf8, 0x6c, 0x3d, 0xbe, 0xc9, 0x1b, 0x05, 0xbe, 0xdd, 0xb1, 0x1e, 0x3e,
  0x99, 0xdb, 0xbd, 0xbd, 0x40, 0xf4, 0x16, 0x3e, 0xdc, 0xf3, 0xbf, 0xbd,
  0x12, 0x5e, 0x58, 0xbc, 0x0f, 0x3e, 0x10, 0x3e, 0xb0, 0x11, 0xb8, 0x3f,
  0x47, 0x24, 0xf3, 0x3d, 0x39, 0xdb, 0x15, 0x3e, 0x7b, 0x8e, 0x91, 0xbd,
  0xe2, 0xf4, 0x1c, 0xbe, 0xac, 0xef, 0x04, 0x3e, 0x83, 0xdb, 0x95, 0xbd,
  0x19, 0x6b, 0x94, 0xbc, 0xc9, 0xe3, 0xb9, 0xbc, 0x55, 0x24, 0x52, 0x3d,
  0x22, 0x1b, 0xa6, 0x3d, 0x63, 0xa7, 0x3b, 0xbe, 0x18, 0x16, 0x16, 0x3e,
  0xa2, 0xd2, 0x1f, 0x3e, 0xce, 0x91, 0x94, 0x3d, 0x78, 0x7a, 0x2e, 0x3d,
  0xa4, 0xea, 0xa1, 0x3f, 0x12, 0xca, 0x39, 0xbe, 0x3a, 0xd2, 0x05, 0xbd,
  0x03, 0x77, 0x7d, 0xbe, 0xd7, 0x61, 0xd6, 0xbc, 0x3e, 0x45, 0x55, 0x3e,
  0x9a, 0x0d, 0xf6, 0xbd, 0xe7, 0x95, 0xd6, 0x3b, 0x69, 0x8b, 0x10, 0x3e,
  0x9a, 0x69, 0x48, 0x3e, 0x10, 0x7c, 0xcf, 0x3e, 0x65, 0x11, 0x2f, 0x3d,
  0xcf, 0x41, 0xe0, 0x3c, 0x35, 0x85, 0x88, 0xbd, 0xca, 0x86, 0x29, 0xbe,
  0xce, 0x12, 0x40, 0x3e, 0x85, 0x05, 0x88, 0x3f, 0x3d, 0x89, 0xda, 0xbd,
  0x2b, 0x95, 0x96, 0xbd, 0x5f, 0x24, 0x8c, 0xbe, 0x25, 0x08, 0xb5, 0xbd,
  0xf3, 0xb5, 0x72, 0x3e, 0x84, 0x60, 0x08, 0xbe, 0xb1, 0xc6, 0x7f, 0xbc,
  0xb8, 0x5e, 0x45, 0x3d, 0x40, 0xbd, 0x51, 0xbd, 0x10, 0xb7, 0x89, 0x3e,
  0xaf, 0xd7, 0xc3, 0xbd, 0xb9, 0x0f, 0x13, 0x3c, 0xca, 0x4c, 0x94, 0xbe,
  0xc8, 0x96, 0x04, 0xbe, 0x94, 0x94, 0x82, 0xbd, 0xc9, 0xae, 0xe2, 0x3f,
  0xfa, 0x27, 0xc9, 0x3c, 0x34, 0xf0, 0x65, 0xbe, 0xab, 0x66, 0x5b, 0xbe,
  0x1e, 0x3a, 0xf6, 0xbe, 0x44, 0x2b, 0x0d, 0x3e, 0xfb, 0xdd, 0xac, 0xbd,
  0x0c, 0x4d, 0xa7, 0x3d, 0xa7, 0x26, 0xbe, 0x3e, 0x6e, 0xfa, 0xc6, 0xbd,
  0x6b, 0xf1, 0xc6, 0xbe, 0xfe, 0x98, 0x50, 0xbe, 0xf6, 0xd9, 0x84, 0xbe,
  0x88, 0x47, 0x23, 0x3e, 0x81, 0xa6, 0x04, 0x3e, 0x7a, 0x5a, 0xb6, 0xbd,
  0x57, 0x0a, 0x87, 0x3e, 0xd3, 0x71, 0x99, 0xbd, 0x13, 0xd5, 0x65, 0x3d,
  0x6e, 0x3c, 0xc5, 0xbb, 0xfd, 0x44, 0x06, 0xbf, 0xea, 0x47, 0xb3, 0x3d,
  0xe2, 0x44, 0x43, 0xbe, 0x3d, 0x29, 0x4d, 0x3d, 0xd5, 0x3b, 0x5f, 0x3e,
  0x11, 0xb5, 0x5b, 0xbe, 0xcf, 0x2d, 0x5d, 0xbd, 0x89, 0x3b, 0xd9, 0x3c,
  0x6b, 0xc5, 0x72, 0xbe, 0xd3, 0x90, 0xbf, 0xbd, 0xb6, 0xbe, 0x67, 0x3e,
  0x74, 0x28, 0x95, 0xbe, 0xc4, 0x96, 0x0b, 0xbe, 0xd4, 0xb1, 0xa3, 0xbd,
  0x39, 0x24, 0x57, 0xbf, 0xe6, 0xe9, 0xba, 0x3d, 0xa1, 0x4d, 0xcc, 0xbe,
  0x3a, 0xcd, 0x6b, 0xbe, 0x5f, 0xd6, 0xc8, 0xbd, 0x73, 0x5b, 0xf7, 0x3c,
  0x6f, 0xab, 0x12, 0xbd, 0x5f, 0xa7, 0xd8, 0xbb, 0x63, 0x1a, 0x6a, 0xbe,
  0x60, 0xd1, 0x58, 0x3d, 0xef, 0x0f, 0x45, 0xbe, 0x25, 0xf1, 0x18, 0x3e,
  0x44, 0x0f, 0xfe, 0x3d, 0xc2, 0xe7, 0xf4, 0xbe, 0xf0, 0x5d, 0x61, 0x3c,
  0x67, 0xc2, 0xef, 0xbe, 0x5e, 0x28, 0xc3, 0xbe, 0x5e, 0xce, 0x2b, 0x3e,
  0xa7, 0xa6, 0xa6, 0xbd, 0x57, 0xe4, 0xcd, 0xbe, 0x66, 0x40, 0x29, 0x3d,
  0x50, 0x38, 0x28, 0x3d, 0xf0, 0x2a, 0x18, 0x3d, 0x24, 0xbf, 0x9f, 0x3d,
  0xdc, 0x08, 0x30, 0xbd, 0x2e, 0x38, 0xe0, 0xbd, 0xd0, 0x11, 0x92, 0xbe,
  0xa3, 0x06, 0xe8, 0xbc, 0x78, 0xfd, 0x00, 0x3d, 0xc2, 0xfb, 0x08, 0x3e,
  0xd8, 0xb1, 0x01, 0x3e, 0xb1, 0x22, 0x4a, 0xbe, 0x70, 0x51, 0x12, 0xbe,
  0x62, 0x30, 0xcf, 0x3d, 0x55, 0xb8, 0x1d, 0xbc, 0x3d, 0x33, 0x9a, 0xbe,
  0x1e, 0xa8, 0xf3, 0x3c, 0x50, 0x2b, 0x9d, 0x3d, 0x2e, 0x4e, 0xa9, 0xbb,
  0x7e, 0x68, 0x4f, 0x3b, 0xd5, 0x00, 0xd5, 0xbc, 0x31, 0xef, 0x91, 0xbd,
  0xd9, 0x36, 0x2a, 0xbe, 0x35, 0x32, 0xf4, 0x3d, 0x06, 0x40, 0xfb, 0x3d,
  0x3e, 0xc5, 0x46, 0xbe, 0xea, 0xc2, 0x28, 0xbe, 0x86, 0x22, 0xb6, 0xbd,
  0x73, 0xe0, 0x25, 0xbd, 0xae, 0x1b, 0xe1, 0x3d, 0x2c, 0x92, 0x65, 0xbe,
  0x73, 0xdc, 0xca, 0xbe, 0x79, 0xc7, 0x93, 0x3c, 0x9a, 0x61, 0x94, 0x3d,
  0xd8, 0xa5, 0x40, 0xbc, 0xd2, 0xde, 0xfe, 0xbd, 0xa7, 0xa9, 0x3e, 0xbe,
  0x83, 0x4c, 0x97, 0xbd, 0xe0, 0x73, 0xe9, 0xbd, 0x74, 0xc0, 0x99, 0x3d,
  0x57, 0x6e, 0x75, 0x3d, 0x74, 0xfb, 0xa3, 0x3d, 0x44, 0xd4, 0x35, 0xbe,
  0x8f, 0x08, 0x2f, 0xbe, 0x83, 0xa5, 0x11, 0xbd, 0x1b, 0xf9, 0xe2, 0x3d,
  0xd4, 0x53, 0x5a, 0xbd, 0xce, 0x22, 0x5b, 0xbe, 0x1b, 0x30, 0x04, 0xbd,
  0x8a, 0x2d, 0x2d, 0x3d, 0xa8, 0x3c, 0xff, 0xbc, 0xaf, 0x17, 0xd9, 0x3c,
  0x4c, 0xac, 0xc1, 0xbd, 0x73, 0x5e, 0x57, 0xbe, 0x08, 0x15, 0xf3, 0x3d,
  0xf3, 0xcf, 0x8a, 0xbe, 0x5c, 0xc4, 0xdc, 0xbc, 0xb3, 0x94, 0xee, 0xbd,
  0xe6, 0x07, 0x09, 0xbe, 0x61, 0x8c, 0x8f, 0xbe, 0x5c, 0x4c, 0x43, 0x3d,
  0x20, 0x83, 0x84, 0x3e, 0x54, 0x93, 0x53, 0xbe, 0x50, 0xd9, 0x02, 0xbf,
  0x93, 0x6c, 0x13, 0x3d, 0xb8, 0xf4, 0x5f, 0x3d, 0x31, 0x26, 0xee, 0x3c,
  0xa9, 0xe8, 0x6b, 0xbe, 0x78, 0xd6, 0x4b, 0xbe, 0xc1, 0xc6, 0xaf, 0xbd,
  0xd3, 0xf5, 0x2e, 0xbe, 0xe9, 0x91, 0x4c, 0xbc, 0xdc, 0x88, 0x33, 0x3c,
  0x1c, 0x45, 0x83, 0xbe, 0xd3, 0xd3, 0x07, 0xbe, 0xa5, 0xb7, 0x1d, 0xbf,
  0x60, 0xa1, 0x5d, 0xbd, 0x6f, 0x60, 0xa2, 0x3e, 0x11, 0xab, 0x83, 0xbe,
  0x9e, 0xfa, 0x71, 0xbe, 0x0c, 0x5b, 0x40, 0xbd, 0xe7, 0x02, 0x3a, 0xbf,
  0x25, 0x19, 0x18, 0xbf, 0xda, 0xc5, 0x4c, 0x3e, 0xab, 0x90, 0xdf, 0x3e,
  0xf8, 0x5e, 0xad, 0xbe, 0x54, 0x28, 0xd7, 0x3e, 0x92, 0x7c, 0xc3, 0xbe,
  0x24, 0x7a, 0xe2, 0xbe, 0x5d, 0xb8, 0xa0, 0xbe, 0xb7, 0xf2, 0x03, 0xbd,
  0xce, 0x60, 0xdd, 0x3d, 0xff, 0xc5, 0xd5, 0xbd, 0xe6, 0xfd, 0x56, 0xbe,
  0x81, 0x6c, 0x78, 0xbe, 0x01, 0x86, 0x05, 0x3e, 0x7c, 0x9b, 0x25, 0xbd,
  0xaa, 0x04, 0x56, 0xbd, 0x1b, 0xa5, 0xf9, 0xbd, 0x2d, 0xf3, 0xdc, 0xbd,
  0x54, 0x87, 0x2d, 0x3e, 0x01, 0x3d, 0xd8, 0xbd, 0x6a, 0x8c, 0x27, 0x3e,
  0x38, 0xdd, 0x6d, 0xbd, 0xc0, 0x61, 0xd2, 0xbe, 0x9e, 0x1d, 0xaf, 0x3e,
  0xc6, 0x98, 0x92, 0xbe, 0xd7, 0xc5, 0x7e, 0x3d, 0x7a, 0x17, 0x35, 0x3e,
  0x8a, 0xd5, 0xc8, 0x3d, 0x94, 0xfe, 0x27, 0xbe, 0x69, 0xf3, 0x2c, 0x3e,
  0x87, 0xc3, 0x8a, 0xbd, 0x2e, 0x79, 0xa8, 0xbd, 0x9a, 0xb4, 0x65, 0xbc,
  0x0e, 0x4d, 0x84, 0x3e, 0xb1, 0xfb, 0xb1, 0x3e, 0xba, 0xd5, 0x06, 0xbe,
  0x1c, 0xcb, 0xb4, 0xbd, 0x2f, 0xcd, 0xcd, 0x3d, 0x1b, 0x59, 0x06, 0xbd,
  0xf3, 0xd1, 0x9a, 0x3e, 0x85, 0x6f, 0x90, 0xbe, 0x2e, 0x5e, 0x37, 0x3d,
  0xe2, 0xe5, 0xaf, 0x3b, 0x12, 0x5d, 0xa9, 0x3e, 0x20, 0x8d, 0xab, 0xbe,
  0x35, 0x16, 0x69, 0x3e, 0x45, 0x9c, 0xc6, 0xbd, 0x59, 0x4d, 0x70, 0xbd,
  0x16, 0xad, 0x9f, 0x3c, 0x91, 0xea, 0x04, 0x3d, 0x77, 0x3d, 0x80, 0xbe,
  0xb5, 0x24, 0xda, 0xbd, 0x6a, 0xdf, 0x99, 0x3b, 0xea, 0x95, 0x8a, 0x3d,
  0xa8, 0x2f, 0x14, 0x3e, 0x48, 0xa9, 0x95, 0x3e, 0x1f, 0x5c, 0x7e, 0x3d,
  0x4f, 0x92, 0x54, 0x3d, 0x47, 0xdf, 0xda, 0xbd, 0x6a, 0x19, 0x76, 0x3d,
  0x33, 0x90, 0x2f, 0x3c, 0x6d, 0x36, 0xa6, 0x3d, 0x3f, 0x07, 0xfd, 0xbd,
  0x01, 0x17, 0xdd, 0x3c, 0x06, 0x2d, 0x10, 0x3e, 0xc3, 0x81, 0x4e, 0x3e,
  0x8c, 0x52, 0x2b, 0xbe, 0x5d, 0xb4, 0x77, 0xbc, 0x29, 0x4e, 0x18, 0x3e,
  0xf5, 0x1e, 0x36, 0xbd, 0x66, 0xed, 0xea, 0x3d, 0xdf, 0x0e, 0xe5, 0x3d,
  0x26, 0x94, 0x51, 0xbd, 0xc7, 0xf7, 0x9d, 0xbd, 0xb3, 0xa3, 0x66, 0xba,
  0x4b, 0x16, 0x2b, 0x3d, 0x5b, 0x40, 0x46, 0x3d, 0xd3, 0x03, 0xbb, 0xbb,
  0x6d, 0xe9, 0x54, 0xbe, 0x13, 0xc6, 0xaf, 0xbb, 0x46, 0x77, 0x02, 0x3e,
  0x64, 0x56, 0x81, 0x3e, 0x80, 0xbb, 0x03, 0x3e, 0x36, 0xf5, 0x5a, 0xbd,
  0xc9, 0xc8, 0xbb, 0x3e, 0x32, 0x8d, 0x05, 0xbe, 0x38, 0x10, 0x23, 0xbd,
  0xed, 0x81, 0x2b, 0xbe, 0x89, 0x94, 0x37, 0xbe, 0xef, 0x6d, 0x8e, 0xbd,
  0x6c, 0x76, 0xeb, 0xbd, 0x06, 0xe8, 0x5d, 0xbe, 0x30, 0x62, 0x3d, 0xbe,
  0x57, 0x71, 0xfd, 0x3d, 0x03, 0x73, 0x00, 0xbe, 0xaf, 0xe0, 0xce, 0xbc,
  0x97, 0x0b, 0x6c, 0xbc, 0xb0, 0x5a, 0x84, 0xbe, 0xc6, 0xc9, 0xda, 0xbd,
  0x90, 0x57, 0x5d, 0xbe, 0x59, 0x16, 0x80, 0xbe, 0x3b, 0xd2, 0x8f, 0x3c,
  0x29, 0x7b, 0xee, 0x3d, 0xe8, 0x3d, 0x33, 0x3c, 0x11, 0xeb, 0x8c, 0x3d,
  0xf6, 0x27, 0x79, 0x3e, 0x19, 0xb4, 0xcf, 0xbd, 0x4a, 0x16, 0x18, 0xbe,
  0x01, 0xe6, 0x05, 0xbf, 0x99, 0xc8, 0xf2, 0xba, 0x23, 0x6a, 0x84, 0xbe,
  0x16, 0x60, 0x89, 0xbe, 0x19, 0x3e, 0x33, 0xbe, 0xaa, 0x74, 0x84, 0x3d,
  0x89, 0x50, 0x98, 0xbe, 0xd2, 0x3d, 0x9a, 0xbd, 0x96, 0x5b, 0x11, 0x3d,
  0x1a, 0x7f, 0x55, 0x3c, 0xd4, 0xd1, 0x9c, 0xbb, 0x1c, 0x2b, 0xba, 0xbc,
  0x2d, 0x96, 0x3e, 0x3f, 0x46, 0x88, 0x7a, 0xbd, 0xe3, 0x55, 0xc1, 0xbd,
  0x2d, 0x4c, 0xaf, 0x3e, 0xfa, 0x5b, 0x71, 0xbb, 0x3a, 0xcb, 0xe3, 0xbd,
  0x92, 0x27, 0xb7, 0xbe, 0x78, 0x68, 0x47, 0x3d, 0x65, 0xbf, 0x5f, 0xbd,
  0xd2, 0x0a, 0x3f, 0x3e, 0x33, 0xdb, 0xf9, 0xbc, 0x44, 0x11, 0x1f, 0xbe,
  0x7f, 0x54, 0x43, 0x3d, 0xf8, 0x41, 0x4b, 0xbe, 0x15, 0x03, 0x00, 0xbe,
  0xc6, 0x19, 0x92, 0x3a, 0xa0, 0x81, 0x4b, 0x3f, 0x2a, 0xd0, 0x5f, 0xbe,
  0xe1, 0x9f, 0x10, 0xbb, 0x66, 0xdb, 0x5c, 0xbb, 0x4d, 0x18, 0x52, 0xbd,
  0xf7, 0x42, 0x8d, 0x3d, 0xcd, 0x0e, 0x27, 0xbe, 0xa7, 0x09, 0xda, 0xbd,
  0xc1, 0x2d, 0xe0, 0x3d, 0xe1, 0x43, 0x31, 0x3e, 0x86, 0xd3, 0x8a, 0x3c,
  0x5e, 0x6a, 0x09, 0xbe, 0x41, 0xbf, 0x5f, 0xbd, 0x60, 0xeb, 0x34, 0x3e,
  0xd2, 0xad, 0x82, 0x3c, 0x6f, 0xbc, 0xb5, 0xbd, 0x5a, 0xb9, 0x5c, 0x3f,
  0x45, 0xb6, 0x30, 0xbd, 0x5f, 0x3a, 0x3d, 0xbe, 0x62, 0xe2, 0x42, 0x3e,
  0x47, 0x5e, 0x68, 0xbd, 0x24, 0xea, 0x03, 0x3e, 0xd0, 0xa3, 0xf8, 0xbd,
  0x9c, 0x81, 0x59, 0xbe, 0x0a, 0xa4, 0x46, 0x3d, 0xac, 0x49, 0x39, 0xbb,
  0xda, 0x27, 0x1b, 0x3e, 0x3c, 0x32, 0xc3, 0xbc, 0xf1, 0xf4, 0xf4, 0xbd,
  0x8e, 0xf7, 0x59, 0x3e, 0x17, 0xc5, 0xa6, 0x3d, 0xd7, 0x0d, 0x16, 0x3e,
  0x3e, 0x6a, 0x50, 0x3f, 0x50, 0x69, 0x43, 0x3d, 0xfb, 0xe1, 0xc7, 0xbc,
  0x83, 0x71, 0x51, 0x3e, 0x36, 0xe4, 0x00, 0xbd, 0x07, 0x65, 0x77, 0xbd,
  0xff, 0xde, 0x07, 0xbe, 0x3c, 0x8e, 0x8e, 0xbe, 0x30, 0x64, 0x00, 0xbe,
  0xe7, 0x65, 0x0d, 0x3d, 0x12, 0x71, 0x20, 0x3e, 0x98, 0xe6, 0x32, 0xbd,
  0x10, 0x07, 0x47, 0xbd, 0x9e, 0x32, 0xb3, 0xbd, 0x27, 0x0a, 0x5d, 0x3d,
  0xa4, 0xf8, 0xfb, 0xbd, 0x5b, 0x8e, 0x53, 0x3f, 0x5f, 0xf7, 0x1b, 0xbe,
  0xd7, 0xdd, 0x6f, 0xbe, 0xda, 0x31, 0x52, 0x3e, 0x20, 0x4c, 0x20, 0xbe,
  0x91, 0xd4, 0xb2, 0xbd, 0x04, 0xfd, 0xc7, 0xbe, 0x70, 0x3e, 0x96, 0xbe,
  0x7b, 0xbc, 0xd5, 0xbd, 0xa2, 0xdc, 0x61, 0xbd, 0x2d, 0xec, 0x97, 0xbd,
  0x44, 0x93, 0x41, 0xbe, 0xa0, 0xd3, 0x7e, 0xbe, 0x12, 0x1e, 0x08, 0xbe,
  0xdf, 0x4d, 0x7f, 0xbe, 0x21, 0x23, 0x65, 0xbe, 0x41, 0xb6, 0x82, 0x3f,
  0x0c, 0x2d, 0xee, 0xbd, 0x83, 0xf9, 0x7b, 0x3d, 0x9e, 0x4d, 0x61, 0x3d,
  0x8b, 0xe7, 0xb9, 0x3d, 0x2e, 0x5f, 0xb9, 0xbd, 0x00, 0x4b, 0x80, 0xbe,
  0x41, 0x1f, 0x2d, 0xbe, 0x07, 0xd5, 0xb1, 0x3d, 0x0d, 0x32, 0x44, 0xbd,
  0xd6, 0x3b, 0x95, 0xbd, 0x8c, 0x51, 0x1e, 0xbe, 0xd4, 0x37, 0x28, 0xbe,
  0x5f, 0x80, 0x9c, 0xbd, 0xd7, 0xa0, 0xbe, 0xbd, 0xc2, 0x1f, 0x2d, 0xbe,
  0x57, 0xe1, 0xb0, 0x3f, 0x3c, 0x4b, 0x35, 0xbe, 0x83, 0x7d, 0x18, 0x3d,
  0x3c, 0x04, 0xf2, 0x3d, 0x08, 0x08, 0xb7, 0xbd, 0xb7, 0xf9, 0xe3, 0xbc,
  0x6f, 0x3c, 0x8c, 0xbe, 0x06, 0x09, 0x9e, 0xbe, 0xb8, 0xad, 0x7e, 0x3b,
  0xc2, 0x2b, 0x29, 0xbe, 0xf6, 0x69, 0xef, 0xbd, 0xe5, 0x4f, 0x4b, 0xbc,
  0xf2, 0x77, 0x43, 0x3d, 0x60, 0x27, 0x0e, 0xbc, 0x65, 0x0d, 0xbf, 0xbd,
  0x92, 0x2e, 0x4b, 0xbe, 0x66, 0xa3, 0xe9, 0x3e, 0x89, 0xa5, 0xa7, 0x3d,
  0xdd, 0xfd, 0xfc, 0x3b, 0xa7, 0x8c, 0x31, 0x3e, 0x2a, 0x90, 0xd4, 0xbd,
  0x45, 0x07, 0x72, 0xbe, 0x3c, 0x8f, 0x98, 0xbe, 0x66, 0xe4, 0xa0, 0xbe,
  0x31, 0x60, 0x84, 0xbd, 0xb8, 0x0a, 0x82, 0x3d, 0x64, 0x41, 0xa8, 0xbd,
  0x1e, 0xc2, 0x25, 0x3d, 0x62, 0xdc, 0x11, 0xbd, 0x67, 0xaa, 0x2d, 0x3d,
  0x01, 0x34, 0x8b, 0x3d, 0x34, 0x84, 0xa0, 0xbd, 0x09, 0xd5, 0x29, 0x3f,
  0xfc, 0x8d, 0xa0, 0x3a, 0xf0, 0xd4, 0x36, 0xbe, 0xf0, 0x5c, 0x01, 0x3e,
  0x74, 0x91, 0xfb, 0x3d, 0x69, 0x06, 0xf8, 0xbd, 0x08, 0x55, 0xc5, 0xbe,
  0xc6, 0x33, 0x84, 0xbd, 0xa4, 0x93, 0xd8, 0x3c, 0xec, 0xb7, 0x47, 0xbe,
  0xc1, 0xae, 0xc4, 0x3c, 0x82, 0xf2, 0x8e, 0xbc, 0x64, 0x41, 0xbc, 0xbc,
  0xe5, 0x51, 0x82, 0xbd, 0x79, 0x46, 0x6d, 0xbd, 0x05, 0xf6, 0x0f, 0x3e,
  0xcb, 0xd6, 0xbf, 0x3f, 0xbc, 0xe9, 0x40, 0x3d, 0x8f, 0x86, 0x1b, 0x3d,
  0x2a, 0xf4, 0x8f, 0x3d, 0xb9, 0x62, 0x3d, 0xbe, 0xb3, 0xb3, 0x5d, 0xbe,
  0xb0, 0xd8, 0x7f, 0xbe, 0x4e, 0x73, 0xaa, 0xbe, 0x7f, 0x00, 0x84, 0x3e,
  0x8a, 0xb0, 0xd5, 0xbd, 0x54, 0x15, 0xa7, 0x3d, 0xe2, 0x72, 0x91, 0x3d,
  0x40, 0x15, 0xdf, 0x3d, 0xcf, 0x4f, 0x8a, 0xbe, 0x2f, 0x75, 0xd9, 0xbc,
  0xea, 0x31, 0x58, 0x3d, 0xd7, 0xa3, 0xd0, 0x3f, 0x81, 0x43, 0x46, 0xbe,
  0x53, 0x7e, 0xf6, 0x3c, 0x9b, 0x92, 0x30, 0x3e, 0x2d, 0x2d, 0x34, 0x3d,
  0xc4, 0x87, 0x34, 0xbe, 0x4f, 0xc2, 0xbf, 0xbe, 0x41, 0x1c, 0x39, 0xbd,
  0x9b, 0xcf, 0x04, 0xbe, 0x85, 0xc9, 0x35, 0x3d, 0x5d, 0xb2, 0xe6, 0xbd,
  0x0e, 0x93, 0xae, 0xbe, 0xf0, 0x4b, 0x1b, 0xbe, 0xa7, 0xa0, 0x88, 0x3a,
  0xb3, 0x9c, 0x30, 0x3d, 0xa6, 0x11, 0xdb, 0x3d, 0xce, 0x2c, 0x0b, 0x3f,
  0xb0, 0x7b, 0x54, 0xbd, 0x31, 0x28, 0x44, 0xbe, 0x55, 0x24, 0xaa, 0x3d,
  0xa9, 0x3b, 0xb3, 0x3d, 0xac, 0xc4, 0x17, 0xbd, 0x8e, 0x05, 0x01, 0xbd,
  0x13, 0x5e, 0xc5, 0xbd, 0x10, 0x1c, 0x5d, 0xbc, 0xbb, 0xfb, 0x76, 0xbe,
  0xe7, 0x93, 0x20, 0xbd, 0x1f, 0xc7, 0xae, 0xbe, 0x47, 0x4a, 0x3f, 0x3d,
  0x9e, 0xb9, 0x24, 0xbe, 0xda, 0xf4, 0x67, 0xbe, 0xde, 0xa6, 0x73, 0xbe,
  0xb3, 0x40, 0x53, 0x3f, 0x0c, 0xfc, 0xa3, 0xbc, 0xc4, 0xae, 0x83, 0xbd,
  0x48, 0x19, 0x5d, 0x3e, 0x24, 0x9d, 0xc7, 0xbc, 0x40, 0xd8, 0x62, 0xbe,
  0x34, 0xab, 0x96, 0xbe, 0x1b, 0x23, 0xbe, 0xbd, 0x41, 0xde, 0xb0, 0x3d,
  0x16, 0x5e, 0xa2, 0xbd, 0x3f, 0x24, 0x1a, 0xbe, 0x13, 0xe1, 0xa4, 0xbc,
  0xd2, 0x9e, 0x77, 0x3d, 0xb6, 0x6f, 0x4f, 0xbe, 0x45, 0x91, 0xb6, 0xbd,
  0x83, 0x9a, 0x90, 0x3b, 0x44, 0xe2, 0x11, 0x3f, 0x7d, 0x24, 0x92, 0xbd,
  0xb8, 0x43, 0xce, 0xbc, 0x43, 0xa2, 0xbd, 0x3e, 0x6e, 0xd6, 0x54, 0xbe,
  0x9c, 0x6d, 0xfb, 0xbd, 0x97, 0x3f, 0xbd, 0x3c, 0xee, 0x1b, 0x94, 0xbd,
  0x65, 0xa9, 0x02, 0x3e, 0xab, 0x5a, 0x85, 0xbd, 0xdf, 0x03, 0x3f, 0x3e,
  0x81, 0x67, 0xeb, 0xbd, 0x24, 0x29, 0x41, 0x3e, 0xdf, 0x1d, 0x93, 0xbe,
  0x6a, 0x12, 0xeb, 0x3d, 0xa9, 0x30, 0xc6, 0xbd, 0x0c, 0x71, 0x17, 0x3e,
  0xf4, 0xa7, 0xc9, 0xbd, 0xbb, 0xc7, 0xb1, 0xbd, 0xea, 0xb0, 0xc7, 0xbb,
  0x90, 0x8c, 0x98, 0xbe, 0xaa, 0x63, 0xaa, 0xbd, 0x89, 0x40, 0xeb, 0x3d,
  0x25, 0xf4, 0xc4, 0x3c, 0x8e, 0xa9, 0x92, 0x3c, 0x9c, 0x80, 0xd6, 0xbd,
  0x94, 0x33, 0x2e, 0x3e, 0xce, 0x78, 0x89, 0xbd, 0x99, 0x5b, 0x55, 0xbd,
  0xbe, 0xe8, 0x26, 0xbe, 0xc7, 0x3f, 0xa7, 0x3d, 0x99, 0x1d, 0x96, 0xbc,
  0x90, 0x91, 0x9c, 0xbe, 0x82, 0x5d, 0xd9, 0xbd, 0x3b, 0x0b, 0x45, 0x3d,
  0x1e, 0xf0, 0x4e, 0x3e, 0x73, 0xa2, 0xf4, 0xbd, 0xa3, 0x9e, 0x42, 0xbd,
  0x4e, 0x3d, 0x2e, 0x3e, 0x5e, 0x33, 0xef, 0xb9, 0x19, 0x26, 0x4f, 0x3d,
  0x90, 0x3d, 0x4f, 0x3e, 0xb8, 0xdd, 0xd0, 0x3d, 0x99, 0x16, 0x4f, 0xbe,
  0x1d, 0x48, 0x55, 0xbd, 0x15, 0x5b, 0x6f, 0xbe, 0x7e, 0x9f, 0x5b, 0x3d,
  0xf4, 0xe3, 0x0d, 0x3e, 0xa6, 0x0a, 0xe2, 0xbe, 0x18, 0xdd, 0x2e, 0xbe,
  0x80, 0x4c, 0x03, 0x3e, 0xc7, 0x14, 0xbd, 0x3d, 0x8f, 0x32, 0x77, 0xbe,
  0xa5, 0x83, 0x2d, 0x3d, 0x39, 0x35, 0xbf, 0x3d, 0x64, 0x82, 0x72, 0x3b,
  0xf1, 0x03, 0x15, 0x3d, 0x8e, 0xfd, 0x93, 0x3d, 0x4b, 0x35, 0xab, 0x3d,
  0x09, 0x37, 0x4d, 0xbd, 0x3e, 0x1c, 0x17, 0xbd, 0x10, 0x97, 0x3b, 0xbd,
  0xf4, 0xef, 0x4c, 0x3d, 0x59, 0xf8, 0x51, 0x3e, 0x62, 0x7d, 0xd8, 0xbe,
  0x9d, 0x33, 0xd6, 0xbd, 0x8b, 0x83, 0x27, 0x3e, 0x1a, 0xd4, 0xa0, 0x3d,
  0xc8, 0x90, 0xde, 0xbd, 0x9b, 0xb5, 0x40, 0x3c, 0x8b, 0xe4, 0xae, 0x3d,
  0x0c, 0xac, 0xd3, 0x3b, 0x3d, 0xb4, 0x63, 0x3b, 0x1f, 0xe9, 0x4a, 0x3e,
  0xab, 0xa3, 0x47, 0x3e, 0x02, 0xd6, 0x0d, 0xbe, 0x23, 0x63, 0xbf, 0xbd,
  0x4b, 0x87, 0x9e, 0xbd, 0x3d, 0xd2, 0xa6, 0xbb, 0x4c, 0x8b, 0x02, 0x3d,
  0xaa, 0x89, 0x09, 0xbf, 0xa6, 0x9c, 0x0c, 0xbe, 0xd4, 0x04, 0x07, 0x3e,
  0x7e, 0xf9, 0x6a, 0x3d, 0xf4, 0x99, 0xfc, 0xbd, 0xf8, 0x5e, 0x4a, 0xbe,
  0x27, 0x42, 0x90, 0x3d, 0xf2, 0xfa, 0x06, 0xba, 0xa9, 0xf3, 0xfa, 0x3c,
  0x42, 0xec, 0xc2, 0xbd, 0x58, 0x55, 0xed, 0x3d, 0x8e, 0x59, 0x1b, 0xbe,
  0x0f, 0x5f, 0x97, 0x3d, 0x6d, 0x09, 0x96, 0xbe, 0x21, 0x25, 0xb9, 0x3c,
  0x6d, 0x34, 0x88, 0xbd, 0x0d, 0x07, 0xde, 0xbe, 0x5d, 0x80, 0x94, 0xbd,
  0x2a, 0xbb, 0x4f, 0x3d, 0xf3, 0x56, 0x15, 0x3e, 0x38, 0xb1, 0x56, 0xbe,
  0x84, 0x99, 0x54, 0xbe, 0xf3, 0xe3, 0x29, 0x3d, 0x33, 0x75, 0x85, 0x3d,
  0xee, 0xf8, 0x62, 0x3d, 0x0d, 0xb2, 0xf1, 0xbb, 0x5b, 0x2a, 0x01, 0x3e,
  0x16, 0xff, 0x82, 0xbd, 0x8d, 0x54, 0x33, 0x3d, 0xc0, 0x48, 0xe9, 0xbd,
  0xbf, 0x7e, 0x8a, 0x3d, 0xc0, 0xbb, 0xb4, 0x3b, 0xee, 0xc9, 0x94, 0xbe,
  0xf4, 0x05, 0xfb, 0xbd, 0x2d, 0x0c, 0x15, 0xbd, 0xce, 0xac, 0xdf, 0x3d,
  0x18, 0x9e, 0x10, 0xbe, 0x5b, 0x56, 0x87, 0xbd, 0x66, 0x6e, 0xe7, 0x3d,
  0x48, 0x86, 0x22, 0x3e, 0xbe, 0x0c, 0x1d, 0xbe, 0x88, 0x76, 0x02, 0xbf,
  0xf1, 0xa5, 0xc4, 0xbd, 0x1c, 0xe0, 0x97, 0x3e, 0x59, 0x46, 0x05, 0xbf,
  0xa1, 0x99, 0x27, 0xbe, 0x2b, 0xd8, 0x4e, 0xbe, 0xb2, 0xdc, 0x8c, 0xbe,
  0x21, 0xdb, 0x8c, 0x3f, 0xae, 0x4f, 0x6d, 0x3d, 0xd8, 0x1e, 0x57, 0xbd,
  0x91, 0x95, 0x10, 0x3e, 0xd3, 0xbd, 0xe4, 0xbc, 0x59, 0x1d, 0x0b, 0x3d,
  0x54, 0xc0, 0xdf, 0xbd, 0x24, 0xdc, 0x28, 0xbe, 0x71, 0x44, 0x6f, 0xbe,
  0xc5, 0x95, 0x39, 0xbe, 0x8a, 0x60, 0xa6, 0x3c, 0x88, 0x06, 0x0f, 0x3e,
  0x27, 0x9d, 0x02, 0xbd, 0x05, 0xc9, 0x31, 0x3e, 0x1f, 0x40, 0xbb, 0xbd,
  0xa1, 0xe4, 0x9b, 0x3d, 0x0a, 0xc2, 0x4d, 0x3f, 0xad, 0x2c, 0xd9, 0x3d,
  0x06, 0x7d, 0x99, 0xbd, 0x35, 0xb4, 0x15, 0xbe, 0xb1, 0x11, 0x3c, 0x3d,
  0x5a, 0xda, 0x1a, 0xbc, 0xfc, 0x64, 0x53, 0xbd, 0xc6, 0x42, 0xb2, 0x3c,
  0xaf, 0xb7, 0x3c, 0xbe, 0x65, 0xa0, 0x96, 0x3d, 0x7c, 0x32, 0x3f, 0xbe,
  0x82, 0xbd, 0x2f, 0x3e, 0x43, 0x8a, 0xe4, 0x3c, 0xa0, 0xb3, 0xaa, 0x3e,
  0xd1, 0xce, 0x9e, 0xbd, 0x08, 0x95, 0x0d, 0x3e, 0x5a, 0xa3, 0xa4, 0x3f,
  0x85, 0x29, 0x1f, 0x3e, 0xe2, 0x20, 0xc7, 0xbb, 0x42, 0xed, 0xd0, 0x3c,
  0xd1, 0xfa, 0x90, 0x3e, 0xbf, 0x13, 0xd2, 0x3c, 0x69, 0x0e, 0x0c, 0x3e,
  0x86, 0x28, 0x05, 0xbc, 0xd7, 0xb9, 0xea, 0xbd, 0xbc, 0x3c, 0x00, 0xbe,
  0x1f, 0x33, 0xa8, 0xbd, 0x41, 0x43, 0x90, 0x3e, 0x9a, 0xcc, 0x06, 0x3d,
  0x9c, 0x37, 0x6a, 0x3e, 0x82, 0x84, 0x95, 0xbc, 0xa8, 0x11, 0x37, 0xbe,
  0xd8, 0xa0, 0x7a, 0x3f, 0x4f, 0x20, 0x2c, 0xbc, 0xf2, 0x80, 0x9d, 0xbc,
  0xe6, 0x98, 0x5f, 0xbd, 0x80, 0x10, 0xa2, 0x3e, 0x28, 0x9e, 0x0e, 0x3e,
  0xec, 0x4d, 0x97, 0x3d, 0xcc, 0x99, 0xa0, 0x3d, 0x57, 0x77, 0x6c, 0xbd,
  0xd8, 0x00, 0xb9, 0xbd, 0x84, 0xa7, 0xf9, 0xbd, 0x5b, 0xb4, 0xbf, 0x3e,
  0xf0, 0x19, 0xb2, 0xbc, 0x72, 0xd1, 0x41, 0x3e, 0x57, 0x19, 0xea, 0x39,
  0xcf, 0xd9, 0x34, 0xbe, 0x12, 0x06, 0x91, 0x3f, 0x93, 0x58, 0x8b, 0x3e,
  0x37, 0x9a, 0xe3, 0xba, 0xe0, 0xca, 0x3f, 0xbe, 0x0e, 0x47, 0xcb, 0x3e,
  0x55, 0x17, 0xb0, 0x3c, 0x88, 0x8b, 0x10, 0xbe, 0xb9, 0x80, 0xf4, 0xbd,
  0xbc, 0x1e, 0xc2, 0x3d, 0xbe, 0x98, 0x56, 0xbc, 0xf1, 0x4a, 0x1c, 0xbe,
  0x71, 0x23, 0x4a, 0xbe, 0x86, 0x6d, 0x5e, 0xbc, 0xcd, 0xb5, 0xa6, 0xbd,
  0xcb, 0xe9, 0x00, 0xbe, 0xb5, 0x9d, 0x04, 0xbe, 0x74, 0x24, 0x40, 0x3f,
  0x7a, 0x65, 0x18, 0x3e, 0x13, 0x92, 0xe8, 0xbd, 0x95, 0xd6, 0xc3, 0x3d,
  0x9f, 0xf6, 0x89, 0x3d, 0x2f, 0x6e, 0x8d, 0xbd, 0x67, 0xaa, 0xd8, 0x3c,
  0xf2, 0x36, 0xd1, 0xbc, 0x3e, 0xe9, 0x72, 0xbc, 0x22, 0x50, 0xb2, 0x3c,
  0xc5, 0xac, 0xdb, 0xbd, 0x07, 0xf4, 0x09, 0x3e, 0x0f, 0xc7, 0xf9, 0xbd,
  0xa1, 0xb9, 0x83, 0xbd, 0x62, 0x7a, 0x89, 0xbe, 0x69, 0x2d, 0xec, 0xbd,
  0x64, 0xac, 0x61, 0x3f, 0x0b, 0xf5, 0x40, 0x3d, 0x54, 0x5d, 0x1f, 0xbe,
  0xdf, 0x8b, 0xfa, 0x3d, 0xd8, 0x76, 0x36, 0x3d, 0xb9, 0xff, 0x29, 0x3c,
  0x82, 0xd5, 0x66, 0xbe, 0x1d, 0x84, 0x8e, 0x3d, 0xba, 0x49, 0xbd, 0xbd,
  0xd3, 0xe4, 0xec, 0x3e, 0xde, 0xa0, 0x63, 0xbe, 0x3e, 0xfe, 0x29, 0xbe,
  0xd1, 0xfd, 0x9b, 0x3e, 0x94, 0xa1, 0xda, 0x3d, 0x73, 0xac, 0xce, 0xbd,
  0xaa, 0xa2, 0x4c, 0x3e, 0x03, 0x94, 0x58, 0x3e, 0x48, 0xa5, 0x01, 0xbf,
  0x11, 0xc0, 0x59, 0x3e, 0xf3, 0x9c, 0xbf, 0xbe, 0x34, 0xce, 0x12, 0x3e,
  0x2a, 0x62, 0xe8, 0x3d, 0xf4, 0xe7, 0xc6, 0xbd, 0x36, 0x6d, 0x5c, 0x3b,
  0xaa, 0xec, 0xb1, 0xbb, 0xc5, 0xde, 0xba, 0x3e, 0x6a, 0x34, 0x76, 0x3c,
  0xb5, 0xd6, 0x85, 0x3c, 0x82, 0x58, 0x07, 0x3e, 0xb0, 0x5f, 0xa6, 0x3e,
  0xf5, 0xb8, 0x1c, 0x3d, 0xe5, 0xa3, 0xa6, 0x3e, 0x22, 0x51, 0x99, 0xbd,
  0x92, 0x6b, 0x0d, 0xbe, 0x7c, 0x58, 0x8d, 0x3d, 0x1a, 0xdd, 0xa6, 0x3d,
  0xb3, 0xb6, 0x43, 0x3e, 0xa7, 0x3c, 0x86, 0x3d, 0x22, 0x7d, 0x02, 0xbe,
  0x92, 0xcb, 0xcc, 0xbc, 0xb8, 0x63, 0xb9, 0xbc, 0xda, 0x85, 0xf7, 0xbe,
  0x98, 0x91, 0x6e, 0xbe, 0x4a, 0xfc, 0x70, 0xbe, 0x03, 0x6a, 0xae, 0xbe,
  0xac, 0x33, 0x0f, 0xbf, 0x0c, 0x2e, 0x28, 0x3d, 0x68, 0x52, 0x88, 0x3e,
  0x75, 0x2c, 0x92, 0x3e, 0xe9, 0xcf, 0x27, 0xbe, 0x70, 0xe6, 0x49, 0xbe,
  0xe3, 0x0e, 0xeb, 0x3d, 0x66, 0x42, 0x92, 0xbc, 0xcb, 0x75, 0x92, 0xbe,
  0x4c, 0x11, 0x9c, 0xbe, 0x83, 0x8e, 0xf2, 0xbc, 0x7a, 0x41, 0x28, 0x3d,
  0x09, 0x9c, 0xcb, 0xbe, 0x22, 0x87, 0x19, 0x3e, 0xa7, 0x5f, 0x6e, 0xbe,
  0x74, 0x1e, 0x4f, 0xbe, 0x13, 0x13, 0x74, 0xbf, 0xbc, 0xe2, 0x25, 0x3d,
  0x7d, 0x76, 0x5d, 0xbe, 0x46, 0xe6, 0xeb, 0xbc, 0xd5, 0x16, 0xf1, 0xbe,
  0x47, 0xed, 0xf1, 0xbe, 0x0b, 0xd9, 0x1e, 0x3d, 0x82, 0xe9, 0x31, 0xbf,
  0x4f, 0x8e, 0x82, 0x3e, 0x5f, 0xc3, 0x41, 0xbe, 0x00, 0x5f, 0x01, 0xbd,
  0xd3, 0x04, 0x30, 0xbb, 0xda, 0x5b, 0xd1, 0xbe, 0x26, 0x37, 0xe3, 0xbd,
  0xf5, 0x9d, 0x78, 0xbd, 0x60, 0x59, 0x5d, 0xbe, 0x08, 0x0e, 0xd0, 0xbe,
  0xe3, 0x55, 0x81, 0xbd, 0x0b, 0x13, 0xf6, 0x3e, 0x5f, 0xd8, 0x01, 0x3e,
  0xd7, 0xf4, 0x5d, 0xbe, 0xe2, 0x94, 0x14, 0xbe, 0x98, 0xcb, 0xb7, 0x3d,
  0xdf, 0xb9, 0x93, 0xbd, 0xd9, 0x0f, 0xfc, 0x3d, 0xac, 0x90, 0x71, 0xbd,
  0x47, 0x21, 0xfe, 0xbc, 0xc1, 0x0a, 0x12, 0x3d, 0xd7, 0xa4, 0xae, 0x3e,
  0xa5, 0xbc, 0x64, 0xbe, 0xd2, 0xe3, 0x18, 0xbe, 0x0e, 0x74, 0x83, 0xbb,
  0xfd, 0x23, 0x37, 0x3d, 0x61, 0xa4, 0xd1, 0xbd, 0x5a, 0xb6, 0xb1, 0x3e,
  0x93, 0x7f, 0xd9, 0xbd, 0x79, 0x09, 0xd7, 0xbd, 0x80, 0x01, 0x42, 0x3e,
  0xcf, 0xd2, 0x16, 0x3e, 0xb6, 0xe7, 0x2c, 0x3d, 0x08, 0xd1, 0x9a, 0x3d,
  0x26, 0x0e, 0xec, 0xbc, 0x96, 0xc0, 0x10, 0xbd, 0x83, 0x35, 0x1a, 0xbc,
  0xeb, 0x87, 0x0a, 0x3e, 0x68, 0xc5, 0x21, 0x3d, 0xa6, 0xd8, 0xab, 0xbd,
  0xdf, 0x9f, 0x18, 0xbd, 0xf6, 0x92, 0x72, 0xbc, 0x38, 0x51, 0x65, 0xbd,
  0x7e, 0x98, 0x07, 0x3e, 0x37, 0xd3, 0x2b, 0x3d, 0xa9, 0x1b, 0xfa, 0xbd,
  0x91, 0x8d, 0x52, 0xbd, 0x3b, 0x5e, 0xb6, 0xbd, 0xd7, 0x6c, 0x34, 0x3e,
  0x07, 0x34, 0x42, 0x3e, 0xeb, 0xc3, 0x91, 0xbe, 0xe3, 0x05, 0x57, 0xbe,
  0x10, 0xa1, 0x4b, 0x3e, 0x0b, 0x49, 0xf9, 0xbd, 0xc3, 0xe0, 0xe3, 0xba,
  0xbd, 0xa1, 0x8d, 0xbc, 0x43, 0x3b, 0x2b, 0xbd, 0x03, 0x34, 0xc7, 0x3d,
  0x91, 0x9c, 0xc3, 0x3e, 0x53, 0x7a, 0x93, 0xbe, 0xed, 0x2f, 0x47, 0xbe,
  0xcc, 0xfb, 0xaf, 0x3d, 0xd8, 0xa0, 0x5e, 0xbe, 0xf9, 0x9b, 0x7f, 0x3a,
  0xe0, 0x98, 0x89, 0x3c, 0x95, 0xba, 0xd8, 0xbc, 0x69, 0xf3, 0xb4, 0xbe,
  0xf2, 0xb8, 0xa0, 0xbd, 0x00, 0xee, 0xe9, 0xbd, 0xbc, 0xf9, 0x9a, 0x3d,
  0xfe, 0x49, 0x4e, 0x3e, 0x01, 0x48, 0x9d, 0x3d, 0x90, 0x4c, 0x67, 0x3d,
  0xd0, 0x1b, 0x03, 0x3a, 0x86, 0xd6, 0x8c, 0x3e, 0x54, 0xa9, 0xfb, 0xbc,
  0x47, 0x15, 0x12, 0xbe, 0xbf, 0xce, 0x13, 0xbe, 0xb1, 0x52, 0x78, 0xbe,
  0x39, 0xc0, 0x8a, 0xbc, 0x0d, 0x77, 0x4a, 0x3d, 0x28, 0x09, 0x75, 0xbd,
  0x17, 0xd3, 0xa7, 0xbe, 0x44, 0xbc, 0x1a, 0xbe, 0x41, 0x25, 0xcf, 0xbd,
  0xf2, 0x2d, 0x6a, 0xbc, 0x61, 0x48, 0x3f, 0x3d, 0x7e, 0x51, 0x8c, 0x3d,
  0xb3, 0xbf, 0xae, 0xbd, 0x94, 0x75, 0xc2, 0x3e, 0x61, 0x86, 0x33, 0x3e,
  0x18, 0x88, 0xf0, 0xbd, 0xb6, 0x36, 0x2c, 0xbe, 0x1f, 0xb0, 0x5a, 0x3e,
  0xe7, 0xd8, 0x0b, 0xbe, 0x7c, 0x1d, 0x0c, 0x3c, 0xc2, 0xea, 0xee, 0x3d,
  0xa7, 0x82, 0x87, 0xbd, 0x67, 0x44, 0xbe, 0xbd, 0x06, 0x5a, 0x5a, 0xbe,
  0xbf, 0xa2, 0xfa, 0xbc, 0x7c, 0x6e, 0xb5, 0x3d, 0xfb, 0x54, 0x59, 0x3b,
  0xda, 0x8d, 0x60, 0xbc, 0x17, 0x9b, 0xcb, 0xbe, 0xa8, 0x48, 0x9d, 0x3d,
  0x34, 0xcb, 0xdc, 0x3d, 0xca, 0x6b, 0xdf, 0xbc, 0xd1, 0x73, 0x08, 0x3e,
  0x6e, 0x6f, 0xf0, 0xbd, 0x0b, 0x32, 0x8e, 0x3d, 0x7b, 0x74, 0x20, 0xbe,
  0x7c, 0x9e, 0x25, 0xbe, 0xc0, 0xea, 0xa9, 0x39, 0x33, 0x21, 0x93, 0xbd,
  0xce, 0x84, 0x18, 0xbd, 0x65, 0xd1, 0x05, 0xbd, 0x87, 0xd8, 0x13, 0xbd,
  0x31, 0xe5, 0x85, 0xbd, 0xa6, 0x38, 0xca, 0xbd, 0x39, 0xd4, 0x55, 0x3d,
  0xab, 0xd0, 0x04, 0x3e, 0x5b, 0x55, 0xbd, 0x3d, 0x46, 0x49, 0xf5, 0x3b,
  0xab, 0x95, 0xb2, 0xbd, 0x16, 0x0b, 0xb8, 0x3c, 0xdb, 0xeb, 0x32, 0xbd,
  0xc2, 0xdd, 0x89, 0x3d, 0xcc, 0xf2, 0x74, 0xbd, 0xfd, 0xa7, 0x54, 0x3d,
  0xe5, 0x5d, 0x23, 0xbe, 0x49, 0x00, 0x20, 0xbd, 0x54, 0x2d, 0x0b, 0x3e,
  0xbe, 0x69, 0x47, 0xbc, 0x32, 0x50, 0x60, 0xbe, 0x48, 0x5b, 0xb4, 0xbd,
  0xea, 0xb2, 0x84, 0xbd, 0x8d, 0xda, 0x1d, 0xbc, 0x29, 0x9a, 0xd6, 0x3c,
  0x05, 0xc0, 0x31, 0x3d, 0xc6, 0xfb, 0x1b, 0xbd, 0xc7, 0x55, 0x05, 0x3d,
  0x0e, 0xd4, 0x40, 0xbc, 0xdc, 0xab, 0x28, 0x3e, 0x02, 0x48, 0x98, 0xbe,
  0x30, 0xf7, 0x4a, 0xbe, 0x8d, 0x9b, 0x6f, 0xbd, 0xda, 0x52, 0xff, 0xbd,
  0x71, 0x70, 0x15, 0x3d, 0x4d, 0x60, 0x9d, 0x3b, 0x90, 0x95, 0x7d, 0xbe,
  0x23, 0xe9, 0xa2, 0xbd, 0x4e, 0x26, 0xa1, 0xbe, 0x91, 0xdd, 0x56, 0xbd,
  0x93, 0x42, 0x0d, 0x3e, 0xff, 0xda, 0x7d, 0xbe, 0x38, 0x29, 0x9b, 0x3d,
  0x14, 0xbf, 0x33, 0xbd, 0x1b, 0x6f, 0x47, 0xbd, 0xae, 0x15, 0x83, 0x3c,
  0x74, 0x14, 0xb8, 0x3c, 0x38, 0x3d, 0x57, 0xbd, 0x32, 0x68, 0xc4, 0xbd,
  0x22, 0xda, 0x15, 0xbf, 0xe2, 0x9e, 0x4d, 0x3d, 0xb4, 0x65, 0x8e, 0x3e,
  0xce, 0x30, 0x83, 0xbe, 0x1b, 0x7e, 0x0f, 0xbe, 0x5f, 0xa5, 0x5b, 0x3b,
  0x25, 0x28, 0x86, 0xbd, 0x2a, 0xcc, 0x5a, 0x3e, 0x5c, 0x8b, 0x15, 0xbe,
  0xe8, 0x30, 0xff, 0x3c, 0x46, 0x41, 0xb7, 0x3e, 0xc6, 0x72, 0xee, 0xbd,
  0x40, 0x87, 0xfb, 0xbe, 0xc3, 0x55, 0x3a, 0xbe, 0x6b, 0x34, 0xca, 0x3d,
  0x4a, 0x40, 0x20, 0xbd, 0xf7, 0xdb, 0xf3, 0xbe, 0xb2, 0x3e, 0xec, 0xbe,
  0xc4, 0x78, 0x33, 0x3e, 0xa0, 0x3f, 0x82, 0xbe, 0x65, 0x32, 0x85, 0xbd,
  0x2d, 0x78, 0xcc, 0x3d, 0x82, 0x98, 0x0c, 0x3e, 0x60, 0x04, 0x47, 0x3d,
  0x68, 0x72, 0xa6, 0x3d, 0x75, 0xf6, 0x0f, 0xbb, 0xac, 0x05, 0x1d, 0x3d,
  0x6f, 0x34, 0x6a, 0xbe, 0x32, 0x83, 0xd1, 0xbe, 0xd4, 0x9f, 0xb3, 0xbc,
  0xfb, 0xa1, 0xa5, 0xbe, 0x63, 0xbb, 0xa7, 0x3d, 0x56, 0x42, 0x0b, 0xbf,
  0x57, 0x69, 0xcc, 0xbe, 0xa5, 0xd1, 0x48, 0x3e, 0x47, 0x4c, 0x59, 0xbe,
  0x51, 0x29, 0x21, 0xbe, 0x08, 0xec, 0x93, 0xbd, 0x8d, 0xa4, 0x58, 0xbd,
  0xe1, 0x20, 0xc2, 0xbd, 0xe8, 0xb3, 0x95, 0xbd, 0x0b, 0xea, 0xc4, 0x3d,
  0x92, 0xcb, 0x10, 0xbe, 0xc9, 0x10, 0x09, 0x3d, 0x04, 0x51, 0xc2, 0xbe,
  0x58, 0xb8, 0x28, 0x3e, 0xa0, 0xc2, 0x93, 0xbe, 0x85, 0xb2, 0xb7, 0xbb,
  0x83, 0x4f, 0xce, 0xbe, 0x17, 0x0b, 0xf7, 0xbe, 0x00, 0xaa, 0x7e, 0x3d,
  0x7d, 0xf4, 0x31, 0xbe, 0xdb, 0x7a, 0x27, 0xbd, 0x76, 0x03, 0xce, 0xbc,
  0x08, 0x88, 0x1d, 0x3e, 0xb2, 0x68, 0x7c, 0xbd, 0x64, 0x3f, 0xbd, 0xbe,
  0x5e, 0x56, 0x8d, 0xbd, 0x53, 0xf8, 0x00, 0xbe, 0xb9, 0xeb, 0x9b, 0xbc,
  0x33, 0x33, 0x01, 0xbf, 0xe1, 0xbb, 0x13, 0x3e, 0x6d, 0x07, 0xcc, 0xbd,
  0x3a, 0x2a, 0xee, 0x3b, 0x41, 0xe4, 0xd7, 0xbe, 0x0d, 0xa7, 0x14, 0xbf,
  0xac, 0x2a, 0x06, 0x3e, 0x7f, 0x63, 0xe8, 0x3d, 0x8b, 0xc4, 0x8a, 0xbd,
  0xf0, 0x3c, 0x40, 0x3d, 0x3d, 0x02, 0xb7, 0xbd, 0xed, 0x98, 0x28, 0x3d,
  0x30, 0xb8, 0xbf, 0xbd, 0x2f, 0x83, 0x4e, 0xbe, 0x90, 0x63, 0xa4, 0xbd,
  0x18, 0xff, 0x32, 0xbe, 0x5b, 0x20, 0x1d, 0xbf, 0x6b, 0x1c, 0x17, 0x3e,
  0xb9, 0x54, 0x25, 0x3e, 0xf3, 0xf0, 0x95, 0x3c, 0x29, 0x29, 0xae, 0xbe,
  0x37, 0x30, 0x9d, 0xbe, 0xc2, 0x2c, 0x1a, 0x3e, 0x3e, 0x0a, 0xc6, 0x3d,
  0xa9, 0xa0, 0x02, 0xbe, 0xd1, 0x36, 0xaa, 0x3d, 0x33, 0xfc, 0x9b, 0xbe,
  0x39, 0xbd, 0xa6, 0xbe, 0x70, 0xa7, 0x3e, 0xbd, 0x1f, 0x45, 0xc7, 0x3d,
  0xdb, 0x16, 0xce, 0x3d, 0x3f, 0xb8, 0x7d, 0xbe, 0x1d, 0xbd, 0x2e, 0xbf,
  0x97, 0x83, 0x01, 0xbe, 0xfb, 0x62, 0x4d, 0x3d, 0xf7, 0x94, 0xee, 0x3d,
  0x1f, 0xef, 0x2d, 0x3e, 0x79, 0xac, 0x36, 0x3e, 0x6e, 0xc1, 0x13, 0xbe,
  0xf9, 0x9e, 0x73, 0x3e, 0x6a, 0x0b, 0x2a, 0xbd, 0x12, 0x1b, 0x77, 0x3c,
  0xd2, 0x4b, 0x0d, 0xbc, 0xb4, 0xdf, 0xd6, 0xbe, 0x7c, 0xca, 0xd5, 0x3c,
  0x92, 0x62, 0x5b, 0x3c, 0x13, 0xf5, 0x90, 0x3e, 0xff, 0x74, 0x5f, 0x3d,
  0xb3, 0x71, 0x31, 0xbf, 0xaf, 0x70, 0xbf, 0xbe, 0xf5, 0x49, 0xe8, 0x3d,
  0x92, 0x18, 0x8e, 0xbe, 0xb0, 0xc8, 0x19, 0xbe, 0xcd, 0xd2, 0xf4, 0xbd,
  0x33, 0x4f, 0xca, 0xbb, 0x85, 0x6f, 0xa6, 0x3d, 0x23, 0x94, 0x4d, 0xbe,
  0x7e, 0xb7, 0x3f, 0xbe, 0xda, 0x72, 0x77, 0xbd, 0xa8, 0x7d, 0x72, 0xbe,
  0xf9, 0x2d, 0xc9, 0xbc, 0x0f, 0xde, 0x5b, 0x3f, 0x86, 0x60, 0x12, 0xbe,
  0x13, 0x97, 0x24, 0xbe, 0x21, 0x26, 0xe8, 0x3d, 0xe1, 0xb1, 0xda, 0x3d,
  0x4b, 0xdf, 0xb1, 0x3d, 0x77, 0xd9, 0x75, 0xbe, 0x2b, 0x3b, 0x68, 0xbe,
  0x72, 0x7e, 0x38, 0xbe, 0xa5, 0xd7, 0xe1, 0xbd, 0xd2, 0x0e, 0x04, 0xbe,
  0x80, 0x23, 0x4f, 0xbe, 0x90, 0xc6, 0x13, 0x3e, 0x99, 0x8e, 0x22, 0x3e,
  0x9d, 0x46, 0xbc, 0xbd, 0xc5, 0x55, 0x2c, 0xbe, 0xb6, 0x05, 0x6e, 0x3f,
  0x91, 0xaa, 0x56, 0xbd, 0xc1, 0xde, 0xd6, 0xbd, 0xb5, 0x27, 0xf6, 0xbc,
  0x5d, 0x59, 0xa7, 0x3d, 0xd3, 0xa9, 0x16, 0xbe, 0x9b, 0x9a, 0x4e, 0xbe,
  0x8b, 0xc8, 0x4e, 0xbd, 0xa4, 0xa7, 0xe2, 0x3c, 0x81, 0xea, 0x87, 0xbd,
  0x70, 0x4d, 0x18, 0xbe, 0xd1, 0xbd, 0x9b, 0x3d, 0x59, 0x83, 0x13, 0xbe,
  0xcc, 0x6a, 0x10, 0xbd, 0xc9, 0xe7, 0x6d, 0xbd, 0x66, 0xa7, 0xce, 0x3d,
  0x0f, 0x6d, 0xdd, 0x3f, 0xe2, 0x69, 0x0e, 0x3e, 0xb2, 0x0d, 0x47, 0xbe,
  0xf1, 0xbf, 0x84, 0x3e, 0x2f, 0x4b, 0x0c, 0x3e, 0x85, 0x31, 0x48, 0xbe,
  0x7c, 0x0c, 0x8b, 0xbe, 0xd6, 0x43, 0x82, 0xbe, 0xc2, 0x6e, 0xf6, 0xbd,
  0xb5, 0xa8, 0xea, 0x3d, 0x3e, 0x48, 0x3c, 0x3e, 0x6c, 0x99, 0x71, 0xbd,
  0x04, 0xe7, 0x1e, 0xbe, 0xa5, 0x71, 0x11, 0xbe, 0x56, 0x32, 0xa6, 0x3b,
  0xc8, 0x39, 0xcc, 0x3d, 0x7b, 0xfb, 0x6d, 0x3f, 0x25, 0x1d, 0x57, 0xbe,
  0x2c, 0xb8, 0xd9, 0x3c, 0xb0, 0x84, 0x46, 0x3e, 0x38, 0x40, 0x31, 0x3d,
  0xa5, 0x1d, 0x3a, 0x3d, 0x2d, 0x10, 0x37, 0xbe, 0xf0, 0xd9, 0x6c, 0xbd,
  0x6a, 0xcc, 0x20, 0xbe, 0x40, 0x1d, 0xf5, 0x3d, 0x01, 0x8c, 0x37, 0x3e,
  0x3c, 0x76, 0x2e, 0xbe, 0xcd, 0xac, 0x19, 0xbe, 0xbb, 0xe4, 0x86, 0xbd,
  0x51, 0x85, 0xc2, 0xbd, 0xf8, 0x6e, 0xba, 0x3d, 0x92, 0x69, 0x81, 0x3f,
  0xa0, 0xe5, 0x80, 0x3c, 0xdf, 0x63, 0x30, 0x3d, 0x29, 0x5c, 0xa3, 0x3e,
  0x85, 0x38, 0x1c, 0x3e, 0xcc, 0x86, 0x3c, 0xbe, 0xee, 0xba, 0x8d, 0xbe,
  0x20, 0xc9, 0x85, 0xbd, 0x4d, 0xe5, 0xb5, 0xbc, 0x5a, 0x8b, 0xd6, 0xbd,
  0xc2, 0x73, 0x68, 0x3d, 0xff, 0x96, 0x9f, 0xbd, 0xa6, 0x7f, 0xff, 0x3d,
  0xa1, 0x93, 0xc9, 0xbd, 0xea, 0x82, 0x29, 0xbe, 0x68, 0xeb, 0x99, 0xbd,
  0xef, 0x1c, 0xc8, 0x3e, 0x3c, 0x78, 0x61, 0xbe, 0x96, 0x83, 0x9a, 0xbb,
  0x61, 0x32, 0x71, 0x3d, 0x69, 0xd3, 0x94, 0xbd, 0x32, 0xd4, 0x55, 0xbe,
  0x44, 0x90, 0x3b, 0xbe, 0xb3, 0xbf, 0x65, 0xbd, 0x1e, 0x78, 0x80, 0x3d,
  0x54, 0x5d, 0x0e, 0xbd, 0xa4, 0xf1, 0x90, 0xbd, 0xd1, 0xff, 0xe4, 0xbd,
  0x4b, 0xf5, 0x59, 0xbe, 0x53, 0xa0, 0x8b, 0xbd, 0xd0, 0x67, 0x50, 0xbe,
  0x1e, 0x2e, 0xf2, 0xbc, 0x60, 0xc7, 0xc9, 0x3e, 0xa0, 0xd8, 0xbf, 0x3d,
  0xd6, 0x47, 0x5d, 0xbe, 0x6f, 0x46, 0x20, 0xbe, 0x8f, 0x77, 0x70, 0xbe,
  0xa4, 0x63, 0x14, 0xbd, 0x7c, 0xe5, 0xa4, 0xbe, 0xf3, 0xe9, 0xc0, 0xbe,
  0x59, 0xc6, 0x9b, 0x3d, 0x90, 0x58, 0x68, 0xbe, 0x17, 0x83, 0x92, 0x3d,
  0x4b, 0x23, 0xd9, 0xbb, 0x47, 0x41, 0x99, 0x3d, 0xc0, 0xf5, 0x53, 0x3c,
  0x7d, 0x34, 0xb7, 0x3d, 0x5e, 0xfa, 0x32, 0xbd, 0x61, 0x55, 0x72, 0x3e,
  0x6d, 0x39, 0x86, 0x3d, 0x67, 0x71, 0x94, 0xbe, 0x19, 0x8e, 0xad, 0x3d,
  0x54, 0x4e, 0x65, 0xbe, 0x0e, 0x1c, 0x70, 0xbe, 0xd1, 0x33, 0x3d, 0xbd,
  0x55, 0xd2, 0xb0, 0xbe, 0x35, 0xce, 0x5b, 0x3d, 0x40, 0xa0, 0x9b, 0x3e,
  0x58, 0x75, 0x32, 0x3d, 0x90, 0x05, 0x8d, 0xbe, 0x34, 0xf8, 0x55, 0xbe,
  0x93, 0x5c, 0x27, 0x3d, 0x2a, 0xa2, 0x06, 0xbe, 0x8f, 0x46, 0x46, 0xbe,
  0xdf, 0xd7, 0x83, 0x3f, 0x3a, 0x9b, 0x84, 0x3b, 0x6a, 0x39, 0xe8, 0x3d,
  0x3b, 0xdc, 0x6d, 0x3e, 0xc2, 0x54, 0xfd, 0x3d, 0x18, 0xd0, 0x25, 0x3d,
  0x5c, 0x93, 0x6e, 0xbe, 0x15, 0x70, 0xb6, 0xbe, 0xba, 0x42, 0x4a, 0xbe,
  0x61, 0x32, 0xb0, 0x3d, 0x1f, 0xd2, 0xba, 0x3d, 0x53, 0xb3, 0xf3, 0xbd,
  0x5c, 0x45, 0x61, 0x3e, 0x31, 0x55, 0x9a, 0xbe, 0x9b, 0x11, 0xb1, 0x3d,
  0x17, 0xb4, 0xc2, 0xbd, 0x1c, 0x33, 0x30, 0x3f, 0xe7, 0xf8, 0x01, 0xbe,
  0x46, 0x76, 0xe2, 0xbd, 0xca, 0x38, 0x97, 0x3e, 0x79, 0x2b, 0x5c, 0xbe,
  0x43, 0xc3, 0x83, 0x3d, 0x3a, 0xa7, 0x6b, 0xbd, 0x79, 0x4d, 0x0a, 0x3b,
  0x52, 0x70, 0xdf, 0xbd, 0xe6, 0x33, 0x9f, 0x3e, 0x79, 0xf5, 0xe7, 0xbd,
  0xf3, 0xb7, 0x9d, 0xbd, 0x24, 0xe3, 0x01, 0xbe, 0x6e, 0xa9, 0xb9, 0xbd,
  0x9b, 0x55, 0x6d, 0xbe, 0xe5, 0x68, 0x38, 0x3e, 0x85, 0x85, 0x90, 0x3f,
  0x2a, 0x1f, 0x95, 0xbd, 0x20, 0x8b, 0xf6, 0xbc, 0x07, 0x81, 0x99, 0x3e,
  0xfe, 0x69, 0x6e, 0x3d, 0x51, 0xe0, 0x8d, 0xbd, 0xb5, 0x8c, 0x7e, 0xbe,
  0xe1, 0x40, 0x75, 0xbe, 0x9b, 0x94, 0x42, 0x39, 0xf9, 0x9c, 0x74, 0x3e,
  0x3e, 0xa3, 0x07, 0x3e, 0x3a, 0xbe, 0xaf, 0x3d, 0xbe, 0xb5, 0x69, 0xbd,
  0xd1, 0xa4, 0x05, 0x3c, 0xd0, 0xf6, 0x99, 0xbd, 0x99, 0x93, 0x06, 0x3e,
  0x29, 0xb6, 0x37, 0x3f, 0x66, 0x9d, 0x7e, 0xbd, 0xd2, 0x07, 0x2c, 0xbe,
  0xc9, 0x7b, 0x09, 0x3d, 0x80, 0x73, 0xd3, 0x3d, 0x3e, 0xc4, 0x89, 0x3d,
  0xb4, 0x44, 0xc9, 0xbe, 0x77, 0xf0, 0xae, 0xbd, 0x13, 0x7c, 0x02, 0x3e,
  0x2a, 0x8c, 0xd9, 0xbd, 0x8f, 0xf0, 0x96, 0x3e, 0xa3, 0xf3, 0x09, 0xbe,
  0x5e, 0x9a, 0x56, 0x3e, 0x1d, 0x09, 0xfa, 0xbd, 0x4d, 0xae, 0xe9, 0xbd,
  0xb4, 0x12, 0xd5, 0x3c, 0xfb, 0xb6, 0x31, 0x3f, 0x24, 0x7e, 0x0c, 0xbe,
  0x7c, 0x99, 0x0a, 0x3d, 0xd1, 0x71, 0x89, 0x3e, 0xc6, 0x4b, 0x28, 0xbe,
  0x08, 0xe1, 0x6f, 0xbe, 0x7d, 0x48, 0x27, 0xbe, 0x70, 0x85, 0x88, 0xbe,
  0x8d, 0x7f, 0xa2, 0xbd, 0xca, 0x8f, 0x2c, 0xbe, 0x67, 0xea, 0x25, 0xbd,
  0x2a, 0xa0, 0x12, 0xbe, 0x62, 0xe4, 0x9c, 0x3d, 0xf8, 0x05, 0x56, 0xbd,
  0x91, 0xe0, 0x1d, 0xbe, 0xbe, 0xfb, 0x09, 0xbd, 0x8a, 0x70, 0x4f, 0x3f,
  0xa7, 0x03, 0x92, 0xbd, 0x8e, 0xaf, 0x09, 0xbe, 0x2d, 0xb8, 0x7f, 0x3d,
  0x6c, 0x17, 0x82, 0xbe, 0x66, 0x6e, 0xad, 0xbd, 0x12, 0x6d, 0x3b, 0x3e,
  0x13, 0x1d, 0x0e, 0xbd, 0xf1, 0x89, 0x02, 0xbf, 0x15, 0x43, 0x9e, 0xbe,
  0xc6, 0x24, 0x78, 0x3e, 0xef, 0xd4, 0x0e, 0x3e, 0xc0, 0x3b, 0xd1, 0xbd,
  0x45, 0x70, 0xff, 0xbd, 0x0b, 0xd4, 0xb2, 0xbe, 0xc0, 0x9a, 0x98, 0xbe,
  0x08, 0xb8, 0x71, 0x3f, 0x1e, 0xb6, 0x0d, 0x3f, 0x0c, 0xd6, 0x1c, 0xbe,
  0xde, 0xb3, 0x42, 0x3e, 0xd8, 0x15, 0x3c, 0xbc, 0x18, 0x0a, 0xbc, 0x3d,
  0xb3, 0xcd, 0xf9, 0xbc, 0x4a, 0x8a, 0x56, 0x3c, 0x10, 0x42, 0xa2, 0xbe,
  0xf2, 0x50, 0xb2, 0xbe, 0xaa, 0x99, 0xb9, 0x3d, 0x6e, 0xad, 0x35, 0xbe,
  0x25, 0xdc, 0x20, 0x3e, 0x51, 0x9f, 0x6f, 0x3d, 0x49, 0x0e, 0xc3, 0xbd,
  0x54, 0xc6, 0xfb, 0xbd, 0xaf, 0x39, 0x36, 0x3f, 0x9f, 0xa7, 0x2e, 0x3e,
  0x0d, 0x9f, 0x5a, 0xbd, 0x3c, 0x6f, 0xc7, 0x3d, 0x98, 0x70, 0x31, 0x3a,
  0x56, 0x87, 0x4a, 0x3c, 0x3b, 0xac, 0xa6, 0xbd, 0x8e, 0x09, 0x2f, 0xbb,
  0xc7, 0xff, 0x2c, 0xbe, 0x41, 0xb4, 0x46, 0x3e, 0x1d, 0x49, 0xb7, 0xbe,
  0x16, 0x77, 0x1f, 0x3e, 0x95, 0x02, 0xc0, 0x3d, 0x82, 0x07, 0xa5, 0x3e,
  0x53, 0x1c, 0x76, 0xbe, 0x9c, 0x92, 0x3e, 0xbe, 0x4b, 0x18, 0x01, 0x3f,
  0xaa, 0x47, 0xde, 0x3e, 0x22, 0x93, 0xf8, 0xbd, 0x94, 0x8a, 0x9e, 0x3b,
  0xc4, 0xe0, 0xa5, 0x3e, 0xd3, 0xbf, 0xdd, 0x3d, 0xa5, 0xfb, 0x79, 0xbd,
  0x26, 0x84, 0x4b, 0x3d, 0x32, 0xf4, 0xbc, 0xbb, 0x89, 0x67, 0x54, 0x3e,
  0x55, 0x0c, 0x01, 0xbf, 0x99, 0x59, 0x2c, 0x3e, 0x50, 0xe9, 0x0f, 0x3d,
  0x2d, 0x0b, 0xee, 0x3e, 0xf7, 0x40, 0x20, 0xbe, 0x32, 0x53, 0x72, 0xbe,
  0xbc, 0xf4, 0x90, 0x3f, 0x94, 0x73, 0x7e, 0x3e, 0xc4, 0x78, 0x4c, 0xbe,
  0xab, 0xaf, 0xd2, 0xbb, 0x6a, 0xef, 0x9f, 0x3e, 0x00, 0xdc, 0x5a, 0xbc,
  0x5d, 0x13, 0xe0, 0x3c, 0x20, 0x8f, 0x0f, 0x3d, 0xdb, 0x16, 0x42, 0x3d,
  0x34, 0xa3, 0xda, 0xbc, 0xec, 0x99, 0xbf, 0xbe, 0x2b, 0xdf, 0x4f, 0x3e,
  0x24, 0x2a, 0xd0, 0x3e, 0x4c, 0x63, 0x97, 0x3e, 0x0d, 0x34, 0xdf, 0x3d,
  0x90, 0xef, 0xfe, 0xbe, 0x12, 0x77, 0x55, 0x3f, 0x1b, 0x5f, 0xb5, 0x3e,
  0x5a, 0x56, 0x9b, 0xbe, 0x2e, 0x09, 0x03, 0xbe, 0x9c, 0x18, 0xd8, 0x3e,
  0xfb, 0xa6, 0x56, 0xbe, 0xd6, 0x90, 0xcd, 0x3d, 0xac, 0x30, 0xab, 0x3a,
  0x11, 0xc6, 0xc4, 0x3b, 0xff, 0x2b, 0x08, 0xbe, 0x0c, 0x47, 0x86, 0xbd,
  0xb2, 0x89, 0x86, 0x3e, 0x0e, 0x48, 0x32, 0x3e, 0xb1, 0x28, 0xb4, 0xbd,
  0x5e, 0x92, 0x20, 0x3e, 0x44, 0x77, 0x06, 0xbf, 0xfd, 0x21, 0x95, 0x3f,
  0x7b, 0x09, 0x7a, 0x3e, 0xae, 0xcb, 0xb9, 0xbe, 0x4c, 0x96, 0x05, 0xbf,
  0x80, 0xfb, 0xba, 0x3d, 0xe0, 0xb6, 0xa4, 0xbc, 0xf2, 0xb9, 0xca, 0x3c,
  0x7c, 0x72, 0x1c, 0x3b, 0xe5, 0x2f, 0xac, 0x3c, 0x4e, 0xc5, 0x5d, 0xbe,
  0xbd, 0x2f, 0x9d, 0xbd, 0x39, 0xdb, 0xc2, 0x3d, 0xc1, 0xa3, 0x3d, 0xbe,
  0xc7, 0xf7, 0x85, 0xbd, 0x79, 0xfd, 0xc6, 0x3c, 0xed, 0xe1, 0x81, 0xbd,
  0xd4, 0x02, 0x9d, 0x3f, 0x39, 0x3e, 0xaf, 0x3e, 0x8e, 0x66, 0x94, 0xbd,
  0xdc, 0x1f, 0xb9, 0xbd, 0xd4, 0x3b, 0x5c, 0xbd, 0x7e, 0x7e, 0x33, 0xbd,
  0xbc, 0xe1, 0x16, 0xbf, 0x81, 0xd4, 0x34, 0xbd, 0xfc, 0x44, 0x94, 0x3d,
  0xb9, 0x93, 0xf3, 0xbe, 0x2f, 0x07, 0x32, 0xbe, 0x37, 0x75, 0xe7, 0xbe,
  0x32, 0xb3, 0x21, 0xbf, 0x3d, 0x4f, 0xd8, 0xbe, 0xb5, 0x1c, 0x00, 0xbd,
  0x1f, 0xac, 0x05, 0xbe, 0x06, 0x3f, 0xd3, 0xbd, 0xbe, 0x8b, 0xfe, 0xbd,
  0x5d, 0xe5, 0x6d, 0xbe, 0xb2, 0x75, 0xd2, 0x3c, 0x05, 0x94, 0x1a, 0xbf,
  0x03, 0xa6, 0xa7, 0xbd, 0x21, 0xa5, 0x1c, 0xbf, 0x65, 0xdf, 0xe8, 0x3c,
  0x74, 0x6a, 0x0e, 0x3d, 0x98, 0xd9, 0x14, 0xbf, 0x9f, 0x69, 0xbc, 0xbe,
  0xb2, 0x99, 0xf0, 0xbd, 0x23, 0x4b, 0x52, 0xbf, 0xdd, 0xff, 0x96, 0xbe,
  0xb8, 0x67, 0xfa, 0xbd, 0x3c, 0x84, 0x06, 0x3e, 0x0c, 0x79, 0x3a, 0xbe,
  0x62, 0x1c, 0xfe, 0xbe, 0x3d, 0x3a, 0xa1, 0xbd, 0x95, 0x56, 0x0f, 0xbd,
  0xee, 0x5a, 0xa9, 0xbe, 0x43, 0x46, 0x4f, 0xbd, 0x86, 0x5a, 0x13, 0xbf,
  0x9c, 0x7b, 0xdd, 0xbc, 0x5d, 0xb8, 0x12, 0x3c, 0xab, 0xab, 0xd0, 0xbe,
  0x5e, 0x7a, 0x12, 0xbf, 0x8e, 0x22, 0x7a, 0xbd, 0x1e, 0x20, 0xf6, 0xbe,
  0x6b, 0x7f, 0x92, 0xbd, 0x25, 0x04, 0x44, 0xbe, 0xda, 0x48, 0xd9, 0x3d,
  0x23, 0x1c, 0x8c, 0xbd, 0xba, 0x37, 0x20, 0xbf, 0x16, 0x95, 0xea, 0x3d,
  0xe4, 0x07, 0x87, 0x3d, 0x75, 0xf4, 0x8f, 0xbe, 0x24, 0x82, 0xc6, 0xbd,
  0xf6, 0x16, 0x4f, 0xbf, 0xb0, 0xd4, 0xf3, 0x3a, 0x10, 0x86, 0xa5, 0xbc,
  0x5b, 0xd1, 0x37, 0xbf, 0x46, 0xfc, 0xd0, 0xbe, 0xca, 0x7e, 0xcd, 0xbe,
  0xb7, 0xe5, 0x0b, 0xbf, 0x04, 0x6c, 0xa0, 0xbe, 0x25, 0xa6, 0x75, 0x3d,
  0xc6, 0x52, 0x42, 0xbe, 0xaf, 0xe9, 0xfd, 0xbb, 0xd1, 0xec, 0x2d, 0xbd,
  0xef, 0xef, 0xc5, 0xbd, 0x3b, 0xd0, 0x8f, 0xbd, 0x69, 0x64, 0x2c, 0x3e,
  0x6b, 0x61, 0xf0, 0x3d, 0x5e, 0x14, 0xea, 0xbe, 0xe9, 0xc2, 0x37, 0xbc,
  0xfc, 0x0c, 0x51, 0x3b, 0x39, 0x8d, 0x54, 0xbe, 0x85, 0xba, 0xe4, 0xbe,
  0x73, 0xb5, 0xd8, 0xbe, 0xb0, 0x4f, 0xca, 0xbd, 0x04, 0xb0, 0x77, 0x3e,
  0x58, 0x88, 0x40, 0xbe, 0x7a, 0x2b, 0xd6, 0x3e, 0x72, 0x2a, 0x88, 0x3d,
  0xa0, 0x1a, 0x11, 0x3d, 0x50, 0x0d, 0x2f, 0x3e, 0xe6, 0x21, 0x51, 0x3e,
  0x7e, 0x44, 0x17, 0x3e, 0xdb, 0x32, 0xfc, 0xbc, 0x30, 0x41, 0xf3, 0xbd,
  0x45, 0x86, 0xc1, 0x3c, 0xc0, 0x9b, 0x08, 0xbb, 0x46, 0x32, 0xd3, 0x3e,
  0xb4, 0xef, 0x85, 0xbd, 0x95, 0x27, 0x32, 0xbe, 0xe4, 0x28, 0xbc, 0x3c,
  0x9c, 0x2e, 0x16, 0x3d, 0x22, 0x33, 0xe1, 0xbd, 0x5d, 0xc1, 0x84, 0x3e,
  0xe0, 0x3f, 0xb6, 0xbb, 0x63, 0x58, 0xb7, 0xbd, 0x34, 0x19, 0x8a, 0x3e,
  0xde, 0x3d, 0x87, 0x3e, 0xa3, 0xb3, 0xc7, 0x3d, 0x95, 0xc8, 0xab, 0xbb,
  0xd1, 0xcc, 0x8b, 0x3d, 0x2b, 0x80, 0xf4, 0xbc, 0x3a, 0xa4, 0xd2, 0xbe,
  0xdb, 0xa6, 0x3f, 0x3e, 0x24, 0xa4, 0x8d, 0xbe, 0x01, 0xce, 0x01, 0x3d,
  0x50, 0xcd, 0x66, 0x3e, 0xfc, 0x34, 0x12, 0xbd, 0x64, 0x5d, 0x04, 0xbf,
  0x52, 0x30, 0x1c, 0x3e, 0xbd, 0xf2, 0x24, 0xbe, 0x1c, 0xbd, 0x2e, 0xbd,
  0x6a, 0x3a, 0x51, 0x3d, 0xf6, 0x37, 0xc3, 0x3c, 0xab, 0x30, 0x03, 0x3e,
  0x7d, 0xce, 0xfb, 0x3d, 0x62, 0xfd, 0xff, 0xff, 0x10, 0x00, 0x00, 0x00,
  0x07, 0x00, 0x00, 0x00, 0x14, 0x00, 0x00, 0x00, 0x2c, 0x00, 0x00, 0x00,
  0x02, 0x00, 0x00, 0x00, 0x10, 0x00, 0x00, 0x00, 0x70, 0x00, 0x00, 0x00,
  0x17, 0x00, 0x00, 0x00, 0x73, 0x65, 0x71, 0x75, 0x65, 0x6e, 0x74, 0x69,
  0x61, 0x6c, 0x2f, 0x64, 0x65, 0x6e, 0x73, 0x65, 0x2f, 0x4d, 0x61, 0x74,
  0x4d, 0x75, 0x6c, 0x00, 0xcc, 0xfc, 0xff, 0xff, 0xd6, 0xfd, 0xff, 0xff,
  0x04, 0x00, 0x00, 0x00, 0x08, 0x00, 0x00, 0x00, 0xff, 0xff, 0xff, 0xff,
  0x70, 0x00, 0x00, 0x00, 0x00, 0x00, 0x0e, 0x00, 0x18, 0x00, 0x08, 0x00,
  0x07, 0x00, 0x0c, 0x00, 0x10, 0x00, 0x14, 0x00, 0x0e, 0x00, 0x00, 0x00,
  0x00, 0x00, 0x00, 0x02, 0x10, 0x00, 0x00, 0x00, 0x06, 0x00, 0x00, 0x00,
  0x10, 0x00, 0x00, 0x00, 0x2c, 0x00, 0x00, 0x00, 0x01, 0x00, 0x00, 0x00,
  0x02, 0x00, 0x00, 0x00, 0x18, 0x00, 0x00, 0x00, 0x73, 0x65, 0x71, 0x75,
  0x65, 0x6e, 0x74, 0x69, 0x61, 0x6c, 0x2f, 0x66, 0x6c, 0x61, 0x74, 0x74,
  0x65, 0x6e, 0x2f, 0x43, 0x6f, 0x6e, 0x73, 0x74, 0x00, 0x00, 0x00, 0x00,
  0x34, 0xfd, 0xff, 0xff, 0x3e, 0xfe, 0xff, 0xff, 0x04, 0x00, 0x00, 0x00,
  0x10, 0x00, 0x00, 0x00, 0xa3, 0x11, 0x33, 0xbb, 0xf6, 0xac, 0x58, 0x3f,
  0xe4, 0x50, 0xe3, 0xbf, 0xbf, 0x6a, 0x21, 0x3e, 0x26, 0xfe, 0xff, 0xff,
  0x10, 0x00, 0x00, 0x00, 0x05, 0x00, 0x00, 0x00, 0x10, 0x00, 0x00, 0x00,
  0x44, 0x00, 0x00, 0x00, 0x01, 0x00, 0x00, 0x00, 0x04, 0x00, 0x00, 0x00,
  0x32, 0x00, 0x00, 0x00, 0x73, 0x65, 0x71, 0x75, 0x65, 0x6e, 0x74, 0x69,
  0x61, 0x6c, 0x2f, 0x64, 0x65, 0x6e, 0x73, 0x65, 0x5f, 0x31, 0x2f, 0x42,
  0x69, 0x61, 0x73, 0x41, 0x64, 0x64, 0x2f, 0x52, 0x65, 0x61, 0x64, 0x56,
  0x61, 0x72, 0x69, 0x61, 0x62, 0x6c, 0x65, 0x4f, 0x70, 0x2f, 0x72, 0x65,
  0x73, 0x6f, 0x75, 0x72, 0x63, 0x65, 0x00, 0x00, 0xa8, 0xfd, 0xff, 0xff,
  0xb2, 0xfe, 0xff, 0xff, 0x04, 0x00, 0x00, 0x00, 0x40, 0x00, 0x00, 0x00,
  0xa4, 0x5f, 0x9c, 0x40, 0x66, 0xa3, 0x81, 0x3f, 0x92, 0x58, 0xda, 0xbb,
  0xc2, 0x8a, 0x18, 0x40, 0xaa, 0x4a, 0x96, 0xbe, 0x35, 0x7c, 0x25, 0xbe,
  0x8e, 0x01, 0xf4, 0xbc, 0xcb, 0x0b, 0x83, 0x40, 0xed, 0xe5, 0xd5, 0xbe,
  0x9f, 0xed, 0xb7, 0xbf, 0xcd, 0xd9, 0x39, 0xbe, 0x6e, 0xec, 0xcb, 0x3f,
  0x14, 0x9a, 0x02, 0xbe, 0x46, 0x31, 0x12, 0xbe, 0x2d, 0x5b, 0x92, 0xbf,
  0xd9, 0x87, 0x51, 0xbf, 0xca, 0xfe, 0xff, 0xff, 0x10, 0x00, 0x00, 0x00,
  0x04, 0x00, 0x00, 0x00, 0x10, 0x00, 0x00, 0x00, 0x44, 0x00, 0x00, 0x00,
  0x01, 0x00, 0x00, 0x00, 0x10, 0x00, 0x00, 0x00, 0x30, 0x00, 0x00, 0x00,
  0x73, 0x65, 0x71, 0x75, 0x65, 0x6e, 0x74, 0x69, 0x61, 0x6c, 0x2f, 0x64,
  0x65, 0x6e, 0x73, 0x65, 0x2f, 0x42, 0x69, 0x61, 0x73, 0x41, 0x64, 0x64,
  0x2f, 0x52, 0x65, 0x61, 0x64, 0x56, 0x61, 0x72, 0x69, 0x61, 0x62, 0x6c,
  0x65, 0x4f, 0x70, 0x2f, 0x72, 0x65, 0x73, 0x6f, 0x75, 0x72, 0x63, 0x65,
  0x00, 0x00, 0x00, 0x00, 0x4c, 0xfe, 0xff, 0xff, 0x56, 0xff, 0xff, 0xff,
  0x04, 0x00, 0x00, 0x00, 0x40, 0x00, 0x00, 0x00, 0x25, 0x7b, 0x99, 0x3f,
  0x12, 0x3d, 0xbc, 0xbe, 0x32, 0x7a, 0xd8, 0x3e, 0x4d, 0x8d, 0x73, 0x3f,
  0xf3, 0xfa, 0xda, 0x3f, 0xd2, 0xfe, 0x6f, 0xc0, 0xac, 0xca, 0xbf, 0x3f,
  0x7c, 0x8f, 0x34, 0xc0, 0x72, 0xe3, 0x0b, 0xbe, 0xa6, 0xd0, 0x18, 0xc0,
  0x2f, 0xbf, 0x08, 0x40, 0xa6, 0x0b, 0x87, 0xbf, 0xa1, 0xf8, 0x65, 0xbe,
  0x1b, 0x9d, 0xe6, 0x3f, 0xdc, 0xc8, 0x44, 0xc0, 0x4b, 0x0f, 0x1d, 0xc0,
  0x6e, 0xff, 0xff, 0xff, 0x10, 0x00, 0x00, 0x00, 0x03, 0x00, 0x00, 0x00,
  0x10, 0x00, 0x00, 0x00, 0x48, 0x00, 0x00, 0x00, 0x01, 0x00, 0x00, 0x00,
  0x10, 0x00, 0x00, 0x00, 0x33, 0x00, 0x00, 0x00, 0x73, 0x65, 0x71, 0x75,
  0x65, 0x6e, 0x74, 0x69, 0x61, 0x6c, 0x2f, 0x63, 0x6f, 0x6e, 0x76, 0x32,
  0x64, 0x5f, 0x31, 0x2f, 0x42, 0x69, 0x61, 0x73, 0x41, 0x64, 0x64, 0x2f,
  0x52, 0x65, 0x61, 0x64, 0x56, 0x61, 0x72, 0x69, 0x61, 0x62, 0x6c, 0x65,
  0x4f, 0x70, 0x2f, 0x72, 0x65, 0x73, 0x6f, 0x75, 0x72, 0x63, 0x65, 0x00,
  0x04, 0x00, 0x06, 0x00, 0x04, 0x00, 0x00, 0x00, 0x00, 0x00, 0x06, 0x00,
  0x08, 0x00, 0x04, 0x00, 0x06, 0x00, 0x00, 0x00, 0x04, 0x00, 0x00, 0x00,
  0x20, 0x00, 0x00, 0x00, 0x14, 0x44, 0x5c, 0xc0, 0xaa, 0x34, 0x67, 0xbf,
  0x0b, 0x40, 0x0f, 0x3f, 0x8f, 0x40, 0x64, 0xc0, 0x18, 0x93, 0x2e, 0xbf,
  0x31, 0x5c, 0x5b, 0xc0, 0x71, 0x10, 0x34, 0xbe, 0xf1, 0xf0, 0x51, 0xbf,
  0x00, 0x00, 0x0e, 0x00, 0x14, 0x00, 0x04, 0x00, 0x00, 0x00, 0x08, 0x00,
  0x0c, 0x00, 0x10, 0x00, 0x0e, 0x00, 0x00, 0x00, 0x10, 0x00, 0x00, 0x00,
  0x02, 0x00, 0x00, 0x00, 0x10, 0x00, 0x00, 0x00, 0x44, 0x00, 0x00, 0x00,
  0x01, 0x00, 0x00, 0x00, 0x08, 0x00, 0x00, 0x00, 0x31, 0x00, 0x00, 0x00,
  0x73, 0x65, 0x71, 0x75, 0x65, 0x6e, 0x74, 0x69, 0x61, 0x6c, 0x2f, 0x63,
  0x6f, 0x6e, 0x76, 0x32, 0x64, 0x2f, 0x42, 0x69, 0x61, 0x73, 0x41, 0x64,
  0x64, 0x2f, 0x52, 0x65, 0x61, 0x64, 0x56, 0x61, 0x72, 0x69, 0x61, 0x62,
  0x6c, 0x65, 0x4f, 0x70, 0x2f, 0x72, 0x65, 0x73, 0x6f, 0x75, 0x72, 0x63,
  0x65, 0x00, 0x00, 0x00, 0x90, 0xff, 0xff, 0xff, 0x14, 0x00, 0x18, 0x00,
  0x04, 0x00, 0x00, 0x00, 0x08, 0x00, 0x0c, 0x00, 0x10, 0x00, 0x00, 0x00,
  0x00, 0x00, 0x14, 0x00, 0x14, 0x00, 0x00, 0x00, 0x14, 0x00, 0x00, 0x00,
  0x01, 0x00, 0x00, 0x00, 0x20, 0x00, 0x00, 0x00, 0x44, 0x00, 0x00, 0x00,
  0x2c, 0x00, 0x00, 0x00, 0x04, 0x00, 0x00, 0x00, 0x01, 0x00, 0x00, 0x00,
  0x40, 0x00, 0x00, 0x00, 0x03, 0x00, 0x00, 0x00, 0x01, 0x00, 0x00, 0x00,
  0x0c, 0x00, 0x00, 0x00, 0x63, 0x6f, 0x6e, 0x76, 0x32, 0x64, 0x5f, 0x69,
  0x6e, 0x70, 0x75, 0x74, 0x00, 0x00, 0x00, 0x00, 0x04, 0x00, 0x00, 0x00,
  0xff, 0xff, 0xff, 0xff, 0x40, 0x00, 0x00, 0x00, 0x03, 0x00, 0x00, 0x00,
  0x01, 0x00, 0x00, 0x00, 0xfc, 0xff, 0xff, 0xff, 0x04, 0x00, 0x04, 0x00,
  0x04, 0x00, 0x00, 0x00
};


unsigned int model_tflite_len = 13120;// Fill the int in `src/model.cc` here