#include "magic_wand_model_data.h"

// We need to keep the data array aligned on some architectures.
#ifdef __has_attribute
#define HAVE_ATTRIBUTE(x) __has_attribute(x)
#else
#define HAVE_ATTRIBUTE(x) 0
#endif
#if HAVE_ATTRIBUTE(aligned) || (defined(__GNUC__) && !defined(__clang__))
#define DATA_ALIGN_ATTRIBUTE __attribute__((aligned(4)))
#else
#define DATA_ALIGN_ATTRIBUTE
#endif

const unsigned char g_magic_wand_model_data[] DATA_ALIGN_ATTRIBUTE = {
  // Paste the data of the char array in `src/model.cc` here


  0x1c, 0x00, 0x00, 0x00, 0x54, 0x46, 0x4c, 0x33, 0x14, 0x00, 0x20, 0x00,
  0x04, 0x00, 0x08, 0x00, 0x0c, 0x00, 0x10, 0x00, 0x14, 0x00, 0x00, 0x00,
  0x18, 0x00, 0x1c, 0x00, 0x14, 0x00, 0x00, 0x00, 0x03, 0x00, 0x00, 0x00,
  0x18, 0x00, 0x00, 0x00, 0x2c, 0x00, 0x00, 0x00, 0xd8, 0x00, 0x00, 0x00,
  0x2c, 0x00, 0x00, 0x00, 0x80, 0x00, 0x00, 0x00, 0x78, 0x00, 0x00, 0x00,
  0x05, 0x00, 0x00, 0x00, 0x28, 0x07, 0x00, 0x00, 0x44, 0x06, 0x00, 0x00,
  0xbc, 0x03, 0x00, 0x00, 0xf8, 0x02, 0x00, 0x00, 0xac, 0x01, 0x00, 0x00,
  0x01, 0x00, 0x00, 0x00, 0xd0, 0x00, 0x00, 0x00, 0x14, 0x00, 0x00, 0x00,
  0x98, 0x32, 0x00, 0x00, 0x94, 0x32, 0x00, 0x00, 0x8c, 0x31, 0x00, 0x00,
  0xd8, 0x30, 0x00, 0x00, 0x30, 0x30, 0x00, 0x00, 0xbc, 0x2f, 0x00, 0x00,
  0x50, 0x2f, 0x00, 0x00, 0x00, 0x13, 0x00, 0x00, 0xec, 0x11, 0x00, 0x00,
  0x10, 0x10, 0x00, 0x00, 0xb4, 0x07, 0x00, 0x00, 0x6c, 0x32, 0x00, 0x00,
  0x68, 0x32, 0x00, 0x00, 0x64, 0x32, 0x00, 0x00, 0x60, 0x32, 0x00, 0x00,
  0x5c, 0x32, 0x00, 0x00, 0x58, 0x32, 0x00, 0x00, 0x54, 0x32, 0x00, 0x00,
  0x50, 0x32, 0x00, 0x00, 0x3c, 0x00, 0x00, 0x00, 0x00, 0x00, 0x00, 0x00,
  0x01, 0x00, 0x00, 0x00, 0x0c, 0x00, 0x00, 0x00, 0x08, 0x00, 0x0c, 0x00,
  0x04, 0x00, 0x08, 0x00, 0x08, 0x00, 0x00, 0x00, 0x08, 0x00, 0x00, 0x00,
  0x13, 0x00, 0x00, 0x00, 0x13, 0x00, 0x00, 0x00, 0x6d, 0x69, 0x6e, 0x5f,
  0x72, 0x75, 0x6e, 0x74, 0x69, 0x6d, 0x65, 0x5f, 0x76, 0x65, 0x72, 0x73,
  0x69, 0x6f, 0x6e, 0x00, 0xfa, 0xce, 0xff, 0xff, 0x04, 0x00, 0x00, 0x00,
  0x10, 0x00, 0x00, 0x00, 0x31, 0x2e, 0x35, 0x2e, 0x30, 0x00, 0x00, 0x00,
  0x00, 0x00, 0x00, 0x00, 0x00, 0x00, 0x00, 0x00, 0x0f, 0x00, 0x00, 0x00,
  0x4d, 0x4c, 0x49, 0x52, 0x20, 0x43, 0x6f, 0x6e, 0x76, 0x65, 0x72, 0x74,
  0x65, 0x64, 0x2e, 0x00, 0x00, 0x00, 0x0e, 0x00, 0x18, 0x00, 0x04, 0x00,
  0x08, 0x00, 0x0c, 0x00, 0x10, 0x00, 0x14, 0x00, 0x0e, 0x00, 0x00, 0x00,
  0x14, 0x00, 0x00, 0x00, 0x5c, 0x00, 0x00, 0x00, 0x60, 0x00, 0x00, 0x00,
  0x64, 0x00, 0x00, 0x00, 0x84, 0x00, 0x00, 0x00, 0x12, 0x00, 0x00, 0x00,
  0x58, 0x31, 0x00, 0x00, 0xe8, 0x30, 0x00, 0x00, 0x44, 0x30, 0x00, 0x00,
  0x9c, 0x2f, 0x00, 0x00, 0xf4, 0x2e, 0x00, 0x00, 0x94, 0x2e, 0x00, 0x00,
  0x2c, 0x2e, 0x00, 0x00, 0xd8, 0x11, 0x00, 0x00, 0xbc, 0x10, 0x00, 0x00,
  0xe0, 0x0e, 0x00, 0x00, 0x0c, 0x06, 0x00, 0x00, 0x28, 0x05, 0x00, 0x00,
  0xe8, 0x03, 0x00, 0x00, 0x3c, 0x03, 0x00, 0x00, 0x98, 0x02, 0x00, 0x00,
  0xd4, 0x01, 0x00, 0x00, 0x10, 0x01, 0x00, 0x00, 0x84, 0x00, 0x00, 0x00,
  0x01, 0x00, 0x00, 0x00, 0x00, 0x00, 0x00, 0x00, 0x01, 0x00, 0x00, 0x00,
  0x11, 0x00, 0x00, 0x00, 0x08, 0x00, 0x00, 0x00, 0x74, 0x05, 0x00, 0x00,
  0x94, 0x04, 0x00, 0x00, 0x78, 0x03, 0x00, 0x00, 0xbc, 0x02, 0x00, 0x00,
  0x30, 0x02, 0x00, 0x00, 0x50, 0x01, 0x00, 0x00, 0xa8, 0x00, 0x00, 0x00,
  0x10, 0x00, 0x00, 0x00, 0x04, 0x00, 0x00, 0x00, 0x6d, 0x61, 0x69, 0x6e,
  0x00, 0x00, 0x00, 0x00, 0x7a, 0xff, 0xff, 0xff, 0x00, 0x00, 0x00, 0x09,
  0x04, 0x00, 0x00, 0x00, 0x1c, 0x00, 0x00, 0x00, 0x10, 0x00, 0x00, 0x00,
  0x04, 0x00, 0x00, 0x00, 0xf6, 0xcf, 0xff, 0xff, 0x00, 0x00, 0x80, 0x3f,
  0x01, 0x00, 0x00, 0x00, 0x11, 0x00, 0x00, 0x00, 0x01, 0x00, 0x00, 0x00,
  0x10, 0x00, 0x00, 0x00, 0xa0, 0xfa, 0xff, 0xff, 0x19, 0x00, 0x00, 0x00,
  0x00, 0x00, 0x00, 0x19, 0x01, 0x00, 0x00, 0x00, 0x84, 0xcf, 0xff, 0xff,
  0x14, 0x00, 0x00, 0x00, 0x12, 0x00, 0x00, 0x00, 0x18, 0x00, 0x00, 0x00,
  0x30, 0x00, 0x00, 0x00, 0x20, 0x00, 0x00, 0x00, 0x02, 0x00, 0x00, 0x00,
  0x01, 0x00, 0x00, 0x00, 0x03, 0x00, 0x00, 0x00, 0x08, 0x00, 0x00, 0x00,
  0x49, 0x64, 0x65, 0x6e, 0x74, 0x69, 0x74, 0x79, 0x00, 0x00, 0x00, 0x00,
  0x02, 0x00, 0x00, 0x00, 0xff, 0xff, 0xff, 0xff, 0x03, 0x00, 0x00, 0x00,
  0x68, 0xd0, 0xff, 0xff, 0x00, 0x00, 0x0e, 0x00, 0x18, 0x00, 0x08, 0x00,
  0x0c, 0x00, 0x10, 0x00, 0x07, 0x00, 0x14, 0x00, 0x0e, 0x00, 0x00, 0x00,
  0x00, 0x00, 0x00, 0x08, 0x03, 0x00, 0x00, 0x00, 0x18, 0x00, 0x00, 0x00,
  0x0c, 0x00, 0x00, 0x00, 0x04, 0x00, 0x00, 0x00, 0x84, 0xcf, 0xff, 0xff,
  0x01, 0x00, 0x00, 0x00, 0x10, 0x00, 0x00, 0x00, 0x03, 0x00, 0x00, 0x00,
  0x0f, 0x00, 0x00, 0x00, 0x07, 0x00, 0x00, 0x00, 0x04, 0x00, 0x00, 0x00,
  0x0c, 0xd0, 0xff, 0xff, 0x14, 0x00, 0x00, 0x00, 0x11, 0x00, 0x00, 0x00,
  0x18, 0x00, 0x00, 0x00, 0x5c, 0x00, 0x00, 0x00, 0x4c, 0x00, 0x00, 0x00,
  0x02, 0x00, 0x00, 0x00, 0x01, 0x00, 0x00, 0x00, 0x03, 0x00, 0x00, 0x00,
  0x34, 0x00, 0x00, 0x00, 0x73, 0x65, 0x71, 0x75, 0x65, 0x6e, 0x74, 0x69,
  0x61, 0x6c, 0x2f, 0x64, 0x65, 0x6e, 0x73, 0x65, 0x5f, 0x31, 0x2f, 0x4d,
  0x61, 0x74, 0x4d, 0x75, 0x6c, 0x3b, 0x73, 0x65, 0x71, 0x75, 0x65, 0x6e,
  0x74, 0x69, 0x61, 0x6c, 0x2f, 0x64, 0x65, 0x6e, 0x73, 0x65, 0x5f, 0x31,
  0x2f, 0x42, 0x69, 0x61, 0x73, 0x41, 0x64, 0x64, 0x00, 0x00, 0x00, 0x00,
  0x02, 0x00, 0x00, 0x00, 0xff, 0xff, 0xff, 0xff, 0x03, 0x00, 0x00, 0x00,
  0x0c, 0xd0, 0xff, 0xff, 0xda, 0xfc, 0xff, 0xff, 0x00, 0x00, 0x00, 0x08,
  0x03, 0x00, 0x00, 0x00, 0x24, 0x00, 0x00, 0x00, 0x18, 0x00, 0x00, 0x00,
  0x0c, 0x00, 0x00, 0x00, 0x00, 0x00, 0x06, 0x00, 0x08, 0x00, 0x07, 0x00,
  0x06, 0x00, 0x00, 0x00, 0x00, 0x00, 0x00, 0x01, 0x01, 0x00, 0x00, 0x00,
  0x0f, 0x00, 0x00, 0x00, 0x03, 0x00, 0x00, 0x00, 0x0e, 0x00, 0x00, 0x00,
  0x06, 0x00, 0x00, 0x00, 0x03, 0x00, 0x00, 0x00, 0xe8, 0xfb, 0xff, 0xff,
  0x09, 0x00, 0x00, 0x00, 0x00, 0x00, 0x00, 0x09, 0x01, 0x00, 0x00, 0x00,
  0xcc, 0xd0, 0xff, 0xff, 0x14, 0x00, 0x00, 0x00, 0x10, 0x00, 0x00, 0x00,
  0x18, 0x00, 0x00, 0x00, 0x6c, 0x00, 0x00, 0x00, 0x5c, 0x00, 0x00, 0x00,
  0x02, 0x00, 0x00, 0x00, 0x01, 0x00, 0x00, 0x00, 0x10, 0x00, 0x00, 0x00,
  0x46, 0x00, 0x00, 0x00, 0x73, 0x65, 0x71, 0x75, 0x65, 0x6e, 0x74, 0x69,
  0x61, 0x6c, 0x2f, 0x64, 0x65, 0x6e, 0x73, 0x65, 0x2f, 0x4d, 0x61, 0x74,
  0x4d, 0x75, 0x6c, 0x3b, 0x73, 0x65, 0x71, 0x75, 0x65, 0x6e, 0x74, 0x69,
  0x61, 0x6c, 0x2f, 0x64, 0x65, 0x6e, 0x73, 0x65, 0x2f, 0x52, 0x65, 0x6c,
  0x75, 0x3b, 0x73, 0x65, 0x71, 0x75, 0x65, 0x6e, 0x74, 0x69, 0x61, 0x6c,
  0x2f, 0x64, 0x65, 0x6e, 0x73, 0x65, 0x2f, 0x42, 0x69, 0x61, 0x73, 0x41,
  0x64, 0x64, 0x00, 0x00, 0x02, 0x00, 0x00, 0x00, 0xff, 0xff, 0xff, 0xff,
  0x10, 0x00, 0x00, 0x00, 0xec, 0xd1, 0xff, 0xff, 0x00, 0x00, 0x0a, 0x00,
  0x10, 0x00, 0x04, 0x00, 0x08, 0x00, 0x0c, 0x00, 0x0a, 0x00, 0x00, 0x00,
  0x02, 0x00, 0x00, 0x00, 0x10, 0x00, 0x00, 0x00, 0x04, 0x00, 0x00, 0x00,
  0x01, 0x00, 0x00, 0x00, 0x0e, 0x00, 0x00, 0x00, 0x02, 0x00, 0x00, 0x00,
  0x0d, 0x00, 0x00, 0x00, 0x05, 0x00, 0x00, 0x00, 0xa8, 0xfc, 0xff, 0xff,
  0x16, 0x00, 0x00, 0x00, 0x00, 0x00, 0x00, 0x16, 0x01, 0x00, 0x00, 0x00,
  0x8c, 0xd1, 0xff, 0xff, 0x14, 0x00, 0x00, 0x00, 0x0f, 0x00, 0x00, 0x00,
  0x18, 0x00, 0x00, 0x00, 0x40, 0x00, 0x00, 0x00, 0x30, 0x00, 0x00, 0x00,
  0x02, 0x00, 0x00, 0x00, 0x01, 0x00, 0x00, 0x00, 0x70, 0x00, 0x00, 0x00,
  0x1a, 0x00, 0x00, 0x00, 0x73, 0x65, 0x71, 0x75, 0x65, 0x6e, 0x74, 0x69,
  0x61, 0x6c, 0x2f, 0x66, 0x6c, 0x61, 0x74, 0x74, 0x65, 0x6e, 0x2f, 0x52,
  0x65, 0x73, 0x68, 0x61, 0x70, 0x65, 0x00, 0x00, 0x02, 0x00, 0x00, 0x00,
  0xff, 0xff, 0xff, 0xff, 0x70, 0x00, 0x00, 0x00, 0x70, 0xd1, 0xff, 0xff,
  0x3e, 0xfe, 0xff, 0xff, 0x00, 0x00, 0x00, 0x05, 0x01, 0x00, 0x00, 0x00,
  0x38, 0x00, 0x00, 0x00, 0x2c, 0x00, 0x00, 0x00, 0x14, 0x00, 0x00, 0x00,
  0x00, 0x00, 0x0e, 0x00, 0x14, 0x00, 0x00, 0x00, 0x10, 0x00, 0x0c, 0x00,
  0x08, 0x00, 0x04, 0x00, 0x0e, 0x00, 0x00, 0x00, 0x03, 0x00, 0x00, 0x00,
  0x01, 0x00, 0x00, 0x00, 0x03, 0x00, 0x00, 0x00, 0x01, 0x00, 0x00, 0x00,
  0x01, 0x00, 0x00, 0x00, 0x0d, 0x00, 0x00, 0x00, 0x01, 0x00, 0x00, 0x00,
  0x0c, 0x00, 0x00, 0x00, 0x2c, 0xd2, 0xff, 0xff, 0x14, 0x00, 0x00, 0x00,
  0x0e, 0x00, 0x00, 0x00, 0x20, 0x00, 0x00, 0x00, 0x58, 0x00, 0x00, 0x00,
  0x40, 0x00, 0x00, 0x00, 0x04, 0x00, 0x00, 0x00, 0x01, 0x00, 0x00, 0x00,
  0x07, 0x00, 0x00, 0x00, 0x01, 0x00, 0x00, 0x00, 0x10, 0x00, 0x00, 0x00,
  0x22, 0x00, 0x00, 0x00, 0x73, 0x65, 0x71, 0x75, 0x65, 0x6e, 0x74, 0x69,
  0x61, 0x6c, 0x2f, 0x6d, 0x61, 0x78, 0x5f, 0x70, 0x6f, 0x6f, 0x6c, 0x69,
  0x6e, 0x67, 0x32, 0x64, 0x5f, 0x31, 0x2f, 0x4d, 0x61, 0x78, 0x50, 0x6f,
  0x6f, 0x6c, 0x00, 0x00, 0x04, 0x00, 0x00, 0x00, 0xff, 0xff, 0xff, 0xff,
  0x07, 0x00, 0x00, 0x00, 0x01, 0x00, 0x00, 0x00, 0x10, 0x00, 0x00, 0x00,
  0x28, 0xd2, 0xff, 0xff, 0x1a, 0xfe, 0xff, 0xff, 0x00, 0x00, 0x00, 0x01,
  0x24, 0x00, 0x00, 0x00, 0x18, 0x00, 0x00, 0x00, 0x04, 0x00, 0x00, 0x00,
  0x0c, 0xfe, 0xff, 0xff, 0x01, 0x00, 0x00, 0x00, 0x01, 0x00, 0x00, 0x00,
  0x00, 0x00, 0x00, 0x01, 0x01, 0x00, 0x00, 0x00, 0x0c, 0x00, 0x00, 0x00,
  0x03, 0x00, 0x00, 0x00, 0x0b, 0x00, 0x00, 0x00, 0x09, 0x00, 0x00, 0x00,
  0x02, 0x00, 0x00, 0x00, 0xd4, 0xd2, 0xff, 0xff, 0x14, 0x00, 0x00, 0x00,
  0x0d, 0x00, 0x00, 0x00, 0x20, 0x00, 0x00, 0x00, 0xb8, 0x00, 0x00, 0x00,
  0xa0, 0x00, 0x00, 0x00, 0x04, 0x00, 0x00, 0x00, 0x01, 0x00, 0x00, 0x00,
  0x15, 0x00, 0x00, 0x00, 0x01, 0x00, 0x00, 0x00, 0x10, 0x00, 0x00, 0x00,
  0x83, 0x00, 0x00, 0x00, 0x73, 0x65, 0x71, 0x75, 0x65, 0x6e, 0x74, 0x69,
  0x61, 0x6c, 0x2f, 0x63, 0x6f, 0x6e, 0x76, 0x32, 0x64, 0x5f, 0x31, 0x2f,
  0x52, 0x65, 0x6c, 0x75, 0x3b, 0x73, 0x65, 0x71, 0x75, 0x65, 0x6e, 0x74,
  0x69, 0x61, 0x6c, 0x2f, 0x63, 0x6f, 0x6e, 0x76, 0x32, 0x64, 0x5f, 0x31,
  0x2f, 0x42, 0x69, 0x61, 0x73, 0x41, 0x64, 0x64, 0x3b, 0x73, 0x65, 0x71,
  0x75, 0x65, 0x6e, 0x74, 0x69, 0x61, 0x6c, 0x2f, 0x63, 0x6f, 0x6e, 0x76,
  0x32, 0x64, 0x5f, 0x31, 0x2f, 0x43, 0x6f, 0x6e, 0x76, 0x32, 0x44, 0x3b,
  0x73, 0x65, 0x71, 0x75, 0x65, 0x6e, 0x74, 0x69, 0x61, 0x6c, 0x2f, 0x63,
  0x6f, 0x6e, 0x76, 0x32, 0x64, 0x5f, 0x31, 0x2f, 0x42, 0x69, 0x61, 0x73,
  0x41, 0x64, 0x64, 0x2f, 0x52, 0x65, 0x61, 0x64, 0x56, 0x61, 0x72, 0x69,
  0x61, 0x62, 0x6c, 0x65, 0x4f, 0x70, 0x2f, 0x72, 0x65, 0x73, 0x6f, 0x75,
  0x72, 0x63, 0x65, 0x00, 0x04, 0x00, 0x00, 0x00, 0xff, 0xff, 0xff, 0xff,
  0x15, 0x00, 0x00, 0x00, 0x01, 0x00, 0x00, 0x00, 0x10, 0x00, 0x00, 0x00,
  0x40, 0xd4, 0xff, 0xff, 0x00, 0x00, 0x0e, 0x00, 0x1a, 0x00, 0x08, 0x00,
  0x0c, 0x00, 0x10, 0x00, 0x07, 0x00, 0x14, 0x00, 0x0e, 0x00, 0x00, 0x00,
  0x00, 0x00, 0x00, 0x05, 0x01, 0x00, 0x00, 0x00, 0x3c, 0x00, 0x00, 0x00,
  0x30, 0x00, 0x00, 0x00, 0x14, 0x00, 0x00, 0x00, 0x00, 0x00, 0x0e, 0x00,
  0x18, 0x00, 0x17, 0x00, 0x10, 0x00, 0x0c, 0x00, 0x08, 0x00, 0x04, 0x00,
  0x0e, 0x00, 0x00, 0x00, 0x03, 0x00, 0x00, 0x00, 0x03, 0x00, 0x00, 0x00,
  0x03, 0x00, 0x00, 0x00, 0x03, 0x00, 0x00, 0x00, 0x00, 0x00, 0x00, 0x01,
  0x01, 0x00, 0x00, 0x00, 0x0b, 0x00, 0x00, 0x00, 0x01, 0x00, 0x00, 0x00,
  0x0a, 0x00, 0x00, 0x00, 0x2c, 0xff, 0xff, 0xff, 0x11, 0x00, 0x00, 0x00,
  0x00, 0x00, 0x00, 0x11, 0x01, 0x00, 0x00, 0x00, 0x10, 0xd4, 0xff, 0xff,
  0x14, 0x00, 0x00, 0x00, 0x0c, 0x00, 0x00, 0x00, 0x20, 0x00, 0x00, 0x00,
  0x58, 0x00, 0x00, 0x00, 0x40, 0x00, 0x00, 0x00, 0x04, 0x00, 0x00, 0x00,
  0x01, 0x00, 0x00, 0x00, 0x15, 0x00, 0x00, 0x00, 0x01, 0x00, 0x00, 0x00,
  0x08, 0x00, 0x00, 0x00, 0x20, 0x00, 0x00, 0x00, 0x73, 0x65, 0x71, 0x75,
  0x65, 0x6e, 0x74, 0x69, 0x61, 0x6c, 0x2f, 0x6d, 0x61, 0x78, 0x5f, 0x70,
  0x6f, 0x6f, 0x6c, 0x69, 0x6e, 0x67, 0x32, 0x64, 0x2f, 0x4d, 0x61, 0x78,
  0x50, 0x6f, 0x6f, 0x6c, 0x00, 0x00, 0x00, 0x00, 0x04, 0x00, 0x00, 0x00,
  0xff, 0xff, 0xff, 0xff, 0x15, 0x00, 0x00, 0x00, 0x01, 0x00, 0x00, 0x00,
  0x08, 0x00, 0x00, 0x00, 0x1c, 0xd5, 0xff, 0xff, 0x00, 0x00, 0x0e, 0x00,
  0x14, 0x00, 0x00, 0x00, 0x08, 0x00, 0x0c, 0x00, 0x07, 0x00, 0x10, 0x00,
  0x0e, 0x00, 0x00, 0x00, 0x00, 0x00, 0x00, 0x01, 0x30, 0x00, 0x00, 0x00,
  0x24, 0x00, 0x00, 0x00, 0x10, 0x00, 0x00, 0x00, 0x0c, 0x00, 0x10, 0x00,
  0x00, 0x00, 0x04, 0x00, 0x08, 0x00, 0x0f, 0x00, 0x0c, 0x00, 0x00, 0x00,
  0x01, 0x00, 0x00, 0x00, 0x01, 0x00, 0x00, 0x00, 0x00, 0x00, 0x00, 0x01,
  0x01, 0x00, 0x00, 0x00, 0x0a, 0x00, 0x00, 0x00, 0x03, 0x00, 0x00, 0x00,
  0x00, 0x00, 0x00, 0x00, 0x08, 0x00, 0x00, 0x00, 0x01, 0x00, 0x00, 0x00,
  0x0c, 0x00, 0x10, 0x00, 0x0b, 0x00, 0x00, 0x00, 0x0c, 0x00, 0x04, 0x00,
  0x0c, 0x00, 0x00, 0x00, 0x03, 0x00, 0x00, 0x00, 0x00, 0x00, 0x00, 0x03,
  0x01, 0x00, 0x00, 0x00, 0xf0, 0xd4, 0xff, 0xff, 0x14, 0x00, 0x00, 0x00,
  0x0b, 0x00, 0x00, 0x00, 0x20, 0x00, 0x00, 0x00, 0xb0, 0x00, 0x00, 0x00,
  0x98, 0x00, 0x00, 0x00, 0x04, 0x00, 0x00, 0x00, 0x01, 0x00, 0x00, 0x00,
  0x40, 0x00, 0x00, 0x00, 0x03, 0x00, 0x00, 0x00, 0x08, 0x00, 0x00, 0x00,
  0x7b, 0x00, 0x00, 0x00, 0x73, 0x65, 0x71, 0x75, 0x65, 0x6e, 0x74, 0x69,
  0x61, 0x6c, 0x2f, 0x63, 0x6f, 0x6e, 0x76, 0x32, 0x64, 0x2f, 0x52, 0x65,
  0x6c, 0x75, 0x3b, 0x73, 0x65, 0x71, 0x75, 0x65, 0x6e, 0x74, 0x69, 0x61,
  0x6c, 0x2f, 0x63, 0x6f, 0x6e, 0x76, 0x32, 0x64, 0x2f, 0x42, 0x69, 0x61,
  0x73, 0x41, 0x64, 0x64, 0x3b, 0x73, 0x65, 0x71, 0x75, 0x65, 0x6e, 0x74,
  0x69, 0x61, 0x6c, 0x2f, 0x63, 0x6f, 0x6e, 0x76, 0x32, 0x64, 0x2f, 0x43,
  0x6f, 0x6e, 0x76, 0x32, 0x44, 0x3b, 0x73, 0x65, 0x71, 0x75, 0x65, 0x6e,
  0x74, 0x69, 0x61, 0x6c, 0x2f, 0x63, 0x6f, 0x6e, 0x76, 0x32, 0x64, 0x2f,
  0x42, 0x69, 0x61, 0x73, 0x41, 0x64, 0x64, 0x2f, 0x52, 0x65, 0x61, 0x64,
  0x56, 0x61, 0x72, 0x69, 0x61, 0x62, 0x6c, 0x65, 0x4f, 0x70, 0x2f, 0x72,
  0x65, 0x73, 0x6f, 0x75, 0x72, 0x63, 0x65, 0x00, 0x04, 0x00, 0x00, 0x00,
  0xff, 0xff, 0xff, 0xff, 0x40, 0x00, 0x00, 0x00, 0x03, 0x00, 0x00, 0x00,
  0x08, 0x00, 0x00, 0x00, 0x44, 0xd5, 0xff, 0xff, 0x4e, 0xd6, 0xff, 0xff,
  0x04, 0x00, 0x00, 0x00, 0x00, 0x08, 0x00, 0x00, 0xe8, 0x43, 0xc1, 0xbb,
  0x4b, 0xf5, 0x60, 0x3e, 0xf1, 0x6e, 0x9f, 0xbd, 0xc4, 0xb8, 0x98, 0xbd,
  0xb1, 0xc5, 0x1a, 0x3e, 0xbd, 0xed, 0x48, 0xbe, 0x79, 0xb7, 0x24, 0x3f,
  0x4c, 0x53, 0x81, 0x3d, 0x9d, 0xa6, 0xfc, 0x3c, 0x99, 0x69, 0x90, 0x3d,
  0x05, 0xa3, 0x02, 0xbe, 0x26, 0x25, 0x94, 0xbd, 0x48, 0xb1, 0x0d, 0xbe,
  0x10, 0x02, 0xc7, 0xbe, 0x40, 0x11, 0xca, 0xbd, 0xca, 0x37, 0x6f, 0xbd,
  0x4a, 0xe3, 0xf2, 0xbc, 0xc1, 0x56, 0x81, 0x3e, 0xd8, 0x5e, 0x9a, 0xbd,
  0x1d, 0xbd, 0xc0, 0xbd, 0xfc, 0x91, 0x56, 0xbe, 0x32, 0x6c, 0xb9, 0xbd,
  0xef, 0x9f, 0xc3, 0xbd, 0xbf, 0x05, 0x89, 0xbd, 0x7e, 0x7e, 0x99, 0xbd,
  0xd0, 0xeb, 0xb1, 0x3d, 0x5b, 0x7d, 0x81, 0xbd, 0xc3, 0x69, 0xa1, 0xbd,
  0xf8, 0xc7, 0x92, 0xbd, 0x9d, 0x05, 0x3a, 0x3d, 0x2c, 0xe6, 0xfc, 0xbd,
  0x76, 0xa8, 0xad, 0xbd, 0x05, 0xb2, 0xd5, 0xbd, 0x83, 0x7e, 0xf9, 0x3c,
  0x0d, 0xc6, 0x14, 0xbe, 0xbc, 0x34, 0x7f, 0xbd, 0x5f, 0xf9, 0x88, 0xbe,
  0x2a, 0x49, 0xd7, 0x3c, 0xbe, 0x50, 0x1f, 0xbe, 0x43, 0x4e, 0x1c, 0xbe,
  0x7e, 0x5f, 0xe3, 0xbd, 0xd5, 0xbd, 0x19, 0xbe, 0x41, 0x20, 0x53, 0xbe,
  0x47, 0xed, 0xfd, 0xbc, 0xc7, 0x25, 0x41, 0xbe, 0xcc, 0x80, 0xf1, 0xbd,
  0xcd, 0xcf, 0x62, 0xbe, 0xa3, 0x82, 0x26, 0xbe, 0xf5, 0x99, 0x3f, 0xbd,
  0xff, 0x50, 0x3b, 0x3c, 0x7b, 0x50, 0x8c, 0xbc, 0x45, 0x1c, 0x06, 0x3d,
  0x21, 0x0a, 0xbd, 0x3e, 0x93, 0xeb, 0x25, 0xbe, 0xe3, 0xf2, 0x9f, 0xbd,
  0x50, 0xc5, 0x59, 0xbd, 0x1a, 0xce, 0x47, 0x3e, 0x2c, 0xf6, 0x03, 0x3e,
  0x69, 0xcc, 0x60, 0x3d, 0xa3, 0x0f, 0x86, 0x3c, 0xdb, 0x71, 0xdd, 0x3e,
  0xe1, 0x30, 0x04, 0xbe, 0xda, 0xac, 0xaa, 0x3e, 0x11, 0x0a, 0x41, 0x3e,
  0x30, 0x15, 0x3e, 0xbe, 0xa4, 0xbf, 0x72, 0xbe, 0x20, 0x53, 0xae, 0xbc,
  0xa9, 0x0c, 0xa0, 0xbd, 0x07, 0x53, 0x10, 0xbe, 0x41, 0x95, 0x80, 0xbe,
  0x4d, 0xfe, 0xc7, 0xbc, 0x79, 0x48, 0xde, 0xbc, 0xa8, 0x8f, 0x2e, 0x3f,
  0x97, 0x2f, 0x3b, 0xbe, 0x1a, 0xc4, 0xf8, 0xbc, 0xb4, 0x7c, 0x95, 0xbd,
  0x92, 0x89, 0x23, 0xbe, 0x57, 0xa3, 0x61, 0xbe, 0x4a, 0x8a, 0xd6, 0xbd,
  0x37, 0x42, 0xd3, 0xbc, 0x82, 0xb7, 0x0c, 0xbc, 0xd4, 0xc6, 0x40, 0xbe,
  0x8f, 0xf4, 0x85, 0xba, 0x80, 0x62, 0xb2, 0xbd, 0xda, 0x43, 0x68, 0xbe,
  0xff, 0x87, 0x0f, 0xbe, 0x3b, 0xc4, 0x01, 0xbd, 0xe8, 0xf8, 0x80, 0xbc,
  0x65, 0x84, 0xe4, 0x3c, 0x73, 0x04, 0x0b, 0xbe, 0x11, 0xc8, 0x8f, 0x3d,
  0x3f, 0x1f, 0xc2, 0xbd, 0x38, 0x97, 0x17, 0xbe, 0x6f, 0xa8, 0x85, 0xbc,
  0x04, 0x9b, 0x70, 0x3d, 0xc1, 0x81, 0x1f, 0x3d, 0x20, 0xae, 0xe5, 0xbd,
  0x9f, 0x8e, 0x5d, 0x3e, 0xf8, 0x6c, 0x34, 0xbe, 0x27, 0x2f, 0xd2, 0xbd,
  0x43, 0x38, 0x09, 0xbf, 0xf9, 0xce, 0x1c, 0xbd, 0x4b, 0x48, 0x8e, 0xbc,
  0x75, 0xec, 0x13, 0x3e, 0x78, 0x07, 0xf6, 0xbd, 0x51, 0x23, 0x48, 0x3e,
  0xb2, 0x1f, 0x85, 0xbe, 0x35, 0xc9, 0xc6, 0xbe, 0x75, 0xf3, 0xda, 0x3e,
  0x0c, 0x7a, 0xe0, 0x3e, 0xe4, 0x09, 0x84, 0xbe, 0x68, 0x9e, 0x5a, 0xbf,
  0xf7, 0xfd, 0x86, 0xbd, 0x7e, 0xc5, 0x04, 0xbf, 0x0e, 0x32, 0x12, 0x3e,
  0x7b, 0x19, 0xb2, 0xbd, 0x49, 0xda, 0x60, 0x3e, 0xdb, 0x0f, 0xf3, 0x3b,
  0x5a, 0x7a, 0xf8, 0xbd, 0xbb, 0xfd, 0xde, 0x3c, 0xa9, 0x26, 0x5e, 0xbd,
  0x3b, 0xd8, 0x08, 0xbe, 0x18, 0xb6, 0x9f, 0x3c, 0x00, 0x8f, 0x43, 0xbd,
  0xb0, 0x7f, 0xb1, 0xbd, 0xea, 0xfd, 0x84, 0xbe, 0xff, 0x1b, 0x3d, 0x3c,
  0xbf, 0xa2, 0x75, 0x3e, 0x94, 0x98, 0x03, 0xbe, 0xb2, 0xdb, 0x26, 0xbf,
  0x94, 0x9c, 0xd2, 0xbd, 0xa7, 0x3f, 0x36, 0x3d, 0x15, 0xce, 0x98, 0xbe,
  0x3c, 0xec, 0xfb, 0xbd, 0x1b, 0x8b, 0x3d, 0xbe, 0x15, 0xbb, 0xeb, 0x3c,
  0x98, 0x08, 0x2b, 0xbd, 0x1a, 0x2d, 0xc3, 0x3e, 0xfa, 0x29, 0x94, 0xbd,
  0xbe, 0xa6, 0x1c, 0xbd, 0x30, 0x95, 0xad, 0xbd, 0xdd, 0x08, 0x14, 0x3e,
  0x40, 0x21, 0x51, 0xbd, 0xa2, 0x1a, 0xb3, 0xbb, 0x17, 0x49, 0x65, 0xbd,
  0xcb, 0x2e, 0xed, 0x3d, 0xf9, 0xe0, 0xb3, 0x3e, 0x45, 0xbf, 0x2e, 0xbd,
  0x6d, 0xc6, 0x16, 0x3e, 0xe8, 0xad, 0x36, 0x3d, 0xfe, 0x40, 0x92, 0xbd,
  0x99, 0x97, 0x3f, 0xbe, 0xd0, 0x96, 0x31, 0xbd, 0x51, 0x51, 0x95, 0xbe,
  0x99, 0x01, 0xc3, 0xbe, 0x5a, 0x97, 0x05, 0x3e, 0x32, 0x36, 0x7a, 0xbe,
  0x78, 0xba, 0x87, 0x3c, 0x9d, 0xff, 0x3c, 0xbe, 0x81, 0xa8, 0x4b, 0xbd,
  0x08, 0x1a, 0x3a, 0xbe, 0x7d, 0x26, 0x09, 0x3d, 0x69, 0x82, 0x0c, 0x3e,
  0x7b, 0x92, 0xcd, 0xbd, 0x1d, 0x9f, 0x48, 0xbe, 0x73, 0x69, 0x31, 0x3d,
  0x75, 0xf3, 0x5a, 0xbe, 0x60, 0xe9, 0x57, 0xbe, 0xa4, 0xf9, 0x88, 0xbe,
  0x05, 0xdf, 0x34, 0x3e, 0x21, 0x77, 0x0c, 0x3e, 0x93, 0x3a, 0xe9, 0x3d,
  0x82, 0x0a, 0x71, 0xbe, 0xc4, 0x77, 0xa0, 0xbe, 0xf5, 0x7b, 0x82, 0xbe,
  0xb6, 0xbc, 0xd0, 0x3d, 0x6b, 0xb6, 0xb7, 0xbd, 0xdb, 0xad, 0x4a, 0xbd,
  0xb5, 0xc2, 0x89, 0xbe, 0x4a, 0x89, 0xed, 0xbd, 0x68, 0xc3, 0xd4, 0x3d,
  0x25, 0xa6, 0xea, 0xbd, 0x86, 0x50, 0xcc, 0xbe, 0x8c, 0x57, 0x5d, 0xbe,
  0x84, 0x8c, 0x90, 0xbe, 0x20, 0x83, 0x02, 0x3e, 0x26, 0xdb, 0x48, 0x3c,
  0x63, 0x1d, 0x5c, 0x3e, 0xa2, 0x79, 0x01, 0xbe, 0xe8, 0x22, 0x3c, 0xbc,
  0x06, 0xe2, 0x45, 0xbe, 0x15, 0xe5, 0x12, 0xbe, 0x7b, 0x09, 0x08, 0x3b,
  0xf3, 0x01, 0x0b, 0x3f, 0xbd, 0x89, 0x5f, 0xbd, 0x73, 0x3d, 0xec, 0xbc,
  0x14, 0x66, 0x4c, 0x3e, 0x4a, 0xb3, 0x05, 0x3e, 0x6a, 0x34, 0x78, 0x3d,
  0x60, 0x2a, 0x83, 0x3e, 0xc2, 0x32, 0x06, 0xbd, 0x8d, 0x25, 0x5d, 0xbc,
  0xda, 0xde, 0x12, 0xbe, 0x63, 0xe8, 0x2a, 0xbd, 0x6f, 0x3e, 0x51, 0xbe,
  0xb3, 0x07, 0x97, 0xbd, 0xc4, 0xdf, 0xfa, 0xbd, 0xd9, 0xb9, 0x06, 0xbe,
  0x4e, 0x2e, 0x24, 0x3d, 0xec, 0xc1, 0x7b, 0xbd, 0xbb, 0x4f, 0x9e, 0x3d,
  0x5e, 0xa5, 0xb7, 0xbd, 0xa2, 0x45, 0xa3, 0xbe, 0x52, 0x7b, 0xe8, 0xbb,
  0xaa, 0xd2, 0x94, 0x3d, 0xfc, 0xec, 0x1a, 0xbd, 0x9d, 0x66, 0x73, 0x3d,
  0xb8, 0x7c, 0x81, 0xbe, 0x18, 0x5b, 0xec, 0xbe, 0x70, 0xf2, 0x05, 0xbe,
  0x61, 0x10, 0x38, 0xbf, 0xd6, 0x98, 0x0b, 0xbd, 0x05, 0x8e, 0x71, 0xbe,
  0x58, 0x4a, 0x78, 0xbe, 0xf9, 0x45, 0xf9, 0xbd, 0x56, 0xd8, 0xb7, 0xbc,
  0xf2, 0x36, 0x05, 0xbd, 0x37, 0xb3, 0x3d, 0xbe, 0xda, 0xa3, 0xf7, 0xbe,
  0x0e, 0xdc, 0x27, 0x3c, 0x57, 0xb1, 0x95, 0xbe, 0x44, 0xe7, 0x74, 0x3c,
  0x14, 0x5e, 0xc8, 0xbe, 0x6b, 0x8f, 0x96, 0x3e, 0x71, 0x2f, 0x15, 0xbe,
  0x47, 0x7f, 0x09, 0xbf, 0xc6, 0x56, 0xdb, 0x3d, 0x85, 0x88, 0xf6, 0x3d,
  0x1e, 0xea, 0xe2, 0xbe, 0xad, 0xef, 0x7c, 0xbf, 0x50, 0x55, 0x8e, 0x3b,
  0x32, 0x4d, 0x7f, 0xbe, 0x35, 0xba, 0x97, 0x3d, 0x17, 0xf3, 0x5f, 0xbe,
  0x29, 0x6b, 0x2f, 0x3d, 0xf8, 0x9f, 0x37, 0x3e, 0x4a, 0x55, 0xce, 0xbc,
  0x8e, 0xd6, 0x8d, 0x3d, 0xf9, 0x75, 0x9c, 0xbd, 0xde, 0xb0, 0x4e, 0x3e,
  0xa7, 0xe4, 0x0b, 0x3f, 0x6c, 0xb1, 0xb6, 0x3c, 0xf0, 0x13, 0x9a, 0xbd,
  0xb4, 0x65, 0x85, 0x3c, 0x02, 0xd3, 0x72, 0xbd, 0xce, 0x62, 0x5c, 0x3e,
  0x8c, 0x0d, 0x21, 0xbe, 0x65, 0xa8, 0xbc, 0x3d, 0xe9, 0xaa, 0xb9, 0xbb,
  0xf5, 0xc5, 0x53, 0xbe, 0x1b, 0xee, 0xb4, 0x3e, 0x30, 0xc7, 0x1c, 0x3e,
  0x06, 0x68, 0x85, 0x3c, 0x10, 0x6b, 0x2a, 0xbd, 0x6d, 0x97, 0xfa, 0xbc,
  0xb5, 0x52, 0xfd, 0x3e, 0x28, 0xac, 0xbf, 0xbe, 0x02, 0xba, 0x83, 0xbe,
  0x85, 0xd5, 0x8f, 0xbe, 0xac, 0x3c, 0xc6, 0x3c, 0x1c, 0x64, 0xbf, 0x3c,
  0xe7, 0x38, 0xbc, 0xbe, 0xb0, 0x5c, 0xb2, 0x38, 0xc0, 0xd9, 0x8f, 0x3c,
  0x7f, 0xac, 0x03, 0xbe, 0x26, 0xae, 0x59, 0xbe, 0x6d, 0xf9, 0x36, 0x3e,
  0x9b, 0x50, 0x99, 0xbd, 0x08, 0x3f, 0x2f, 0xbd, 0x4c, 0x90, 0x09, 0xbf,
  0x45, 0x52, 0x48, 0x3b, 0x93, 0xf2, 0x87, 0x3e, 0x13, 0xd7, 0xd0, 0x3e,
  0xa4, 0xdd, 0x5f, 0xbd, 0x0f, 0xe6, 0x86, 0x3d, 0x62, 0x51, 0xf0, 0x3d,
  0x05, 0xdd, 0xd8, 0x3c, 0xec, 0x1f, 0x93, 0xbd, 0x94, 0x51, 0x47, 0x3d,
  0x9a, 0xdc, 0x22, 0x3d, 0x43, 0xdf, 0xe5, 0xbe, 0x42, 0x09, 0x57, 0x3d,
  0x3f, 0xfc, 0x56, 0x3e, 0x20, 0xb3, 0xe2, 0x3e, 0x0f, 0x28, 0xe1, 0x3c,
  0x05, 0x1d, 0x89, 0xbe, 0x19, 0xbc, 0xb0, 0x3d, 0xae, 0x87, 0x2c, 0xbe,
  0x9a, 0xa3, 0x8e, 0xbe, 0x7c, 0x62, 0x47, 0xbd, 0x46, 0x29, 0x2d, 0x3d,
  0x9b, 0x2f, 0xc7, 0xbd, 0x8c, 0xdc, 0xef, 0x3d, 0x3f, 0x20, 0xa7, 0xbe,
  0x17, 0x54, 0x5a, 0xba, 0xba, 0xe1, 0x3e, 0xbd, 0x54, 0x74, 0x2b, 0xbe,
  0x59, 0x68, 0x20, 0xbe, 0x6e, 0x04, 0xca, 0xbd, 0x06, 0xca, 0x48, 0x3d,
  0xbf, 0x7d, 0x6e, 0x3e, 0x06, 0x2a, 0xd4, 0xbd, 0x5a, 0xad, 0x16, 0xbe,
  0x79, 0xab, 0x64, 0xbe, 0x8c, 0x92, 0xd7, 0xbe, 0xd3, 0x75, 0xa7, 0xbe,
  0xde, 0xb4, 0xd2, 0xbe, 0xc6, 0x19, 0x18, 0xbe, 0xb7, 0x05, 0xf2, 0xbe,
  0x53, 0xe0, 0x93, 0xbe, 0xae, 0x22, 0x23, 0xbd, 0x5a, 0x37, 0x8a, 0xbe,
  0xfa, 0x47, 0xa2, 0xba, 0xbb, 0x2a, 0x8b, 0xbd, 0xa2, 0xac, 0x12, 0x3d,
  0x9e, 0x42, 0xbd, 0x3e, 0x5c, 0xa6, 0x91, 0x3e, 0x26, 0x23, 0x3b, 0xbd,
  0x80, 0x51, 0xed, 0xbc, 0xef, 0x4e, 0xbd, 0x3e, 0x36, 0x61, 0xee, 0x3d,
  0x9d, 0xc7, 0xa2, 0xbd, 0x19, 0x66, 0x7a, 0x3e, 0x21, 0x95, 0xb8, 0xbd,
  0x1c, 0x85, 0xb7, 0x3b, 0x79, 0x48, 0xe0, 0x3c, 0x95, 0x2b, 0x1c, 0x3d,
  0xc3, 0xca, 0x55, 0x3e, 0xdd, 0x6a, 0x99, 0xbd, 0x69, 0xbf, 0x9d, 0xbd,
  0xe2, 0xe1, 0x00, 0xbe, 0x04, 0x38, 0x5e, 0xbe, 0x6c, 0x2d, 0x9c, 0x3d,
  0x1d, 0xd2, 0x5a, 0xbb, 0x40, 0xa6, 0xe5, 0xbc, 0x70, 0xed, 0x18, 0x3e,
  0x1c, 0x64, 0xe4, 0xbd, 0x30, 0xf3, 0xb7, 0xbd, 0x5c, 0x5a, 0xb8, 0xbe,
  0x1b, 0xca, 0x00, 0xbe, 0x49, 0xcb, 0x16, 0xbd, 0xb2, 0x19, 0xc6, 0xbd,
  0xf6, 0x1e, 0xfb, 0xbd, 0xc0, 0x30, 0x0e, 0x3b, 0x89, 0x6a, 0x14, 0x3e,
  0x8b, 0xa2, 0x24, 0xbe, 0xd3, 0x99, 0x53, 0xbe, 0x20, 0xc9, 0x5a, 0xbd,
  0x57, 0x33, 0x2e, 0xbe, 0xac, 0x1f, 0xba, 0x3d, 0x06, 0x58, 0x10, 0xbe,
  0x12, 0x6b, 0x59, 0x3e, 0xa6, 0x7c, 0xfb, 0xbe, 0xe8, 0xe1, 0xac, 0xbe,
  0x49, 0x74, 0x27, 0xbf, 0xdf, 0xd1, 0xac, 0x3b, 0x38, 0x64, 0x2e, 0xbe,
  0x45, 0x21, 0xae, 0xbe, 0x7b, 0x1c, 0x1a, 0xbe, 0x62, 0x52, 0x0e, 0xbe,
  0xa9, 0x04, 0x9c, 0x3e, 0xe2, 0x53, 0x90, 0xbe, 0x64, 0xf6, 0x72, 0x3d,
  0x2c, 0xca, 0xce, 0xbc, 0xdd, 0xaf, 0x4d, 0xbe, 0x38, 0x30, 0x6e, 0xbe,
  0x5a, 0xf4, 0xbc, 0x3d, 0xcb, 0xb8, 0x44, 0xbe, 0xb5, 0x9a, 0x33, 0xbe,
  0x52, 0x54, 0xad, 0x3d, 0xce, 0x00, 0x00, 0x3f, 0x48, 0xac, 0x76, 0x3d,
  0x81, 0x6d, 0xd8, 0x3c, 0x50, 0xeb, 0x63, 0x3e, 0x7f, 0x6c, 0x84, 0xbe,
  0xe0, 0x53, 0xbe, 0x3e, 0x54, 0xc7, 0xcf, 0x3e, 0x85, 0x92, 0xac, 0xbe,
  0xa3, 0xce, 0xe6, 0x3d, 0xba, 0x3e, 0xcb, 0xbe, 0xb6, 0xcc, 0x60, 0xbc,
  0xb7, 0x25, 0x12, 0xbe, 0x9c, 0xd2, 0xd5, 0xbe, 0x2e, 0x14, 0xb1, 0x3d,
  0xe2, 0x2e, 0x2c, 0x3d, 0xd8, 0xf1, 0xfc, 0xbe, 0x6e, 0xf6, 0x29, 0x3e,
  0x62, 0x06, 0x5d, 0xbe, 0x76, 0xcf, 0x11, 0x3e, 0x7b, 0x6a, 0x9d, 0xbe,
  0xb2, 0x2c, 0xfb, 0xbd, 0xbd, 0x57, 0x7b, 0x3e, 0x7f, 0x10, 0x2c, 0xbe,
  0xac, 0xf9, 0xfd, 0xbe, 0x59, 0xf4, 0x06, 0x3e, 0xc8, 0xab, 0x9c, 0x3d,
  0x71, 0xc5, 0x9f, 0x3e, 0x91, 0x4b, 0x89, 0xbe, 0x6d, 0x7c, 0xea, 0x3d,
  0x6a, 0x15, 0x11, 0x3e, 0xa0, 0xd8, 0x99, 0xbe, 0x62, 0xb3, 0xec, 0xbd,
  0x96, 0x4e, 0xe0, 0xba, 0x9e, 0x28, 0x82, 0x3d, 0x26, 0x42, 0x6d, 0x3e,
  0x70, 0xc0, 0xf2, 0xbe, 0x47, 0x53, 0x6e, 0xbe, 0xd7, 0x5d, 0x88, 0x3e,
  0x5f, 0x64, 0xcc, 0x3e, 0xf9, 0x92, 0x8f, 0xbe, 0xfc, 0x60, 0xf3, 0x3c,
  0x53, 0xbf, 0x18, 0xbe, 0xd7, 0x33, 0x9e, 0x3d, 0xd6, 0x0e, 0xe0, 0xbc,
  0xf3, 0x2b, 0x28, 0xbe, 0xbd, 0x9e, 0xc1, 0xbd, 0x24, 0x11, 0x81, 0x3e,
  0x91, 0xd8, 0x90, 0xbe, 0x1f, 0x53, 0xf0, 0x3d, 0x86, 0x92, 0x2d, 0x3e,
  0x56, 0xe3, 0x95, 0x3d, 0x7a, 0x80, 0x53, 0xbe, 0x13, 0xdb, 0x36, 0xbe,
  0x55, 0x63, 0xc0, 0xbd, 0x36, 0x0c, 0x97, 0x3d, 0x2e, 0x10, 0x5d, 0xbe,
  0xe0, 0x99, 0x8f, 0x3d, 0x83, 0x38, 0x0d, 0x3f, 0x25, 0x44, 0x92, 0xbc,
  0x4c, 0x39, 0x14, 0xbe, 0x33, 0xe2, 0x8b, 0xbd, 0x42, 0x27, 0x21, 0x3e,
  0xcd, 0x26, 0x14, 0x3e, 0x74, 0xfb, 0x0c, 0xbe, 0x0e, 0x67, 0x5b, 0x3d,
  0x20, 0x37, 0x0c, 0x3c, 0x0d, 0xbc, 0xa9, 0x3b, 0x71, 0x28, 0x01, 0x3d,
  0x8a, 0x52, 0x2e, 0xbe, 0x66, 0x54, 0x99, 0xbe, 0x5f, 0xad, 0xf0, 0xbe,
  0x89, 0xe8, 0x38, 0xbe, 0x3c, 0x60, 0xef, 0x3c, 0x6c, 0x9b, 0x96, 0x3d,
  0x0d, 0xdc, 0x5f, 0x3e, 0x27, 0x4e, 0x2d, 0xbe, 0xc5, 0xa4, 0xa6, 0xbe,
  0xa6, 0x2e, 0x35, 0xbe, 0x72, 0xaa, 0x81, 0xbe, 0x70, 0x0d, 0xc3, 0xbd,
  0x75, 0xa5, 0x2e, 0xbe, 0x92, 0x2e, 0x9e, 0xbd, 0x0e, 0x9e, 0xf6, 0xbc,
  0xa5, 0x83, 0x47, 0xbe, 0x60, 0x28, 0xcc, 0xbe, 0xc0, 0x80, 0x83, 0xbe,
  0x73, 0x71, 0xb7, 0xbe, 0x13, 0xdc, 0x52, 0x3d, 0xbf, 0xc5, 0x05, 0xbd,
  0xda, 0x18, 0xd9, 0x3d, 0x3d, 0x9c, 0x0a, 0x3d, 0x1b, 0xae, 0x62, 0xbe,
  0x01, 0xe7, 0x48, 0xbe, 0xf8, 0x8a, 0xbf, 0xbe, 0xaa, 0x50, 0x58, 0xbe,
  0xfc, 0x5d, 0x86, 0xbe, 0x57, 0xb9, 0x17, 0xbe, 0xfd, 0x34, 0xcf, 0xbe,
  0x7c, 0x94, 0xee, 0x3e, 0x8f, 0xdd, 0xa7, 0xbe, 0x1c, 0x06, 0xc1, 0xbd,
  0x82, 0xb1, 0x20, 0xbf, 0x4c, 0x44, 0x13, 0xbe, 0x21, 0xb0, 0x66, 0xbc,
  0xdf, 0xa6, 0xf7, 0xbd, 0x47, 0xbb, 0x90, 0xba, 0x33, 0x0e, 0x86, 0xbe,
  0xb9, 0x46, 0x1e, 0x3d, 0x05, 0xec, 0x3d, 0xbd, 0x27, 0xf5, 0x1b, 0xbf,
  0x3f, 0xaa, 0x29, 0xbe, 0x17, 0x4d, 0xe4, 0x3d, 0x24, 0x49, 0xad, 0xbd,
  0xe9, 0x22, 0x5b, 0xbc, 0xcc, 0xf0, 0x52, 0xbe, 0x45, 0x16, 0x84, 0x3e,
  0x71, 0x45, 0x32, 0xbb, 0x72, 0x27, 0xa8, 0xbd, 0x76, 0x93, 0x12, 0xbe,
  0xbc, 0xbc, 0xb9, 0x3b, 0x9c, 0x5b, 0x66, 0xbe, 0x9f, 0xb4, 0x4d, 0xbc,
  0x11, 0x28, 0xb6, 0xbd, 0xdd, 0x2e, 0x48, 0x3e, 0x32, 0xbe, 0x04, 0xbe,
  0x1f, 0x8f, 0x01, 0x3f, 0x12, 0xec, 0xfa, 0xbd, 0x79, 0x45, 0xd3, 0xbd,
  0x83, 0x44, 0xb1, 0xbd, 0xe4, 0x5d, 0x01, 0xbc, 0x3c, 0xf8, 0x4c, 0xbd,
  0x58, 0x8c, 0x0b, 0xbe, 0x26, 0xde, 0xff, 0xff, 0x10, 0x00, 0x00, 0x00,
  0x0a, 0x00, 0x00, 0x00, 0x1c, 0x00, 0x00, 0x00, 0x38, 0x00, 0x00, 0x00,
  0x04, 0x00, 0x00, 0x00, 0x10, 0x00, 0x00, 0x00, 0x04, 0x00, 0x00, 0x00,
  0x01, 0x00, 0x00, 0x00, 0x08, 0x00, 0x00, 0x00, 0x1a, 0x00, 0x00, 0x00,
  0x73, 0x65, 0x71, 0x75, 0x65, 0x6e, 0x74, 0x69, 0x61, 0x6c, 0x2f, 0x63,
  0x6f, 0x6e, 0x76, 0x32, 0x64, 0x5f, 0x31, 0x2f, 0x43, 0x6f, 0x6e, 0x76,
  0x32, 0x44, 0x00, 0x00, 0x9c, 0xdd, 0xff, 0xff, 0xa6, 0xde, 0xff, 0xff,
  0x04, 0x00, 0x00, 0x00, 0x80, 0x01, 0x00, 0x00, 0x56, 0x50, 0x1f, 0x3d,
  0x95, 0x25, 0xd4, 0x3d, 0x03, 0x1f, 0x1c, 0xbe, 0x66, 0x9a, 0x89, 0xbe,
  0xf9, 0xa3, 0x08, 0xbe, 0xb6, 0x66, 0x9a, 0x3e, 0x15, 0x54, 0xb4, 0xbd,
  0x96, 0xc7, 0xbf, 0xbd, 0x54, 0x9a, 0x14, 0x3e, 0xd5, 0xb1, 0x8c, 0xbc,
  0x2e, 0x2d, 0x72, 0x3d, 0x82, 0x94, 0x14, 0x3e, 0x1a, 0xbd, 0xb2, 0xbd,
  0xe4, 0xe7, 0x89, 0x3c, 0xc0, 0xee, 0xa0, 0x3b, 0xa5, 0x0b, 0x09, 0xbf,
  0x8f, 0x30, 0xaf, 0xbe, 0x19, 0x1a, 0xa5, 0x3d, 0x60, 0x05, 0xa2, 0x3e,
  0xd2, 0x87, 0x2f, 0x3e, 0xf1, 0x28, 0x8f, 0xbc, 0x90, 0x6c, 0xa3, 0x3e,
  0x4f, 0xac, 0x32, 0x3e, 0x4e, 0x46, 0xb8, 0xbd, 0xf2, 0x6f, 0x1f, 0xbe,
  0xf2, 0xab, 0x17, 0x3e, 0x26, 0x60, 0x72, 0x3e, 0x1c, 0x82, 0x07, 0xbd,
  0x62, 0x13, 0x1b, 0xbe, 0x42, 0xec, 0x31, 0x3e, 0x98, 0xae, 0x91, 0x3d,
  0xa4, 0x82, 0x39, 0xbe, 0x8e, 0x24, 0x95, 0xbe, 0x73, 0x49, 0x80, 0xbd,
  0x1f, 0x1d, 0x2d, 0x3d, 0x50, 0x0f, 0x8e, 0xbe, 0x5e, 0x01, 0x05, 0xbe,
  0x21, 0x94, 0x50, 0x3d, 0x85, 0xfb, 0x76, 0x3d, 0xbf, 0xa4, 0xb5, 0xbd,
  0xb7, 0xcb, 0x95, 0x3c, 0x6d, 0x4c, 0x71, 0xbb, 0x33, 0x93, 0x9f, 0xbd,
  0x31, 0x62, 0x9f, 0x3c, 0x74, 0xf5, 0x7d, 0xbc, 0x25, 0xe1, 0xdb, 0xbd,
  0xa2, 0xda, 0x1f, 0x3d, 0xf4, 0x73, 0x19, 0x3d, 0x7c, 0xa6, 0xab, 0x3d,
  0xec, 0x95, 0x8a, 0x3e, 0x9d, 0xcd, 0x54, 0xbe, 0xe0, 0xbd, 0x27, 0x3e,
  0x0f, 0xea, 0xa1, 0x3e, 0xf0, 0x42, 0x72, 0x3e, 0x41, 0x3a, 0x0b, 0xbe,
  0x25, 0x5e, 0xd6, 0xbe, 0xf4, 0xad, 0x1d, 0xbd, 0xbe, 0x70, 0x16, 0xbd,
  0x65, 0x58, 0x36, 0xbe, 0x89, 0x26, 0xdd, 0xbd, 0x61, 0xf1, 0x29, 0x3e,
  0x19, 0x1d, 0xff, 0xbb, 0x28, 0x3f, 0x80, 0xbe, 0x97, 0xf4, 0x8e, 0x3e,
  0x9c, 0xe6, 0x3e, 0x3d, 0x03, 0xb1, 0xfa, 0xbd, 0x82, 0xe8, 0xd4, 0x3d,
  0xdf, 0x2d, 0x10, 0xbc, 0xb8, 0x68, 0xfa, 0x3d, 0xba, 0xc4, 0x9e, 0xbe,
  0x77, 0x8f, 0x00, 0x3e, 0x67, 0x0f, 0x3d, 0x3e, 0xef, 0x52, 0x6e, 0x3e,
  0x8c, 0xd8, 0x86, 0xbe, 0xe6, 0x5a, 0x76, 0x3c, 0x7f, 0xb9, 0xc1, 0x3d,
  0xdd, 0x76, 0xa7, 0xbe, 0x43, 0x7c, 0x75, 0x3e, 0x4e, 0x60, 0x9f, 0xbe,
  0xf3, 0xc5, 0x72, 0x3e, 0xfb, 0x45, 0xfb, 0xbd, 0x11, 0x69, 0x18, 0xbe,
  0x1b, 0x9b, 0x02, 0x3e, 0xf3, 0xbd, 0xa1, 0xba, 0x0d, 0xa5, 0x14, 0x3c,
  0x31, 0x38, 0xeb, 0xbd, 0xa1, 0xfe, 0xac, 0xbc, 0xca, 0xd1, 0x03, 0xbe,
  0xd5, 0xc4, 0x53, 0x3b, 0x27, 0xc0, 0x14, 0x3d, 0x14, 0x82, 0x0d, 0xbe,
  0x9c, 0x63, 0xb3, 0x3c, 0x14, 0xa5, 0x09, 0xbd, 0x73, 0xf7, 0x81, 0xbd,
  0x62, 0x54, 0x09, 0x3c, 0x1d, 0x57, 0xd9, 0xbb, 0xfe, 0xdf, 0xff, 0xff,
  0x10, 0x00, 0x00, 0x00, 0x09, 0x00, 0x00, 0x00, 0x1c, 0x00, 0x00, 0x00,
  0x38, 0x00, 0x00, 0x00, 0x04, 0x00, 0x00, 0x00, 0x08, 0x00, 0x00, 0x00,
  0x04, 0x00, 0x00, 0x00, 0x03, 0x00, 0x00, 0x00, 0x01, 0x00, 0x00, 0x00,
  0x18, 0x00, 0x00, 0x00, 0x73, 0x65, 0x71, 0x75, 0x65, 0x6e, 0x74, 0x69,
  0x61, 0x6c, 0x2f, 0x63, 0x6f, 0x6e, 0x76, 0x32, 0x64, 0x2f, 0x43, 0x6f,
  0x6e, 0x76, 0x32, 0x44, 0x00, 0x00, 0x00, 0x00, 0x74, 0xdf, 0xff, 0xff,
  0x7e, 0xe0, 0xff, 0xff, 0x04, 0x00, 0x00, 0x00, 0xc0, 0x00, 0x00, 0x00,
  0x14, 0x2c, 0xfb, 0x3c, 0x14, 0xe8, 0x01, 0xbd, 0x86, 0xc6, 0x4c, 0xbe,
  0xd7, 0x7f, 0x1d, 0xbe, 0x5e, 0x69, 0x4b, 0x3e, 0x99, 0x3b, 0x9a, 0xbe,
  0x14, 0x70, 0xf0, 0x3d, 0x15, 0x83, 0x0e, 0x3d, 0x2f, 0xad, 0xac, 0x3d,
  0x6a, 0x11, 0x93, 0xbe, 0xd0, 0xe8, 0x13, 0xbe, 0xf7, 0x34, 0xee, 0xbc,
  0x41, 0xcd, 0x37, 0xbe, 0x4f, 0x88, 0x03, 0x3e, 0x4a, 0x30, 0xc7, 0x3e,
  0x42, 0xc5, 0x22, 0x3e, 0x73, 0x5b, 0x83, 0xbe, 0x6d, 0x9e, 0xa3, 0xbc,
  0x44, 0x31, 0x39, 0xbe, 0x7b, 0x66, 0x36, 0xbe, 0x37, 0x62, 0x5e, 0x3e,
  0xba, 0x76, 0x50, 0xbe, 0xe8, 0xe5, 0x3b, 0x3e, 0x71, 0xb1, 0xda, 0xba,
  0x73, 0xc2, 0xef, 0x3d, 0x86, 0x2a, 0x63, 0xbe, 0x03, 0x3f, 0x0a, 0xbe,
  0x95, 0x0c, 0xc6, 0x3e, 0x4b, 0x27, 0x48, 0xbe, 0xe7, 0x6c, 0x2f, 0x3e,
  0x20, 0x92, 0xa5, 0x3e, 0x0f, 0x15, 0x96, 0xbe, 0x3b, 0xea, 0x13, 0xbd,
  0x1c, 0x6f, 0xdf, 0x3c, 0x1e, 0xa0, 0x26, 0xbe, 0xcf, 0x11, 0x42, 0xbe,
  0xc2, 0x4b, 0x16, 0x3e, 0x6a, 0xf4, 0x1b, 0xbe, 0x8d, 0x96, 0xaa, 0x3d,
  0x15, 0x1a, 0xab, 0xbc, 0x2f, 0x71, 0x01, 0xbe, 0x24, 0x54, 0x9d, 0xbe,
  0x85, 0x8b, 0x7d, 0xbe, 0xbb, 0xd2, 0xa0, 0x3e, 0x05, 0xf7, 0xed, 0x3b,
  0x4a, 0xdd, 0x4e, 0x3e, 0x67, 0x0a, 0xb1, 0x3e, 0x7e, 0x5b, 0xf9, 0x3c,
  0x16, 0xe1, 0xff, 0xff, 0x10, 0x00, 0x00, 0x00, 0x08, 0x00, 0x00, 0x00,
  0x14, 0x00, 0x00, 0x00, 0x30, 0x00, 0x00, 0x00, 0x02, 0x00, 0x00, 0x00,
  0x03, 0x00, 0x00, 0x00, 0x10, 0x00, 0x00, 0x00, 0x19, 0x00, 0x00, 0x00,
  0x73, 0x65, 0x71, 0x75, 0x65, 0x6e, 0x74, 0x69, 0x61, 0x6c, 0x2f, 0x64,
  0x65, 0x6e, 0x73, 0x65, 0x5f, 0x31, 0x2f, 0x4d, 0x61, 0x74, 0x4d, 0x75,
  0x6c, 0x00, 0x00, 0x00, 0x84, 0xe0, 0xff, 0xff, 0x8e, 0xe1, 0xff, 0xff,
  0x04, 0x00, 0x00, 0x00, 0x00, 0x1c, 0x00, 0x00, 0x06, 0xc5, 0x7d, 0x3d,
  0x19, 0x01, 0x92, 0xbd, 0xe4, 0xd9, 0xa0, 0xbe, 0x52, 0x38, 0x3e, 0xbe,
  0x42, 0x26, 0x9f, 0xbe, 0x6c, 0x51, 0x91, 0x3d, 0x02, 0x2f, 0x51, 0xbe,
  0x66, 0xc6, 0x2d, 0xbe, 0x80, 0x27, 0x8b, 0xbe, 0x1b, 0x2d, 0xd6, 0x3d,
  0x4e, 0xa6, 0xe6, 0xbe, 0x8b, 0x1c, 0x22, 0xbe, 0xb3, 0x74, 0x8d, 0x3e,
  0xd2, 0x9b, 0x2d, 0xbe, 0x8b, 0xa8, 0xf3, 0x3f, 0x62, 0xb1, 0x58, 0xbe,
  0x0d, 0xbe, 0x39, 0x3e, 0xef, 0xeb, 0x50, 0xbc, 0x1c, 0xca, 0x39, 0xbe,
  0xac, 0x59, 0x95, 0xbd, 0x1e, 0xe9, 0x22, 0x3d, 0xec, 0x81, 0x08, 0xbc,
  0x8b, 0x59, 0x3e, 0xbe, 0x44, 0xe0, 0x8c, 0xbd, 0xac, 0x5c, 0xe3, 0x3c,
  0x85, 0xb9, 0x3d, 0xbe, 0x66, 0x87, 0xe1, 0xbe, 0x61, 0x02, 0x1f, 0x3e,
  0xad, 0x04, 0xff, 0xbd, 0xf3, 0x1f, 0xf1, 0xbe, 0x94, 0xc2, 0xe4, 0x3f,
  0x7f, 0x24, 0x80, 0xbc, 0x61, 0x4e, 0x7b, 0x3e, 0x93, 0x99, 0xc1, 0x3c,
  0x61, 0xef, 0xc7, 0x3c, 0xbe, 0x6c, 0x71, 0xbc, 0xab, 0x89, 0x82, 0xbe,
  0x2d, 0x91, 0x77, 0xbc, 0x6d, 0x0c, 0xbb, 0xbd, 0x4c, 0x78, 0xd1, 0xbd,
  0x4c, 0xbf, 0x47, 0xbe, 0xa6, 0xea, 0xdd, 0x3d, 0xe3, 0x1d, 0x67, 0xbe,
  0xbb, 0x6f, 0x32, 0x3b, 0x1e, 0x10, 0x80, 0x3c, 0xc8, 0x71, 0x8b, 0xbe,
  0xae, 0x83, 0xd0, 0x3f, 0x7f, 0x0a, 0x25, 0xbe, 0x4a, 0x35, 0x02, 0x3f,
  0x63, 0xf9, 0x1d, 0x3e, 0xb6, 0x50, 0x79, 0xbc, 0x7a, 0x70, 0x59, 0x3e,
  0x06, 0xe7, 0xc3, 0xbd, 0x4d, 0x4a, 0xd8, 0x3c, 0xb2, 0x79, 0xc0, 0x3d,
  0x2f, 0x99, 0x90, 0x3d, 0x94, 0x8f, 0x22, 0xbe, 0x95, 0x89, 0x02, 0xbe,
  0xa3, 0x56, 0x9c, 0xbe, 0x81, 0x2f, 0xf5, 0x3d, 0xb7, 0x7d, 0x64, 0x3e,
  0x1d, 0xea, 0xaa, 0xbd, 0xb2, 0x47, 0x58, 0x3f, 0x24, 0x49, 0x8d, 0xbe,
  0x8b, 0x25, 0xb8, 0x3e, 0xd8, 0xf6, 0x46, 0x3e, 0x6d, 0x4a, 0x14, 0xbe,
  0xab, 0xaf, 0x7e, 0xbe, 0x5f, 0xff, 0x66, 0xbe, 0x6c, 0xac, 0x95, 0xbc,
  0xef, 0x11, 0xb9, 0xbd, 0xe0, 0xab, 0xcd, 0x3b, 0xc4, 0x79, 0x5e, 0xbe,
  0x9a, 0x06, 0x8f, 0x3d, 0x43, 0xd9, 0xb1, 0xbd, 0x3c, 0x54, 0x40, 0x3b,
  0x4a, 0x99, 0xe0, 0x3e, 0xf3, 0xbc, 0x8b, 0xbe, 0xb5, 0x3e, 0xb7, 0x3f,
  0x83, 0xd6, 0x86, 0xbe, 0xb3, 0x7d, 0xff, 0x3e, 0xb7, 0x89, 0x8a, 0xbd,
  0x0b, 0x49, 0xcb, 0xbb, 0xb6, 0x5a, 0x46, 0xbe, 0xd2, 0x47, 0x0b, 0xbe,
  0xd3, 0x90, 0x63, 0xbe, 0xaa, 0x85, 0x0b, 0x3c, 0xa7, 0x97, 0xb9, 0x3d,
  0x65, 0x00, 0x26, 0xbd, 0xce, 0xf5, 0x12, 0x3e, 0x0e, 0x2f, 0xaf, 0xbd,
  0x51, 0xa8, 0xcd, 0xbb, 0x9c, 0x85, 0x34, 0xbe, 0x4b, 0x07, 0x50, 0xbe,
  0x02, 0x27, 0xb6, 0x3f, 0xa2, 0x2e, 0x50, 0x3d, 0xe6, 0x26, 0x30, 0xbe,
  0x93, 0x98, 0xd8, 0x3d, 0x60, 0x2c, 0x76, 0xbd, 0xa6, 0x0d, 0x69, 0xbe,
  0x10, 0xed, 0x1e, 0xbe, 0xa7, 0x68, 0x2c, 0xbd, 0x5b, 0x5f, 0x95, 0xbe,
  0x03, 0xc8, 0x1b, 0x3d, 0x40, 0xda, 0xa6, 0xbd, 0xa2, 0x8d, 0x79, 0xbe,
  0x8b, 0x98, 0xa6, 0xbd, 0xbb, 0x0e, 0x28, 0xbe, 0xcd, 0xb9, 0xe0, 0xbc,
  0x45, 0xdd, 0xbd, 0xbe, 0x73, 0x8a, 0x4c, 0x3f, 0x82, 0xc2, 0x22, 0xbe,
  0x76, 0x25, 0x7a, 0xbe, 0xab, 0xdf, 0x94, 0xbe, 0x52, 0x6d, 0x7f, 0x3e,
  0x4d, 0xfd, 0x93, 0xbe, 0x5f, 0xa3, 0x32, 0xbe, 0xc1, 0xaa, 0x62, 0x3e,
  0x4b, 0xc2, 0x33, 0xbf, 0x75, 0xde, 0xd9, 0xbd, 0xf7, 0x07, 0x7b, 0xbd,
  0xca, 0x78, 0x05, 0xbf, 0xad, 0x25, 0x10, 0xbe, 0x73, 0x75, 0x55, 0x3d,
  0xcc, 0xab, 0xb2, 0x3e, 0xe3, 0x55, 0x46, 0x3d, 0x58, 0x8f, 0x26, 0xbe,
  0xbf, 0x5a, 0x09, 0xbe, 0xca, 0xe6, 0x89, 0xbe, 0x07, 0xef, 0xab, 0xbe,
  0xc2, 0x73, 0xad, 0x3d, 0xbc, 0x13, 0x3f, 0xbd, 0x83, 0x4f, 0x2f, 0x3e,
  0x54, 0x74, 0xcc, 0x3e, 0xaf, 0x8d, 0x95, 0x3e, 0xec, 0x55, 0x2b, 0xbe,
  0xdd, 0xc0, 0x89, 0x3e, 0x11, 0xf4, 0x5e, 0xbc, 0x35, 0xec, 0x60, 0x3d,
  0x0c, 0x36, 0x93, 0x3e, 0xcf, 0xf8, 0xf5, 0x3e, 0xe4, 0x43, 0x55, 0x3e,
  0x38, 0x4e, 0x32, 0xbe, 0x6d, 0x16, 0x05, 0x3f, 0x23, 0x47, 0x78, 0x3d,
  0x66, 0xe3, 0x36, 0xbe, 0xdd, 0x47, 0x10, 0x3e, 0x91, 0xcd, 0x55, 0x3e,
  0x5d, 0x5d, 0x20, 0x3e, 0xc1, 0x54, 0x36, 0x3f, 0x9c, 0x1d, 0xc3, 0x3e,
  0xa0, 0xdd, 0xad, 0x3d, 0xd8, 0x96, 0x98, 0x3e, 0x05, 0x11, 0x75, 0xbe,
  0xa0, 0x89, 0x02, 0x3e, 0xdb, 0xbe, 0xca, 0x3d, 0x77, 0x9f, 0xd8, 0x3e,
  0x2f, 0xfa, 0x24, 0x3e, 0x8e, 0xb8, 0xd7, 0xbd, 0x3f, 0xee, 0xcf, 0x3d,
  0x79, 0x83, 0x2f, 0xbd, 0xf0, 0x28, 0x80, 0xbd, 0x57, 0x40, 0xd2, 0x3c,
  0x9b, 0xfb, 0x31, 0x3d, 0x72, 0x34, 0xdf, 0xbd, 0x7e, 0xfe, 0xdf, 0x3d,
  0xb0, 0x93, 0xd5, 0x3c, 0xc1, 0x9a, 0x88, 0xbd, 0x20, 0x6f, 0xcb, 0x3d,
  0xe7, 0xfb, 0xa9, 0xbd, 0xcf, 0xd3, 0x6c, 0x3d, 0x44, 0x79, 0x60, 0x3d,
  0xf1, 0xe8, 0xf6, 0x3e, 0x41, 0x2a, 0x73, 0x3e, 0xec, 0xa9, 0xea, 0xbc,
  0x20, 0x4e, 0x48, 0x3e, 0xc5, 0x25, 0xeb, 0xbd, 0xbf, 0x17, 0x86, 0xbe,
  0x7f, 0xe7, 0xab, 0x3d, 0x71, 0xd7, 0x13, 0xbe, 0xc8, 0x19, 0xaf, 0x3d,
  0x73, 0xf7, 0x9a, 0x3e, 0xd3, 0x8a, 0xd7, 0x3d, 0xb5, 0x8e, 0x2e, 0xbd,
  0x1b, 0x30, 0xd8, 0x3d, 0x8e, 0x77, 0xc2, 0xbb, 0x1d, 0x6d, 0xc7, 0x3c,
  0xd0, 0xa5, 0x29, 0x3c, 0x44, 0x67, 0x30, 0x3e, 0xbc, 0x85, 0x40, 0x3e,
  0x13, 0x1e, 0x15, 0xbe, 0xc6, 0x0b, 0x8b, 0xbe, 0x12, 0xa5, 0x27, 0xbe,
  0x96, 0xd8, 0x07, 0xbf, 0xd1, 0xbc, 0xbf, 0xbd, 0x77, 0x42, 0x1e, 0x3c,
  0x36, 0xb6, 0xab, 0x3d, 0xa6, 0x57, 0xb5, 0x3e, 0x90, 0xaa, 0x62, 0x3e,
  0xb1, 0xd4, 0xbb, 0xbe, 0x55, 0x19, 0xfd, 0xbc, 0xf2, 0xec, 0x9c, 0x3c,
  0x80, 0x52, 0x90, 0xbd, 0x5d, 0xe1, 0xc0, 0xbd, 0x4a, 0x1b, 0x78, 0x3e,
  0x42, 0x64, 0xfb, 0x3c, 0x1e, 0xa7, 0xf3, 0x3c, 0xf6, 0xd1, 0xdc, 0xbe,
  0x81, 0xd0, 0x9b, 0xbc, 0x39, 0x8f, 0xb4, 0xbe, 0x67, 0x7b, 0x31, 0xbe,
  0x97, 0x77, 0xe6, 0xbc, 0x83, 0x93, 0x96, 0xbd, 0x8f, 0x61, 0xe4, 0x3e,
  0x7f, 0xb6, 0x27, 0xbe, 0x55, 0xdb, 0x27, 0xbe, 0x0d, 0xa3, 0xd3, 0x3c,
  0xcb, 0x84, 0x33, 0x3e, 0x40, 0xfa, 0x04, 0x3b, 0xd2, 0x53, 0x4f, 0xbc,
  0x00, 0x4e, 0x7b, 0x3e, 0x95, 0xa5, 0x73, 0x3d, 0x55, 0x6f, 0x99, 0x3e,
  0x35, 0xdb, 0x69, 0xbd, 0x44, 0x91, 0x98, 0xbe, 0xd5, 0x93, 0x23, 0xbc,
  0xde, 0xda, 0x7c, 0x3d, 0x9e, 0x0f, 0x8c, 0xbd, 0x7f, 0xc7, 0x1b, 0xbe,
  0x59, 0x3a, 0xc4, 0xbc, 0xd1, 0xbd, 0xe6, 0xbd, 0xc0, 0x12, 0x98, 0xbe,
  0xa5, 0xc4, 0x0f, 0xbe, 0x01, 0xe3, 0x0d, 0x3e, 0x10, 0xef, 0x93, 0xbe,
  0xea, 0x8e, 0xd8, 0xbc, 0xdc, 0x3c, 0x84, 0x3d, 0x83, 0xb5, 0xde, 0xbd,
  0x27, 0x66, 0x05, 0xbe, 0x56, 0x8a, 0x8f, 0xbc, 0x65, 0xd2, 0xb6, 0xbe,
  0x11, 0x4b, 0x2b, 0x3e, 0x32, 0x71, 0x99, 0x3e, 0xb8, 0xb1, 0x0a, 0xbe,
  0x7e, 0x53, 0x91, 0x3e, 0xab, 0x0d, 0x6b, 0xbd, 0x9f, 0xe4, 0x39, 0xbe,
  0xaf, 0x6d, 0xb1, 0x3d, 0x3d, 0x8a, 0x8e, 0x3c, 0xcf, 0x57, 0xff, 0x3e,
  0xa0, 0xba, 0x53, 0xbe, 0xad, 0x40, 0x47, 0xbe, 0x80, 0xca, 0x98, 0x3e,
  0xe7, 0xe9, 0x9b, 0xbd, 0xc2, 0x32, 0x14, 0xbe, 0x3c, 0x9b, 0xff, 0xbd,
  0xb1, 0x7a, 0x97, 0x3d, 0x70, 0x2b, 0x39, 0xbd, 0x33, 0xe5, 0x89, 0x3e,
  0x33, 0xf3, 0xf7, 0x3c, 0x17, 0x61, 0x89, 0x3d, 0xf1, 0xf4, 0x74, 0xbd,
  0x22, 0x7f, 0xca, 0x3a, 0xda, 0xca, 0xe4, 0x3d, 0x4a, 0xca, 0x1c, 0x3e,
  0xb0, 0x5e, 0xab, 0x3e, 0x2b, 0x63, 0xca, 0xbe, 0xb4, 0x66, 0xc7, 0x3d,
  0x0a, 0x25, 0x87, 0x3e, 0x42, 0x5e, 0xab, 0x3e, 0xde, 0xff, 0x6f, 0x3d,
  0xad, 0x6d, 0x77, 0xbd, 0x63, 0x38, 0x94, 0x3d, 0x5d, 0xb6, 0xf8, 0xbb,
  0xa1, 0xbd, 0x72, 0xbe, 0x55, 0x10, 0x12, 0xbd, 0x6e, 0xcf, 0x26, 0x3e,
  0xd9, 0x18, 0xc5, 0x3d, 0xd0, 0x85, 0xad, 0xbd, 0x5a, 0xd8, 0x5b, 0x3e,
  0x66, 0x86, 0x2a, 0x3e, 0x05, 0xcd, 0x0f, 0x3d, 0x89, 0x7e, 0x34, 0xbe,
  0x87, 0x7a, 0xe6, 0xbd, 0xf9, 0xf1, 0x93, 0x3c, 0x8d, 0xb1, 0x57, 0xbe,
  0xb4, 0xaa, 0x24, 0xbe, 0x4f, 0xeb, 0x72, 0xbe, 0xbb, 0xfa, 0x98, 0x3d,
  0x67, 0xaf, 0x47, 0xbd, 0x4b, 0xa5, 0xaf, 0xbc, 0xf9, 0x9b, 0xff, 0xbc,
  0x0a, 0x6f, 0xc7, 0xbd, 0x73, 0x8e, 0xb5, 0xbc, 0xbd, 0x34, 0x6b, 0x3e,
  0xee, 0x66, 0x07, 0x3d, 0x1d, 0x0d, 0x09, 0x3e, 0x36, 0x1c, 0xbd, 0x3e,
  0x65, 0xa3, 0xfa, 0xbd, 0x96, 0xfa, 0x94, 0x3d, 0x85, 0x46, 0x11, 0x3e,
  0x7a, 0x4a, 0xa0, 0xbd, 0x52, 0x63, 0xf1, 0xbd, 0x66, 0xfa, 0x5e, 0xbd,
  0x53, 0xc0, 0xfd, 0x3d, 0x3a, 0x4e, 0x83, 0xbe, 0x0c, 0x49, 0xb4, 0xbd,
  0x5f, 0x8c, 0xcf, 0xbd, 0xa1, 0xe0, 0x19, 0xbe, 0xca, 0x64, 0xc7, 0x3d,
  0x21, 0x4a, 0x24, 0x3e, 0xe4, 0x2d, 0xe0, 0xbc, 0x6e, 0x8c, 0xa0, 0x3d,
  0x62, 0xbe, 0x4e, 0x3e, 0xad, 0xdf, 0xf5, 0xbd, 0xd2, 0x6d, 0xe9, 0xbc,
  0x55, 0x26, 0xf5, 0xbd, 0x63, 0x1e, 0xd8, 0x3c, 0x00, 0x72, 0xf6, 0x3d,
  0xc0, 0x63, 0x37, 0x3c, 0x3c, 0x31, 0x55, 0xbe, 0x9c, 0x57, 0x7a, 0x3c,
  0xef, 0xbb, 0xc6, 0x3d, 0x9c, 0x2a, 0x06, 0xbe, 0xb5, 0x89, 0xf8, 0xbc,
  0xa3, 0x87, 0x1c, 0xbe, 0xbd, 0x54, 0xc2, 0xbc, 0x71, 0xb8, 0xfa, 0x3c,
  0xc6, 0x47, 0x92, 0xbd, 0x4f, 0x29, 0x71, 0xbe, 0xa1, 0x14, 0x24, 0xbe,
  0xa7, 0x0e, 0xb4, 0x3e, 0x3a, 0xbb, 0x92, 0x3e, 0x34, 0xf4, 0x42, 0xbc,
  0xd8, 0xb8, 0x1d, 0xbd, 0x6c, 0x0e, 0xb5, 0x3d, 0x90, 0x43, 0x24, 0x3e,
  0xdc, 0xb3, 0x97, 0x3c, 0x98, 0x4c, 0xa0, 0xbd, 0x87, 0x48, 0xf8, 0xbd,
  0x34, 0x15, 0x9e, 0xbe, 0x30, 0xe3, 0xf0, 0x3d, 0xd9, 0x14, 0x17, 0x3e,
  0x6b, 0x35, 0xcd, 0xbd, 0x8d, 0xe1, 0x90, 0xbd, 0x02, 0xf9, 0xbd, 0x3d,
  0x9e, 0xf3, 0xc4, 0x3d, 0xc8, 0xbe, 0x57, 0xbe, 0x63, 0x7d, 0xa8, 0xbe,
  0xf5, 0x48, 0xa3, 0xbe, 0x38, 0x8a, 0xa1, 0x3f, 0x0f, 0xfb, 0xa5, 0xbc,
  0xf3, 0x0e, 0x51, 0x3e, 0xc9, 0x88, 0x0b, 0x3e, 0x26, 0x13, 0x00, 0xbd,
  0x51, 0x60, 0x0f, 0x3e, 0x78, 0x32, 0x89, 0xbd, 0xc3, 0x45, 0x1a, 0xbe,
  0xe3, 0x83, 0x09, 0xbe, 0x8f, 0xe5, 0x4b, 0xbe, 0xe6, 0x55, 0x1d, 0xbe,
  0xc0, 0x01, 0x7f, 0x3d, 0x4b, 0x5b, 0x85, 0xbc, 0x4e, 0x6b, 0x26, 0x3e,
  0xbd, 0x33, 0x26, 0xbf, 0xd0, 0x7e, 0x0f, 0xbf, 0xea, 0x30, 0x7f, 0x3f,
  0xa7, 0x89, 0x19, 0xbe, 0x9d, 0xe2, 0x04, 0x3e, 0xb1, 0xf1, 0x8f, 0x3e,
  0xcd, 0xcd, 0x07, 0xbd, 0xa3, 0x1f, 0x6a, 0x3e, 0x0d, 0x8a, 0x78, 0xbe,
  0xde, 0x46, 0x3f, 0x3c, 0x48, 0x2e, 0xf5, 0xbe, 0x48, 0x37, 0xaf, 0x3d,
  0xab, 0xb0, 0xfd, 0xbd, 0x90, 0x7a, 0x5a, 0xbe, 0xd0, 0x05, 0x2f, 0xbe,
  0xdd, 0x54, 0x9b, 0x3d, 0x36, 0xe9, 0xb6, 0xbe, 0x2b, 0x48, 0x19, 0xbe,
  0x22, 0x60, 0x88, 0x3f, 0xab, 0x0e, 0x61, 0xbd, 0xcc, 0xcd, 0xab, 0x3e,
  0x21, 0xbe, 0x94, 0x3e, 0xbb, 0x95, 0x43, 0xbd, 0xe7, 0xac, 0x6e, 0x3e,
  0x04, 0xed, 0x05, 0xbe, 0xf5, 0x3c, 0x49, 0x3e, 0xb0, 0x2a, 0x29, 0x3d,
  0x2f, 0xfa, 0x22, 0x3e, 0xa7, 0xf0, 0xe7, 0x3c, 0xaa, 0x06, 0xa4, 0xbe,
  0x9f, 0x43, 0x86, 0x3c, 0xf9, 0x68, 0x3a, 0x3e, 0x7a, 0x0e, 0x38, 0xbe,
  0xd6, 0x0c, 0x3b, 0xbe, 0x8b, 0x4b, 0xac, 0x3f, 0xfe, 0x41, 0x36, 0x3c,
  0xd4, 0x92, 0x8d, 0x3e, 0x2a, 0xce, 0x38, 0x3e, 0x25, 0x3c, 0x57, 0x3d,
  0x67, 0x97, 0x27, 0xbe, 0x50, 0xba, 0x7d, 0xbe, 0x40, 0xed, 0x06, 0xbe,
  0xbe, 0x3d, 0xb2, 0x3c, 0xeb, 0x7a, 0x6c, 0xbe, 0x86, 0xb2, 0xdd, 0xbe,
  0x45, 0x24, 0xd7, 0xbe, 0xf3, 0x58, 0x7e, 0x3d, 0x6e, 0xc2, 0x7b, 0xbe,
  0x5b, 0x5a, 0x08, 0xbf, 0xd6, 0x1b, 0xab, 0xbe, 0xa9, 0xcf, 0x9c, 0x3f,
  0xa7, 0x6f, 0x40, 0xbf, 0x13, 0x6c, 0x4f, 0x3e, 0x8f, 0xc5, 0x60, 0x3e,
  0x54, 0x0e, 0xed, 0x3c, 0x58, 0xf3, 0xac, 0xbe, 0xb9, 0xe4, 0xeb, 0xbc,
  0x16, 0xb8, 0x84, 0xbe, 0x4e, 0xfa, 0xeb, 0xbc, 0x1d, 0xbd, 0x44, 0xbe,
  0xdf, 0x26, 0x59, 0xbe, 0xf7, 0xc9, 0x4f, 0xbe, 0x1c, 0x63, 0x0c, 0x3e,
  0x1e, 0xe5, 0x1e, 0xbe, 0x22, 0x28, 0x60, 0xbe, 0xcc, 0xf2, 0xd2, 0xbe,
  0x9d, 0x40, 0x8f, 0x3f, 0x41, 0xec, 0x96, 0xbe, 0xe7, 0x36, 0x92, 0x3c,
  0xc4, 0x89, 0xdf, 0x3d, 0xb6, 0x65, 0x9e, 0x3d, 0x98, 0x61, 0x37, 0xbe,
  0x0a, 0x9f, 0x57, 0xbd, 0x86, 0x76, 0x39, 0xbe, 0x64, 0x10, 0x25, 0x3e,
  0xa2, 0x68, 0x87, 0x3d, 0x7f, 0xb1, 0x12, 0xbe, 0xce, 0x07, 0x84, 0xbe,
  0x78, 0xb3, 0x8c, 0x3b, 0xb0, 0xe3, 0x42, 0xbe, 0xcd, 0x92, 0x7e, 0xbe,
  0x4d, 0xf5, 0x1d, 0xbe, 0x74, 0x86, 0x15, 0x3f, 0x2a, 0xc6, 0x9a, 0xbd,
  0x2e, 0x0b, 0x22, 0xbe, 0x11, 0x00, 0xd1, 0xbc, 0x0d, 0x40, 0x1d, 0xbe,
  0x58, 0xcd, 0x09, 0x3e, 0xde, 0x7e, 0xb9, 0x3d, 0xd1, 0x5e, 0xea, 0xbd,
  0xf3, 0xba, 0x69, 0x3d, 0x24, 0x01, 0x3c, 0x3e, 0xdd, 0xb1, 0x0c, 0x3e,
  0x45, 0x41, 0x35, 0x3e, 0xd7, 0xad, 0x34, 0x3e, 0xbf, 0x2c, 0x9d, 0x3e,
  0xe9, 0xfb, 0x46, 0xbe, 0x27, 0xa8, 0xed, 0x3c, 0x03, 0xe9, 0x8e, 0x3d,
  0xd2, 0x50, 0x63, 0x3e, 0xd0, 0xbe, 0xbf, 0xbd, 0xb5, 0x92, 0x4b, 0x3d,
  0xa7, 0x78, 0x4b, 0xbd, 0xe9, 0xd0, 0xef, 0x3d, 0x2e, 0x82, 0x6c, 0xbe,
  0xf2, 0x89, 0x33, 0x3e, 0x02, 0x08, 0xfb, 0xbe, 0x12, 0x38, 0x68, 0x3e,
  0xf9, 0xd8, 0x47, 0xbe, 0x2d, 0x4b, 0x54, 0xbd, 0x7b, 0xfe, 0x14, 0xbd,
  0xc4, 0x36, 0x88, 0xbd, 0x28, 0xd3, 0x4f, 0xbe, 0xdb, 0x90, 0x2b, 0xbe,
  0x1f, 0x3f, 0xc4, 0xbd, 0xda, 0xb8, 0x5d, 0xbe, 0xd9, 0x97, 0xb3, 0x3d,
  0xb4, 0x17, 0x01, 0xbf, 0x87, 0x7e, 0xe3, 0x3c, 0x98, 0x91, 0x5e, 0xbd,
  0x04, 0xae, 0xc9, 0xbd, 0x5c, 0x0b, 0xd0, 0xbc, 0xde, 0x1f, 0x37, 0xbe,
  0xe3, 0x23, 0x18, 0xbe, 0x04, 0xb2, 0x30, 0xbe, 0x10, 0x4c, 0x86, 0x3c,
  0xf5, 0x88, 0x22, 0xbd, 0xb6, 0xc3, 0xae, 0xbe, 0xdb, 0x5c, 0x74, 0xbe,
  0xbd, 0x74, 0xe1, 0xbc, 0x4e, 0xb8, 0x8d, 0x3d, 0xd4, 0x24, 0x85, 0xbe,
  0xf7, 0xd6, 0x01, 0xbf, 0x59, 0x71, 0x01, 0xbf, 0x8a, 0x85, 0x19, 0xbd,
  0x94, 0x95, 0x4e, 0xbc, 0x53, 0x49, 0x2e, 0xbe, 0x38, 0xb2, 0x09, 0x3e,
  0x33, 0xc0, 0x06, 0x3d, 0x48, 0xf0, 0x65, 0xbe, 0x52, 0xc0, 0x69, 0x3e,
  0x05, 0x76, 0xf5, 0xbb, 0xa7, 0x46, 0xab, 0xbd, 0x06, 0xec, 0xf9, 0xbd,
  0x7a, 0x19, 0x45, 0xbe, 0x73, 0xe7, 0xb1, 0xbd, 0xc3, 0xa8, 0x31, 0xbe,
  0x7c, 0x30, 0x7b, 0xbe, 0xa2, 0x2a, 0xd9, 0xbe, 0x01, 0x71, 0x09, 0xbe,
  0x6f, 0x09, 0x1b, 0xbd, 0xb2, 0x4b, 0xb6, 0xbd, 0x92, 0xef, 0x39, 0xbd,
  0x19, 0xe2, 0xe6, 0x3d, 0x4f, 0x54, 0x04, 0x3e, 0x4f, 0xcb, 0xab, 0xbe,
  0x6d, 0xbf, 0x0c, 0x3c, 0xa4, 0x15, 0x8b, 0x3d, 0x18, 0x46, 0xd6, 0xbd,
  0x2b, 0x09, 0x0c, 0xbe, 0x86, 0x80, 0x4f, 0xbd, 0x56, 0x0f, 0xf1, 0x3c,
  0x89, 0x68, 0x7e, 0x3e, 0xfd, 0xb4, 0x94, 0xbe, 0xe0, 0x3c, 0x46, 0xbf,
  0x8f, 0x4d, 0x84, 0xbe, 0x3e, 0x7c, 0xd0, 0x3c, 0x7f, 0x2e, 0x7c, 0xbe,
  0x6d, 0x25, 0x4b, 0xbd, 0x68, 0xbe, 0x24, 0x3c, 0xaa, 0xb9, 0xf8, 0x39,
  0x5b, 0xb1, 0x45, 0x3e, 0xda, 0xc3, 0xba, 0xbe, 0x73, 0x43, 0xc1, 0xbd,
  0xfd, 0xe8, 0x77, 0xbe, 0x8d, 0xf9, 0x8e, 0xbb, 0x66, 0xa8, 0x06, 0xbf,
  0x58, 0xfa, 0xc8, 0xbe, 0x7e, 0x00, 0x94, 0xbe, 0xca, 0x90, 0x3c, 0x3e,
  0xe5, 0xe4, 0x38, 0xbd, 0x64, 0x79, 0x22, 0x3e, 0x9f, 0x0b, 0x72, 0x3d,
  0x53, 0x55, 0xea, 0x3c, 0xa1, 0xc3, 0x27, 0x3e, 0x55, 0xba, 0x1d, 0xbe,
  0x9a, 0x26, 0x51, 0x3e, 0xb2, 0x3a, 0x40, 0x3e, 0x88, 0x05, 0xdc, 0x3d,
  0x2d, 0x36, 0x8f, 0x3b, 0x05, 0x33, 0x04, 0x3b, 0x3e, 0x5b, 0x78, 0x3e,
  0xe2, 0x42, 0x87, 0xbe, 0xa6, 0x3b, 0x33, 0xbd, 0x2a, 0x0a, 0x96, 0xbe,
  0xbd, 0x06, 0xc5, 0x3d, 0xbc, 0x28, 0x24, 0xbe, 0xde, 0x4e, 0x44, 0xbe,
  0x40, 0xf9, 0xf0, 0xbc, 0xeb, 0xb9, 0xf4, 0xbd, 0xfb, 0xdf, 0x7c, 0xbe,
  0x58, 0x1e, 0x2c, 0x3d, 0x38, 0xf0, 0x44, 0xbe, 0x30, 0x06, 0x7d, 0xbb,
  0xa2, 0x47, 0xd2, 0xbb, 0x79, 0xb4, 0x36, 0x3e, 0x49, 0xad, 0x78, 0xbe,
  0xf6, 0x57, 0x41, 0xbd, 0xdd, 0x1b, 0xb6, 0x3e, 0xaa, 0x07, 0x7f, 0xbd,
  0x12, 0xa0, 0x58, 0xbe, 0x71, 0x8a, 0xdd, 0x3e, 0x72, 0xc1, 0xcc, 0x3c,
  0x76, 0x54, 0x93, 0x3d, 0x05, 0x61, 0x2b, 0x3d, 0xe5, 0xef, 0x70, 0xbc,
  0xd5, 0xc8, 0xc0, 0xbd, 0xdb, 0x31, 0xc9, 0x3d, 0x3d, 0x70, 0x3d, 0x3e,
  0x5d, 0xe7, 0xa3, 0x3d, 0x3a, 0x7e, 0x67, 0x3e, 0x6f, 0x81, 0x3c, 0x3e,
  0x9a, 0xb0, 0x81, 0xbe, 0xb2, 0x9d, 0x18, 0xbe, 0x19, 0x4c, 0x29, 0x3f,
  0x6b, 0x48, 0xf4, 0x3a, 0x3b, 0xe7, 0x0d, 0xbd, 0x18, 0xaf, 0xd4, 0x3e,
  0x4c, 0x7d, 0x29, 0x3d, 0xdb, 0x44, 0x01, 0x3d, 0xdc, 0x0b, 0x62, 0x3e,
  0x9b, 0xb5, 0x8e, 0xbd, 0x15, 0x89, 0xc8, 0x3d, 0x2a, 0x1d, 0x3d, 0x3e,
  0x23, 0x29, 0x54, 0x3f, 0x3f, 0x90, 0xd6, 0x3d, 0xb4, 0x30, 0x88, 0x3e,
  0xf9, 0xa0, 0xcd, 0x3c, 0xd7, 0x0b, 0x75, 0xbe, 0x4f, 0x97, 0x22, 0x3e,
  0x27, 0x2d, 0x0c, 0x3f, 0xb9, 0x93, 0x09, 0x3e, 0x87, 0x94, 0x72, 0xbe,
  0x85, 0x0f, 0xba, 0x3e, 0xbb, 0xc2, 0x82, 0x3d, 0x78, 0x2d, 0x2c, 0x3e,
  0x83, 0xb4, 0x9f, 0xbc, 0xfb, 0xda, 0x15, 0x3e, 0x2e, 0x55, 0xf2, 0x3d,
  0x5d, 0xa8, 0xec, 0x3d, 0x68, 0x67, 0x1d, 0x3f, 0x4e, 0x2f, 0xb3, 0xbd,
  0x63, 0x44, 0xe4, 0xbd, 0xa6, 0x42, 0xbe, 0x3e, 0x88, 0xce, 0x21, 0xbe,
  0x0c, 0xd8, 0x32, 0x3e, 0xc6, 0x6f, 0x98, 0x3e, 0x5c, 0x7e, 0x81, 0xbd,
  0x33, 0x44, 0xac, 0x3c, 0x12, 0x15, 0x0d, 0x3e, 0x51, 0x6a, 0x13, 0x3e,
  0xe2, 0x64, 0x81, 0xbd, 0x84, 0x9c, 0xd4, 0x3d, 0x4e, 0xd6, 0x54, 0x3e,
  0x65, 0x6b, 0x8f, 0xbc, 0xbf, 0x8e, 0x8b, 0x3d, 0xf0, 0xea, 0x09, 0x3e,
  0xc5, 0x8b, 0x0a, 0x3e, 0x86, 0xde, 0x93, 0x3e, 0x90, 0xe2, 0xab, 0xbc,
  0x84, 0x44, 0x20, 0xbe, 0x66, 0x58, 0x44, 0x3e, 0xc0, 0x88, 0x15, 0x3f,
  0x43, 0x9c, 0x23, 0x3d, 0xe1, 0x03, 0x50, 0xbd, 0x32, 0x48, 0x26, 0x3e,
  0x15, 0x2b, 0x43, 0x3e, 0xc6, 0x13, 0x60, 0xbe, 0xe5, 0x57, 0x10, 0xbe,
  0x2f, 0xd0, 0x59, 0x3b, 0x20, 0x41, 0x0a, 0x3c, 0x5d, 0x84, 0x9f, 0xbb,
  0x4a, 0x2c, 0x97, 0x3e, 0xc0, 0x90, 0x2f, 0x3d, 0xe7, 0xd2, 0x3e, 0x3d,
  0x63, 0x48, 0x66, 0x3d, 0x2e, 0xa2, 0x4b, 0xbe, 0x1b, 0x2d, 0xd0, 0xbb,
  0x14, 0x11, 0x39, 0x3f, 0xdb, 0x2f, 0xad, 0x3c, 0x9d, 0xe7, 0xc8, 0x3d,
  0x92, 0x40, 0x3f, 0xbc, 0xa7, 0xb6, 0x73, 0xbe, 0x92, 0x00, 0x2f, 0xbe,
  0xd0, 0x85, 0x8a, 0x3d, 0x89, 0x05, 0x09, 0x3e, 0xfa, 0xc5, 0x78, 0x3d,
  0x82, 0xa3, 0xd5, 0xbb, 0x42, 0xc3, 0x2d, 0xbd, 0xfa, 0xa5, 0x63, 0x3d,
  0x54, 0xac, 0x9c, 0x3d, 0x22, 0x26, 0x90, 0x3e, 0x7b, 0x6a, 0x4c, 0xbe,
  0x33, 0x7a, 0x18, 0x3e, 0xae, 0x25, 0x41, 0x3e, 0x1c, 0x89, 0x20, 0xbd,
  0x4b, 0xfa, 0x03, 0xbc, 0x71, 0x84, 0xfb, 0x3d, 0x35, 0x2f, 0x53, 0xbe,
  0x6d, 0xdc, 0x24, 0xbe, 0xd4, 0x0e, 0x18, 0xbf, 0x84, 0x4e, 0xa9, 0xbd,
  0x7c, 0xec, 0x63, 0xbe, 0x04, 0x21, 0x1b, 0x3d, 0x6a, 0xb5, 0x50, 0xbd,
  0x2a, 0x0f, 0xe5, 0xbd, 0x6d, 0x5b, 0x33, 0xbe, 0xbc, 0xed, 0x05, 0x3d,
  0xf5, 0x93, 0x44, 0xbe, 0xaf, 0xd0, 0x43, 0xbd, 0x52, 0x1c, 0x33, 0xbd,
  0xbb, 0x8d, 0xcb, 0xbd, 0x11, 0x87, 0xa8, 0x3c, 0x97, 0xc7, 0x24, 0xbe,
  0x5e, 0x4c, 0xc8, 0xbe, 0x18, 0x3f, 0xee, 0xbd, 0xc1, 0xd1, 0x64, 0xbf,
  0x56, 0xd5, 0x99, 0xbc, 0x12, 0x3b, 0xff, 0xbc, 0x8d, 0x22, 0xa8, 0x3c,
  0x73, 0x40, 0xb1, 0x3c, 0x89, 0x4b, 0x38, 0x3d, 0xd0, 0x8e, 0x11, 0x3d,
  0xfb, 0xdf, 0x17, 0xbb, 0xc7, 0x78, 0xd1, 0xbd, 0x9c, 0x9f, 0x77, 0xbe,
  0x30, 0xd8, 0x09, 0xbe, 0x97, 0x70, 0x5f, 0xbd, 0x1b, 0xba, 0xd3, 0x3d,
  0x12, 0x12, 0x28, 0xbe, 0xa3, 0x02, 0xf2, 0xbe, 0x2f, 0x3e, 0x4e, 0xbe,
  0xe1, 0xd9, 0x70, 0xbf, 0xe3, 0x1b, 0x04, 0xbc, 0xc9, 0xce, 0x0c, 0xbe,
  0x4f, 0x5b, 0x13, 0xbe, 0xb2, 0xf8, 0xd2, 0xbd, 0xd2, 0x06, 0xa4, 0xbc,
  0x8f, 0x5c, 0xad, 0x3d, 0x7d, 0xc4, 0xe0, 0x3d, 0x4e, 0xde, 0xec, 0xbd,
  0x1a, 0x71, 0x7a, 0xbe, 0xe4, 0xc7, 0x86, 0xbe, 0x58, 0x67, 0xc7, 0xbd,
  0x20, 0xb0, 0xdf, 0xbd, 0xc1, 0xb3, 0x64, 0xbe, 0x15, 0xa8, 0xb5, 0xbe,
  0x92, 0x73, 0xcf, 0xbe, 0xf3, 0xac, 0x5b, 0xbf, 0xa9, 0x8e, 0xb4, 0xbd,
  0x2b, 0xc9, 0x9f, 0x3d, 0x75, 0x56, 0x03, 0x3d, 0xa9, 0x3a, 0xd3, 0x3c,
  0x55, 0x13, 0x9e, 0xbc, 0xaa, 0xbe, 0x9a, 0xbd, 0x3a, 0xe6, 0xf8, 0x3c,
  0x21, 0x56, 0x12, 0xbe, 0xde, 0x06, 0xb0, 0xbd, 0x12, 0xf8, 0xfd, 0xbd,
  0x66, 0x00, 0xcf, 0xbb, 0xe4, 0xc4, 0x09, 0x3e, 0xe7, 0x50, 0x23, 0x3e,
  0x6c, 0xbe, 0x7c, 0xbe, 0x82, 0x93, 0x44, 0xbc, 0x84, 0x82, 0x1f, 0xbf,
  0x1c, 0x6a, 0x89, 0x3d, 0x54, 0x5b, 0x3c, 0x3e, 0x22, 0x30, 0x69, 0xbe,
  0x20, 0xb6, 0x4a, 0xbe, 0x2a, 0x04, 0x6d, 0x3e, 0x90, 0xf4, 0x49, 0x3d,
  0x23, 0x4d, 0xea, 0xbc, 0x13, 0x5b, 0xb9, 0xbd, 0xc3, 0x24, 0xe3, 0x3e,
  0x7f, 0x0e, 0xbb, 0xbd, 0x40, 0xb6, 0xce, 0x3b, 0x11, 0xac, 0x89, 0xbc,
  0xab, 0x47, 0xca, 0x3e, 0xdc, 0xea, 0x16, 0xbf, 0x6f, 0xfa, 0xdf, 0x3c,
  0x98, 0xfa, 0x29, 0xbe, 0x66, 0x85, 0x66, 0x3e, 0x33, 0xbd, 0x22, 0xbe,
  0x0c, 0xe5, 0xd8, 0x3d, 0x39, 0xfb, 0x2c, 0xbe, 0xb4, 0x97, 0x48, 0x3e,
  0xc7, 0x06, 0xb1, 0x3d, 0x38, 0xd5, 0x77, 0xbe, 0x81, 0x39, 0xc5, 0x3b,
  0x88, 0x2a, 0x1c, 0x3e, 0x8c, 0x98, 0x2c, 0xbe, 0x21, 0xac, 0xb1, 0x3c,
  0xe5, 0x4b, 0x66, 0xbe, 0xd0, 0xb9, 0xa2, 0x3e, 0xe5, 0xa5, 0x41, 0xbd,
  0x38, 0x13, 0xe7, 0x3c, 0xd5, 0x74, 0xa8, 0x3d, 0x17, 0x61, 0xfb, 0x3c,
  0xfb, 0x54, 0x1c, 0x3e, 0xb9, 0x56, 0x0b, 0xbe, 0x32, 0xba, 0x95, 0x3c,
  0x0d, 0xba, 0x00, 0x3e, 0x01, 0x18, 0x09, 0x3d, 0xf2, 0x4f, 0x5d, 0xbd,
  0x2c, 0x06, 0x3c, 0xb9, 0x8d, 0x93, 0x99, 0x3e, 0xe0, 0x18, 0xc5, 0xbd,
  0x91, 0xea, 0x9d, 0x3d, 0x80, 0x78, 0xa1, 0xbe, 0xa6, 0x1e, 0x64, 0x3e,
  0x7d, 0xc3, 0x7f, 0x3e, 0x90, 0x14, 0x45, 0x3d, 0x75, 0x0d, 0xbd, 0xbd,
  0x83, 0xf6, 0x11, 0xbe, 0x7b, 0xd4, 0xd3, 0xbd, 0xd9, 0xab, 0xd3, 0xbc,
  0x83, 0xbf, 0x8c, 0xbe, 0x8e, 0xfb, 0x32, 0xbe, 0x71, 0xc2, 0xb5, 0xbd,
  0xc2, 0x87, 0x02, 0xbe, 0xd4, 0x59, 0x5d, 0xbd, 0xab, 0x9f, 0x4d, 0xbe,
  0xba, 0x45, 0x95, 0xbd, 0xba, 0xcc, 0xd7, 0xbd, 0xc2, 0x62, 0x9c, 0x3f,
  0x18, 0xae, 0xde, 0x3d, 0xa7, 0x4f, 0x01, 0x3e, 0x51, 0x2c, 0x77, 0x3e,
  0xae, 0x4b, 0x41, 0x3d, 0xcc, 0x24, 0xa3, 0x3c, 0xa9, 0x3a, 0xb7, 0xbd,
  0xe2, 0xa2, 0x50, 0x3d, 0xee, 0x26, 0xb6, 0xbe, 0x86, 0x22, 0x3c, 0xbd,
  0xe1, 0xb1, 0x35, 0xbe, 0xfd, 0xf3, 0x84, 0xbd, 0x90, 0x54, 0x00, 0xbd,
  0x81, 0x27, 0xdb, 0x3d, 0x6a, 0x2e, 0xb6, 0xbe, 0xe8, 0x91, 0xf6, 0xbe,
  0x45, 0x46, 0xb3, 0x3f, 0xc5, 0xf9, 0xe1, 0xbd, 0xcd, 0x20, 0xe9, 0x3d,
  0xbc, 0x41, 0x79, 0x3e, 0xe3, 0xf3, 0xeb, 0xbd, 0xee, 0x8d, 0x89, 0x3d,
  0x58, 0x7f, 0x92, 0xbd, 0x04, 0xc2, 0xa8, 0xbd, 0x33, 0x6b, 0xbc, 0xba,
  0xd0, 0xa6, 0x37, 0xbe, 0xf4, 0xd1, 0x51, 0xbe, 0x09, 0xdc, 0x86, 0xbd,
  0x2c, 0xb6, 0xf8, 0x3c, 0xf4, 0xe2, 0x22, 0xbe, 0x3a, 0x45, 0x24, 0xbe,
  0x80, 0x9e, 0x44, 0xbe, 0x2c, 0xc9, 0xb4, 0x3f, 0x36, 0x92, 0x60, 0x3c,
  0x3c, 0x49, 0x36, 0x3e, 0xdc, 0xfd, 0x60, 0x3e, 0xb3, 0x2f, 0x2c, 0xbe,
  0xd6, 0xda, 0x71, 0xbd, 0xa8, 0xe3, 0x36, 0xbe, 0xce, 0x68, 0x28, 0xbe,
  0x5f, 0x96, 0x39, 0x3d, 0xd4, 0x47, 0xc2, 0xbc, 0x45, 0xe7, 0xa9, 0xbe,
  0x70, 0x66, 0xea, 0xbd, 0xe2, 0xda, 0x12, 0x3e, 0x34, 0x6a, 0x3f, 0xbd,
  0x2a, 0xe0, 0x4a, 0xbe, 0xf8, 0x7a, 0x15, 0xbe, 0x6b, 0xd9, 0xc4, 0x3f,
  0x3e, 0xb3, 0xe9, 0x3d, 0x26, 0x06, 0xd5, 0x3e, 0x83, 0x39, 0xea, 0xbc,
  0x70, 0xf0, 0x72, 0xbc, 0xae, 0xd9, 0x84, 0xbc, 0xb8, 0x8f, 0x0e, 0xbe,
  0x33, 0xc5, 0x89, 0x3d, 0x19, 0xa8, 0xca, 0xbd, 0xe1, 0xa1, 0xd9, 0xbb,
  0xbb, 0xc9, 0xe6, 0xbe, 0xce, 0xe1, 0xaf, 0xbe, 0x05, 0x12, 0x14, 0x3e,
  0xdf, 0x50, 0x26, 0x3e, 0x35, 0xb0, 0x2d, 0x3e, 0xe9, 0x16, 0xaf, 0xbe,
  0xa2, 0xa2, 0x99, 0x3f, 0x4e, 0xff, 0x8a, 0xbc, 0x6a, 0x1b, 0xa6, 0x3e,
  0x4f, 0x79, 0x54, 0x3e, 0xfc, 0xd3, 0x7b, 0x3d, 0x08, 0x06, 0x4c, 0xbe,
  0x6f, 0x78, 0x1c, 0xbe, 0x81, 0x78, 0x1e, 0xbd, 0xed, 0x61, 0xf5, 0x3c,
  0x95, 0x2c, 0x5a, 0xbd, 0x1f, 0x56, 0xab, 0xbe, 0x8a, 0x91, 0x00, 0xbe,
  0xf1, 0x6d, 0x30, 0xbd, 0x2d, 0x96, 0x94, 0x3c, 0x54, 0xb1, 0x91, 0xbd,
  0xe3, 0xb5, 0xde, 0xbd, 0x27, 0x59, 0xa6, 0x3f, 0xe4, 0xb4, 0x82, 0xbe,
  0x0f, 0xe9, 0x20, 0xbe, 0x86, 0x1b, 0xbf, 0x3d, 0x81, 0x1c, 0x29, 0x3d,
  0x80, 0x0b, 0xa2, 0xbe, 0xf4, 0x11, 0xd2, 0xbd, 0x84, 0xb8, 0x90, 0x3c,
  0xbf, 0xed, 0x49, 0xbe, 0xb2, 0x91, 0x15, 0xbd, 0x6e, 0x9d, 0x86, 0xbe,
  0x35, 0xd1, 0x86, 0xbe, 0xff, 0x4d, 0x8a, 0x3c, 0x62, 0x19, 0x22, 0xbe,
  0xe3, 0x2c, 0x11, 0xbe, 0x64, 0x56, 0x2a, 0xbe, 0x8b, 0xaf, 0x39, 0x3f,
  0x3b, 0x07, 0x9e, 0xbd, 0xb7, 0x15, 0x58, 0xbe, 0xba, 0x03, 0xc6, 0xbd,
  0xca, 0x59, 0xf0, 0xbd, 0x88, 0xc8, 0x82, 0xbe, 0xe6, 0x63, 0xe1, 0xbd,
  0xb4, 0x44, 0x1f, 0x3c, 0x15, 0xb9, 0x43, 0xbe, 0x25, 0x3b, 0x38, 0xbe,
  0x5c, 0x79, 0x34, 0xbe, 0x33, 0x5a, 0xcb, 0x3d, 0x11, 0x65, 0x7c, 0xbe,
  0x99, 0x5a, 0xf5, 0x3d, 0x40, 0x71, 0x89, 0xbd, 0xad, 0x8c, 0x63, 0x3b,
  0x27, 0xfe, 0x43, 0x3e, 0x42, 0xed, 0x4c, 0xbe, 0x67, 0xec, 0x5c, 0xbe,
  0xe9, 0x16, 0x96, 0xbd, 0x4b, 0xad, 0xa3, 0xbe, 0xfd, 0x0c, 0x6b, 0xbe,
  0xc3, 0x44, 0x33, 0xbe, 0xc7, 0x12, 0x64, 0xbd, 0x9b, 0x9e, 0x1a, 0x3e,
  0x70, 0xa1, 0x48, 0xbd, 0x11, 0x42, 0xa4, 0xbd, 0x9a, 0xb8, 0x05, 0x3e,
  0x3c, 0x21, 0x62, 0xbe, 0xcc, 0x67, 0x49, 0x3e, 0xa4, 0x2d, 0x52, 0xbe,
  0xe4, 0xe6, 0x8d, 0x3c, 0xa6, 0xd9, 0x29, 0x3e, 0x61, 0xba, 0xc8, 0xbd,
  0x47, 0x2a, 0x93, 0xbd, 0xb1, 0x8a, 0x69, 0x3d, 0x5f, 0x5c, 0xbb, 0xbd,
  0x76, 0xb1, 0x3f, 0xbe, 0xa8, 0xa5, 0xe2, 0xbb, 0x52, 0x01, 0x05, 0x3d,
  0xb8, 0x36, 0x04, 0xbe, 0xf3, 0x7a, 0x55, 0x3d, 0xbc, 0x5f, 0xf7, 0x3d,
  0x4c, 0xe0, 0x1f, 0x3d, 0xe1, 0xae, 0x6d, 0xbe, 0xaf, 0x0a, 0x08, 0x3c,
  0x8b, 0x98, 0x5b, 0xbe, 0xb6, 0x6b, 0x5a, 0xbe, 0xca, 0x5c, 0x67, 0x3d,
  0x90, 0xd6, 0x46, 0xbd, 0x57, 0x76, 0x00, 0x3d, 0x1d, 0x61, 0x47, 0xbe,
  0xa9, 0xd5, 0xe5, 0xbe, 0x9f, 0xb9, 0x64, 0xbe, 0xdd, 0xd5, 0xb2, 0x3d,
  0x6d, 0x39, 0x57, 0x3c, 0x47, 0x28, 0x5a, 0xbe, 0xb9, 0x01, 0x7a, 0xbb,
  0x7b, 0x7d, 0x4b, 0xbe, 0xeb, 0xa9, 0x82, 0xbb, 0x96, 0x8b, 0xab, 0xbd,
  0x37, 0x94, 0x76, 0x3d, 0xb4, 0xe9, 0xdb, 0xbd, 0xc9, 0x11, 0x80, 0xbe,
  0x4b, 0x2d, 0x8a, 0xbd, 0x55, 0x8c, 0xec, 0xbd, 0xb2, 0x88, 0x86, 0xbe,
  0x63, 0x4e, 0x09, 0x3d, 0x60, 0x6f, 0x31, 0xbe, 0x92, 0x31, 0x1a, 0x3e,
  0xbb, 0xdc, 0x64, 0xbe, 0x90, 0x5f, 0x1e, 0xbd, 0x6e, 0xf7, 0x56, 0x3e,
  0xff, 0x0c, 0x88, 0xbd, 0x1c, 0xa5, 0xdc, 0x3b, 0xdc, 0x41, 0x5b, 0xbe,
  0xe0, 0x45, 0x2a, 0xbe, 0xee, 0xce, 0x28, 0xbe, 0x7b, 0xfd, 0x10, 0x3e,
  0x98, 0x3a, 0xde, 0xbd, 0xfc, 0xc9, 0x57, 0xbd, 0x45, 0x22, 0x53, 0xbe,
  0x36, 0xeb, 0x7c, 0xbd, 0x32, 0x82, 0x8e, 0xbe, 0x8b, 0x6a, 0x11, 0xbe,
  0x43, 0xd0, 0x5c, 0xbe, 0xb9, 0xed, 0x10, 0xbe, 0xaa, 0x10, 0x6b, 0xbe,
  0x74, 0x22, 0xd6, 0x3d, 0x62, 0x1d, 0xc1, 0x3d, 0x67, 0xcc, 0x8b, 0xbe,
  0xa2, 0x43, 0x2f, 0x3d, 0xdd, 0x9f, 0x38, 0xbe, 0x1d, 0xc0, 0x2e, 0x3d,
  0x77, 0xc5, 0xbb, 0xbd, 0x95, 0x50, 0x81, 0xbe, 0xca, 0xa2, 0x85, 0xbd,
  0x27, 0xf7, 0xe4, 0x3d, 0xd3, 0xac, 0x9a, 0xbe, 0xa8, 0x72, 0x94, 0xbd,
  0x09, 0x17, 0x2a, 0x3d, 0x44, 0x5a, 0x0f, 0xbd, 0x77, 0xd5, 0x1a, 0x3e,
  0x41, 0x2a, 0x8b, 0xbd, 0xf5, 0x8e, 0x2a, 0x3e, 0xf1, 0xf8, 0x8d, 0xbd,
  0xc0, 0x71, 0x22, 0x3e, 0x3a, 0x12, 0x0b, 0xbe, 0x4b, 0xe1, 0xfa, 0xbd,
  0x66, 0x27, 0xb7, 0x3d, 0xb8, 0x34, 0x3b, 0xbd, 0x8b, 0xe1, 0x6e, 0xbd,
  0xe0, 0x86, 0x45, 0xbd, 0x47, 0x10, 0x04, 0x3d, 0x43, 0x74, 0xad, 0xbe,
  0x7c, 0x4f, 0x35, 0x3d, 0x51, 0x39, 0xd5, 0xbe, 0xe6, 0x93, 0x21, 0x3e,
  0xa9, 0x3e, 0xa8, 0x3e, 0xc2, 0x34, 0x8b, 0xbc, 0xe9, 0x6d, 0x2f, 0x3e,
  0xfa, 0xe6, 0x6a, 0x3d, 0x0b, 0x17, 0x8d, 0x3e, 0xcb, 0x9f, 0x87, 0x3e,
  0x25, 0xea, 0xa3, 0xbc, 0x72, 0xee, 0x9a, 0x3e, 0x7f, 0x6a, 0xd5, 0xbe,
  0xb9, 0x9d, 0xad, 0x3d, 0x0e, 0xb5, 0x3d, 0xbe, 0x1b, 0x21, 0xd6, 0xbe,
  0x06, 0xce, 0xa6, 0xbd, 0x64, 0x81, 0xa6, 0xbe, 0x1e, 0x65, 0x53, 0x3d,
  0x92, 0x99, 0x14, 0xbd, 0x2b, 0x27, 0x2d, 0xbe, 0x97, 0xd9, 0x02, 0xbe,
  0x55, 0x93, 0xb9, 0xbe, 0x86, 0x2b, 0x84, 0xbe, 0x6e, 0x32, 0x0b, 0xbf,
  0x89, 0x13, 0xf7, 0x3d, 0x2e, 0x09, 0xf5, 0x3d, 0x45, 0x7c, 0x24, 0x3d,
  0xe0, 0xfa, 0x4f, 0xbe, 0x15, 0x3d, 0x61, 0xbe, 0x5d, 0x21, 0x04, 0xbe,
  0x11, 0xe4, 0x46, 0xbe, 0x0e, 0xb2, 0x1a, 0xbe, 0x04, 0x30, 0xf4, 0xbe,
  0x27, 0x0e, 0xdf, 0xbc, 0x05, 0x6d, 0x9f, 0xbd, 0x14, 0x25, 0x00, 0x3e,
  0xe2, 0x4d, 0x64, 0x3d, 0x08, 0xe6, 0x52, 0xbe, 0x0c, 0x14, 0x75, 0x3c,
  0x5c, 0x71, 0xc5, 0xbe, 0xd3, 0x8f, 0x20, 0x3d, 0x66, 0xc2, 0x90, 0xbd,
  0x34, 0xa0, 0x65, 0xbe, 0x0d, 0x2a, 0x7b, 0xbe, 0x0f, 0xc4, 0x30, 0xbe,
  0x85, 0x46, 0x73, 0x3e, 0x8d, 0x2b, 0xb6, 0x3c, 0xf3, 0xcd, 0x17, 0xbf,
  0xf6, 0x0e, 0x3b, 0xbf, 0xbc, 0x2d, 0xba, 0x3c, 0x9b, 0xb4, 0x5c, 0xbd,
  0xf3, 0xfe, 0xd4, 0xbd, 0xc2, 0x2d, 0x2b, 0x3d, 0x82, 0x07, 0xd0, 0x3d,
  0x7d, 0x3d, 0x11, 0xbe, 0x19, 0x18, 0xa1, 0xbe, 0x55, 0x57, 0xfa, 0x3d,
  0xea, 0x22, 0x29, 0xbe, 0xf2, 0x9c, 0x90, 0xbc, 0xe0, 0xe9, 0xef, 0x39,
  0xb6, 0x23, 0xcc, 0xbd, 0x44, 0x0a, 0x4d, 0x3d, 0xb0, 0x6f, 0x82, 0x3e,
  0xab, 0x53, 0xf5, 0xbd, 0x56, 0x09, 0xb0, 0xbc, 0x2e, 0x54, 0x03, 0x3d,
  0x83, 0x4e, 0x38, 0x3e, 0x47, 0x9b, 0xc1, 0xbd, 0x35, 0xcb, 0x62, 0x3e,
  0xe0, 0x70, 0x21, 0xbd, 0x90, 0x3f, 0x18, 0x3e, 0x34, 0x89, 0x8e, 0x3d,
  0x18, 0xba, 0xbe, 0xbd, 0xcd, 0xfd, 0xc6, 0xbc, 0x71, 0x99, 0x3f, 0x3e,
  0xf2, 0x6c, 0x08, 0xbc, 0x6d, 0xde, 0x83, 0xbc, 0x50, 0xc0, 0x54, 0xbd,
  0xc8, 0x64, 0x09, 0x3f, 0x9d, 0xa9, 0xf7, 0xbd, 0x33, 0x13, 0x88, 0x3d,
  0xc1, 0x44, 0x45, 0x3d, 0x77, 0xec, 0x3a, 0x3e, 0x09, 0xab, 0x0c, 0xbd,
  0x00, 0x53, 0x13, 0xbd, 0x90, 0xa7, 0x83, 0xbd, 0xe7, 0x31, 0xf9, 0x3d,
  0x84, 0x9a, 0x1d, 0x3e, 0xf9, 0xd0, 0x85, 0xbd, 0x52, 0xf4, 0x8d, 0xbd,
  0x64, 0xe3, 0x5b, 0x3e, 0xaa, 0x32, 0x91, 0xbe, 0xc9, 0xaf, 0x32, 0x3e,
  0xf3, 0x79, 0x38, 0xbe, 0x35, 0x09, 0xf1, 0x3c, 0x78, 0x73, 0x2d, 0xbd,
  0xdc, 0x72, 0x1b, 0x3d, 0x4d, 0xbf, 0xdc, 0xbd, 0x9d, 0xa3, 0x21, 0xbe,
  0xb0, 0xc8, 0x0d, 0xbe, 0x61, 0x74, 0x99, 0xbe, 0xc7, 0xbd, 0xa9, 0xbd,
  0x1b, 0xbf, 0x9b, 0x3e, 0xc0, 0x64, 0x41, 0xbe, 0x33, 0x3e, 0x20, 0xbe,
  0x07, 0x76, 0xdb, 0xbd, 0x28, 0xb4, 0x02, 0x3e, 0x33, 0x5c, 0xf7, 0xbc,
  0x56, 0xb5, 0x11, 0xbe, 0x25, 0x98, 0x10, 0x3e, 0x4f, 0x89, 0x02, 0xbf,
  0x06, 0xd4, 0x4f, 0x3d, 0xa5, 0x6d, 0x66, 0x3d, 0x25, 0x0f, 0xc7, 0xbd,
  0x15, 0xf6, 0x31, 0x3e, 0xeb, 0x2d, 0xed, 0x3d, 0x45, 0x4d, 0x79, 0x3d,
  0x57, 0xff, 0x15, 0x3e, 0xe0, 0xc5, 0xdd, 0x3d, 0xbe, 0x23, 0x32, 0x3d,
  0x3a, 0xaa, 0x98, 0x3e, 0x97, 0xe5, 0x15, 0x3d, 0xa1, 0x9c, 0x5c, 0x3e,
  0x31, 0x88, 0xa0, 0xbe, 0xc8, 0x3f, 0x13, 0xbd, 0x7c, 0xc8, 0xd4, 0x3c,
  0xac, 0x27, 0x18, 0x3d, 0x33, 0x48, 0x85, 0x3d, 0xc0, 0x6e, 0xcb, 0xbc,
  0xff, 0x08, 0xa7, 0x3c, 0xfb, 0x22, 0xa3, 0xbc, 0x82, 0x36, 0xb7, 0xbe,
  0xf1, 0x74, 0x0a, 0x3d, 0x68, 0x43, 0xcd, 0xbd, 0xe5, 0x39, 0x39, 0xbe,
  0x6a, 0x7a, 0x39, 0xbe, 0x30, 0x2f, 0x32, 0xbe, 0xdb, 0x73, 0xfd, 0x3d,
  0x84, 0xcd, 0x83, 0xbe, 0xa6, 0xba, 0xab, 0xbd, 0x88, 0xf3, 0xbe, 0xbd,
  0xfc, 0xa7, 0x60, 0xbc, 0xdd, 0xe3, 0x59, 0xbe, 0x57, 0xf5, 0xba, 0x3d,
  0x8c, 0x45, 0x8a, 0xbc, 0x33, 0xed, 0x26, 0x3c, 0x9a, 0x99, 0x88, 0x3d,
  0xbe, 0x58, 0xc0, 0xbd, 0xc1, 0xae, 0xa1, 0xbe, 0xe3, 0xe0, 0x26, 0xbe,
  0xa9, 0xcd, 0x49, 0xbd, 0xad, 0x53, 0xab, 0xbd, 0xb7, 0x90, 0xdd, 0x3b,
  0xa8, 0x3b, 0x8d, 0xbd, 0x5c, 0x21, 0x7b, 0xbd, 0x84, 0xc0, 0x07, 0xbe,
  0x8d, 0xe8, 0xeb, 0xbd, 0xde, 0x11, 0xac, 0x3e, 0xf1, 0x9f, 0x05, 0xbe,
  0x9d, 0x80, 0x89, 0xbd, 0x3e, 0x2e, 0x85, 0x3d, 0x17, 0xb9, 0x52, 0xbc,
  0x49, 0xb8, 0x95, 0x3d, 0xfc, 0x53, 0xd6, 0xbb, 0x41, 0x57, 0x4f, 0xbe,
  0x3d, 0x38, 0xa3, 0xbd, 0x53, 0xe2, 0xa4, 0xbd, 0xdd, 0xbf, 0xc6, 0xbd,
  0x19, 0x22, 0xd1, 0x3d, 0xc0, 0xf5, 0x06, 0xbe, 0xeb, 0x92, 0x0a, 0x3d,
  0x55, 0xc8, 0xd0, 0xbd, 0x7a, 0x04, 0x0a, 0xbe, 0x62, 0xd7, 0x17, 0x3d,
  0x3f, 0x32, 0x53, 0x3c, 0x82, 0x4a, 0x84, 0xbe, 0x31, 0x3b, 0x93, 0x3d,
  0xc7, 0x3d, 0xbe, 0xbc, 0x41, 0x5a, 0x38, 0x3d, 0x8a, 0x0e, 0x10, 0xbe,
  0xdf, 0x30, 0x5c, 0xbd, 0xee, 0x40, 0xc1, 0x3d, 0x3e, 0xb4, 0x39, 0x3e,
  0x06, 0x53, 0x18, 0xbd, 0xc4, 0x2d, 0xcf, 0x3c, 0xb0, 0x86, 0x1c, 0x3b,
  0x52, 0x13, 0x05, 0x3e, 0x0c, 0x58, 0x41, 0xbd, 0x06, 0x45, 0xcb, 0xbd,
  0xd5, 0xe5, 0x00, 0xbe, 0xd2, 0x1c, 0x3f, 0x3e, 0x74, 0x0f, 0x6e, 0xbd,
  0x1b, 0x73, 0xb6, 0x3d, 0x2e, 0x83, 0xe4, 0x3c, 0x63, 0x80, 0x75, 0x3e,
  0x00, 0x78, 0xad, 0x3b, 0x39, 0xce, 0xdf, 0xbd, 0xc8, 0xfa, 0xcf, 0xbd,
  0x0a, 0xe2, 0x85, 0x3e, 0xb3, 0xaa, 0x63, 0xbd, 0x69, 0xd4, 0xd8, 0xbc,
  0xbc, 0x26, 0xa7, 0x3d, 0x36, 0xb5, 0xfa, 0x3d, 0xf0, 0x80, 0x4d, 0xbe,
  0x9e, 0x31, 0xf7, 0xbd, 0xb2, 0x63, 0x29, 0xbe, 0x2c, 0x49, 0x95, 0x3e,
  0x07, 0xe4, 0x18, 0x3d, 0x0a, 0x88, 0xe2, 0xbb, 0xfe, 0x7f, 0xab, 0xbc,
  0xa5, 0xae, 0x35, 0xbd, 0x5c, 0x34, 0x0a, 0xbd, 0x04, 0x02, 0xd2, 0xbd,
  0xf7, 0x4f, 0x90, 0x3d, 0x79, 0x68, 0x64, 0x3e, 0x5d, 0x68, 0xb4, 0xbd,
  0xde, 0xbf, 0x17, 0xbe, 0xa2, 0xe7, 0xf6, 0xbb, 0x11, 0xf1, 0x34, 0x3e,
  0x3c, 0xa3, 0x6f, 0xbe, 0xfb, 0x91, 0x15, 0xbe, 0xbb, 0x73, 0xbe, 0xbe,
  0xfb, 0xb7, 0xe7, 0xba, 0xaf, 0x96, 0xf9, 0xbd, 0x9e, 0x64, 0xd3, 0xbe,
  0x7b, 0x57, 0x06, 0xbf, 0xb8, 0x5e, 0xd3, 0x3d, 0x26, 0xc1, 0xbb, 0x3d,
  0xb6, 0x2d, 0xd5, 0xbd, 0x95, 0x69, 0x4f, 0x3e, 0xea, 0x23, 0x21, 0xbe,
  0xd2, 0x3d, 0xce, 0xbc, 0x57, 0x3f, 0x6b, 0xbd, 0x67, 0x11, 0x4e, 0xbe,
  0x3e, 0xe1, 0x58, 0x3c, 0x59, 0x0e, 0x89, 0xbe, 0x33, 0xc3, 0x44, 0xbc,
  0x97, 0xcb, 0xa4, 0xbd, 0x06, 0x0b, 0xbd, 0xbe, 0x2b, 0x2d, 0x6b, 0xbd,
  0xcc, 0x58, 0x90, 0xbe, 0x7d, 0xba, 0x41, 0xbf, 0xe8, 0x1b, 0x47, 0xbe,
  0x19, 0x0e, 0x03, 0xbe, 0xd2, 0xb9, 0x0f, 0x3e, 0x75, 0x2d, 0xbb, 0xbc,
  0x7b, 0x19, 0x18, 0xbe, 0x0f, 0x8c, 0x06, 0xbe, 0xec, 0xfb, 0xbd, 0x3c,
  0x75, 0x63, 0x36, 0xbd, 0xf1, 0xa0, 0x94, 0xbd, 0x7c, 0xce, 0x25, 0xbd,
  0xd5, 0xd7, 0x84, 0x3c, 0x01, 0x9f, 0x16, 0xbe, 0x66, 0xff, 0x15, 0xbe,
  0xf6, 0x2e, 0x0d, 0x3d, 0x1c, 0x49, 0xb9, 0xbe, 0x52, 0x4c, 0xf2, 0xbe,
  0x54, 0x71, 0x89, 0xba, 0x29, 0xbe, 0x38, 0xbe, 0x62, 0xe8, 0xf7, 0xbd,
  0xe2, 0x6e, 0xf5, 0xbd, 0xbd, 0xcf, 0xfe, 0xba, 0x81, 0xb9, 0x02, 0x3b,
  0x92, 0x07, 0x0d, 0xbe, 0x6f, 0x64, 0x8c, 0xbd, 0xde, 0x6e, 0xc0, 0x3d,
  0xac, 0xb5, 0x80, 0xbd, 0x6f, 0x7d, 0xfa, 0xbb, 0x14, 0x27, 0x63, 0x3e,
  0x0b, 0xb5, 0xa0, 0xbe, 0x50, 0xc8, 0x82, 0xbe, 0x89, 0xac, 0x47, 0xbe,
  0xca, 0x3f, 0x0f, 0xbf, 0x11, 0xe6, 0x4a, 0xbe, 0x50, 0xd4, 0xf0, 0xbd,
  0x6f, 0x97, 0x66, 0x3b, 0x27, 0x06, 0x2f, 0x3e, 0x3b, 0xf6, 0xda, 0xbd,
  0x79, 0x31, 0x46, 0x3d, 0xf2, 0xaa, 0x1b, 0xbd, 0xff, 0x2d, 0x45, 0xbd,
  0xe2, 0xbc, 0xdf, 0xbd, 0xcc, 0x1e, 0xa5, 0xbd, 0xd4, 0x2e, 0x7a, 0xbd,
  0x3f, 0xe5, 0x4a, 0xbe, 0xba, 0x30, 0x92, 0xbe, 0xae, 0x40, 0x89, 0xbe,
  0xd0, 0x20, 0xb1, 0xbd, 0x47, 0x3d, 0xed, 0xbe, 0xc5, 0x46, 0xe3, 0xbd,
  0x30, 0x16, 0x9a, 0xbd, 0x8b, 0x64, 0x5f, 0x3e, 0x24, 0x6b, 0x1c, 0x3e,
  0x26, 0xf6, 0xae, 0xbd, 0x48, 0x20, 0xe1, 0x3d, 0x26, 0xaa, 0x93, 0x3c,
  0x48, 0x45, 0xd3, 0xbc, 0xec, 0xc8, 0x9d, 0x3d, 0x7c, 0x55, 0x91, 0x3c,
  0x25, 0x42, 0xac, 0x3d, 0x8c, 0xd3, 0x09, 0x3d, 0x8f, 0xde, 0xdb, 0x3d,
  0x88, 0x13, 0x3e, 0xbf, 0xe6, 0x01, 0x2f, 0xbc, 0x94, 0x97, 0xac, 0xbe,
  0xfc, 0x1c, 0x4b, 0x3e, 0x56, 0xb4, 0x48, 0x3d, 0xdf, 0x8f, 0x91, 0x3e,
  0x1b, 0xaf, 0x73, 0x3d, 0xc1, 0x05, 0xab, 0x3e, 0xe2, 0x5b, 0x4a, 0x3e,
  0xce, 0xe9, 0x5e, 0xbe, 0x15, 0x7e, 0xf8, 0xbd, 0xd7, 0x2b, 0x8b, 0x3e,
  0xb5, 0xd5, 0x9f, 0xbd, 0xd7, 0x72, 0x92, 0xbd, 0x95, 0x49, 0x02, 0xbe,
  0x5f, 0xc4, 0xf2, 0x3e, 0xc5, 0x8f, 0x42, 0xbe, 0xb6, 0x6a, 0x67, 0xbd,
  0x6e, 0x68, 0x92, 0xbe, 0x06, 0x3c, 0xc8, 0x3d, 0x98, 0x11, 0x11, 0x3e,
  0x56, 0x32, 0x3e, 0xbd, 0xdb, 0x95, 0xe0, 0xbd, 0xd5, 0x43, 0xb4, 0x3c,
  0xd7, 0x0e, 0x08, 0x3e, 0x35, 0x45, 0x4e, 0xbd, 0xae, 0x6a, 0x9a, 0xbd,
  0xf2, 0x9a, 0x03, 0x3e, 0x44, 0x25, 0x44, 0xbe, 0x83, 0xf0, 0x9e, 0xbd,
  0xa4, 0x66, 0xe6, 0xbe, 0xd0, 0x39, 0x81, 0x3e, 0x2c, 0xb0, 0x32, 0xbd,
  0x74, 0x3b, 0xb6, 0xbd, 0x47, 0x4a, 0x00, 0xbe, 0x27, 0xe4, 0x93, 0xbe,
  0xa7, 0xa3, 0xc7, 0xbc, 0x42, 0xd5, 0xd8, 0xbd, 0x49, 0xfd, 0x28, 0xbe,
  0x23, 0xde, 0x7f, 0xbe, 0x11, 0xde, 0x70, 0xbd, 0x16, 0xeb, 0xfc, 0x3d,
  0x6c, 0x76, 0x93, 0xbe, 0x82, 0xae, 0x9c, 0x3d, 0x7b, 0xe2, 0x83, 0x3e,
  0x3f, 0x76, 0xaa, 0xbd, 0x68, 0xf2, 0x3f, 0xbe, 0x3d, 0xc0, 0xd7, 0x3e,
  0xcd, 0x82, 0x85, 0xbc, 0xc3, 0x3b, 0x5a, 0xbd, 0x4a, 0x77, 0x1b, 0x3e,
  0xe7, 0xa3, 0x9e, 0xbc, 0xc1, 0xb1, 0xc1, 0x3d, 0x41, 0x21, 0x4e, 0x3d,
  0x5b, 0x5e, 0x2a, 0x3e, 0x4c, 0x52, 0xb0, 0x3d, 0x90, 0xae, 0xc9, 0xbd,
  0xda, 0x70, 0x4c, 0xbd, 0x9c, 0x89, 0x2b, 0xbe, 0x67, 0xd7, 0x2e, 0x3e,
  0xd5, 0xaa, 0xe0, 0xbc, 0x10, 0x12, 0x07, 0x3e, 0xd1, 0xd0, 0x6b, 0xbd,
  0x83, 0xda, 0x52, 0x3e, 0x0d, 0x68, 0x4f, 0x3d, 0xfd, 0x1c, 0x8e, 0xbd,
  0xa7, 0x3b, 0x08, 0x3e, 0x2e, 0x83, 0x18, 0x3e, 0x17, 0xa3, 0x15, 0xbe,
  0x31, 0x85, 0xbb, 0x3d, 0x86, 0x05, 0x73, 0x3e, 0x67, 0xe4, 0x29, 0x3e,
  0xc7, 0xc4, 0x02, 0x3e, 0x0b, 0xe7, 0x73, 0xbd, 0x5e, 0x42, 0x42, 0x3b,
  0x96, 0x75, 0x6c, 0xbe, 0x4d, 0xf0, 0x1e, 0x3e, 0xb5, 0x5e, 0x47, 0x3e,
  0xe2, 0xe7, 0x77, 0xbe, 0x1f, 0xe7, 0x41, 0x3e, 0xb8, 0xe6, 0x09, 0x3d,
  0x7d, 0x05, 0x14, 0x3c, 0x05, 0xcc, 0x9c, 0x3d, 0x9c, 0x25, 0x1d, 0xbc,
  0x6b, 0x85, 0x84, 0x3d, 0x08, 0xd5, 0x02, 0x3e, 0x98, 0x10, 0xa0, 0x3d,
  0x6f, 0x60, 0xb2, 0x3d, 0xe3, 0xfa, 0xd4, 0x3d, 0x6b, 0x02, 0xba, 0xbd,
  0xa0, 0x5d, 0xbc, 0xbe, 0x4a, 0xfa, 0xfb, 0xbd, 0xac, 0xf4, 0x47, 0x3d,
  0xca, 0xb0, 0xa7, 0xbb, 0xd8, 0x68, 0xa5, 0xbd, 0x2f, 0x1f, 0x9c, 0xbd,
  0x5c, 0x52, 0x55, 0x3e, 0xbe, 0x70, 0x30, 0xbd, 0x81, 0x28, 0x0d, 0x3e,
  0x99, 0x40, 0x05, 0xbd, 0x3e, 0xb3, 0xb9, 0x3e, 0x8d, 0xc9, 0x0c, 0x3b,
  0x85, 0xe3, 0x01, 0x3d, 0x52, 0x00, 0x21, 0xbd, 0x6c, 0xd7, 0xb6, 0xbd,
  0x8f, 0x3e, 0x6a, 0x3e, 0xf5, 0xa3, 0x41, 0xbe, 0xd7, 0xa8, 0x0b, 0x3e,
  0x8a, 0x0d, 0x8b, 0x3e, 0x08, 0x0c, 0x81, 0x3e, 0x1e, 0xef, 0x9f, 0xbd,
  0xda, 0x8e, 0xac, 0x3d, 0x67, 0x6c, 0x57, 0x3b, 0x53, 0x4a, 0xf0, 0xbd,
  0x53, 0x28, 0x9b, 0xbe, 0x14, 0x5a, 0xa6, 0xbd, 0x4d, 0xa2, 0xe2, 0x3d,
  0x4f, 0x28, 0x49, 0xbe, 0xed, 0x3d, 0xc0, 0x3c, 0xd6, 0x66, 0xda, 0xbd,
  0xf4, 0x3d, 0xca, 0x3d, 0x26, 0xce, 0xfa, 0x3b, 0xe3, 0xa0, 0x7f, 0xbe,
  0x4a, 0x22, 0x2a, 0xbe, 0x7a, 0x6a, 0xaa, 0x3e, 0xb0, 0x9e, 0x59, 0xbd,
  0x58, 0xe6, 0x77, 0x3c, 0x8e, 0xb5, 0x60, 0xbe, 0x31, 0xa9, 0x05, 0xbe,
  0x96, 0x12, 0x8c, 0xbc, 0x33, 0xa2, 0x67, 0xb7, 0xed, 0x68, 0x78, 0xbd,
  0x34, 0x50, 0x63, 0xbe, 0x82, 0x1d, 0x1c, 0x3e, 0x7a, 0x84, 0x29, 0x3d,
  0x2d, 0x63, 0x52, 0xbe, 0x21, 0x52, 0x95, 0x3d, 0x21, 0x3f, 0x38, 0x3d,
  0xe7, 0xed, 0x26, 0xbe, 0xf5, 0x4d, 0xc7, 0x3b, 0x56, 0xd5, 0x2a, 0x3e,
  0x7e, 0x30, 0x4a, 0x3d, 0xb4, 0xa7, 0xea, 0x3d, 0xd0, 0x30, 0xca, 0xbd,
  0x73, 0x91, 0xd2, 0xbd, 0xa3, 0x2d, 0x1a, 0xbe, 0xf9, 0x2f, 0xf7, 0x3e,
  0x08, 0x8d, 0x31, 0xbe, 0xb3, 0x53, 0x45, 0xbe, 0x28, 0x6d, 0xd5, 0xbd,
  0x19, 0x45, 0x06, 0x3d, 0x4c, 0x38, 0x56, 0xbe, 0x3c, 0xf9, 0x9f, 0xbd,
  0x55, 0x8c, 0x99, 0xbc, 0xc6, 0x2c, 0x23, 0xbe, 0xe0, 0xf5, 0x47, 0xbd,
  0xa5, 0xcc, 0xaf, 0x3e, 0xd2, 0x3c, 0x19, 0x3e, 0xf1, 0x49, 0x20, 0xbe,
  0x47, 0x15, 0x91, 0x3b, 0xf6, 0x4b, 0x22, 0xbe, 0x32, 0xbd, 0x5f, 0x3d,
  0x0c, 0x57, 0xe1, 0x3d, 0x57, 0xb8, 0x7c, 0x3d, 0x09, 0x07, 0x01, 0x3e,
  0x03, 0x65, 0xfb, 0xbd, 0x9d, 0x3e, 0xcc, 0x3d, 0x1e, 0x61, 0xe2, 0x3d,
  0xac, 0xf1, 0x17, 0x3e, 0x17, 0xd8, 0x15, 0xbc, 0xeb, 0x8d, 0x31, 0xbe,
  0xb5, 0xb1, 0x68, 0x3b, 0x36, 0x7e, 0x09, 0x3f, 0x13, 0xbd, 0x91, 0x3e,
  0xed, 0x3d, 0x0a, 0x3e, 0xc1, 0xca, 0x80, 0xbd, 0x3f, 0x2e, 0x20, 0x3d,
  0xc7, 0x69, 0x0c, 0x3e, 0x4d, 0x38, 0xfb, 0xbd, 0x32, 0x19, 0x28, 0xbe,
  0x32, 0x10, 0x0a, 0x3e, 0xa7, 0x4d, 0x77, 0x3e, 0x51, 0xcb, 0x79, 0x3e,
  0xeb, 0xf7, 0x55, 0xbd, 0xc2, 0x63, 0x91, 0x3e, 0x75, 0xb7, 0x7b, 0x3d,
  0x67, 0xbf, 0x67, 0x3d, 0x56, 0x53, 0xc1, 0x3e, 0x48, 0x84, 0xf6, 0x3e,
  0x82, 0x49, 0xd0, 0x3d, 0x88, 0x60, 0xae, 0x3c, 0x48, 0x2d, 0xa5, 0x3e,
  0xb9, 0xe2, 0x90, 0x3c, 0x89, 0x46, 0x70, 0xbd, 0x7c, 0xf2, 0x0c, 0x3c,
  0xf3, 0xb0, 0xc2, 0x3c, 0xdc, 0x86, 0x3a, 0x3e, 0x48, 0xc5, 0x08, 0x3e,
  0x0d, 0xab, 0xe5, 0xbd, 0xcf, 0x91, 0x30, 0x3e, 0x44, 0xd7, 0xc1, 0x3e,
  0xe2, 0xda, 0xd7, 0x3d, 0x3b, 0x3a, 0x41, 0xbe, 0xee, 0xc8, 0x50, 0x3e,
  0x49, 0x75, 0x33, 0x3e, 0x9e, 0xd7, 0x3b, 0x3e, 0x93, 0xe6, 0xf7, 0x3d,
  0x37, 0x06, 0xaa, 0xbe, 0x67, 0x32, 0x2e, 0xbe, 0x3c, 0xd3, 0x88, 0xbb,
  0x96, 0xe1, 0x24, 0xbe, 0xa5, 0xce, 0x6f, 0x3d, 0x2a, 0x28, 0x1d, 0x3e,
  0xbb, 0x78, 0xa2, 0x3d, 0x1d, 0x81, 0x14, 0x3d, 0xe4, 0xed, 0xa0, 0x3d,
  0x63, 0xd8, 0xea, 0x3d, 0x67, 0xbc, 0x7c, 0xbe, 0x12, 0xd8, 0x85, 0xbe,
  0xd1, 0xb3, 0x02, 0xbe, 0x5b, 0xf4, 0x84, 0x3e, 0x1b, 0x69, 0x5b, 0x3e,
  0x51, 0xfc, 0x50, 0xbd, 0x7d, 0x98, 0x62, 0xbe, 0x85, 0xe3, 0x41, 0x3c,
  0x19, 0x6b, 0x54, 0xbe, 0xe3, 0xd4, 0x35, 0xbe, 0x7b, 0xfb, 0x25, 0xbd,
  0xc8, 0x6e, 0x50, 0x3e, 0xe6, 0xa3, 0x95, 0x3c, 0xe2, 0x36, 0x16, 0xbe,
  0xfb, 0xdb, 0x54, 0xbe, 0xbf, 0x61, 0xc0, 0x3d, 0xf4, 0xbb, 0x97, 0x3e,
  0x2e, 0xff, 0x40, 0xbe, 0x70, 0x9b, 0x33, 0x3e, 0xa3, 0x88, 0xd9, 0x3d,
  0xf0, 0xe2, 0x86, 0x3d, 0x09, 0x0a, 0x09, 0xbe, 0xde, 0x3a, 0x16, 0xbd,
  0xfc, 0xdc, 0x14, 0xbe, 0x2c, 0xae, 0xdd, 0xbc, 0x47, 0x63, 0xe7, 0xbc,
  0x3d, 0x61, 0x62, 0xbe, 0x83, 0x8e, 0x12, 0x3d, 0xae, 0x9a, 0x6a, 0x3e,
  0x99, 0x0b, 0x76, 0xbe, 0x99, 0xd0, 0x8b, 0xbe, 0xb3, 0x37, 0x60, 0xbe,
  0x21, 0x63, 0xcc, 0x3d, 0xe8, 0xdb, 0xc2, 0xbe, 0x42, 0xd6, 0x1d, 0xbc,
  0x3d, 0x64, 0x32, 0x3f, 0x1e, 0xc6, 0x35, 0x3d, 0x54, 0xae, 0xe6, 0x3d,
  0x06, 0xa9, 0x45, 0xbd, 0xf0, 0xc0, 0xc4, 0x3d, 0x9f, 0xdd, 0xc2, 0x3c,
  0xd0, 0x60, 0x15, 0xbe, 0x13, 0x84, 0xc2, 0xbe, 0x57, 0x2c, 0x77, 0xbe,
  0x83, 0xc6, 0x81, 0x3d, 0xda, 0x2a, 0x79, 0x3e, 0x6d, 0x89, 0x8f, 0xbe,
  0x55, 0x2e, 0x84, 0xbe, 0xcd, 0x83, 0xba, 0xbe, 0xd5, 0x85, 0xf9, 0x3d,
  0x4a, 0x49, 0xb6, 0xbe, 0xfb, 0x5d, 0x59, 0x3b, 0x72, 0x19, 0xd7, 0xbe,
  0x19, 0x88, 0x8e, 0x3f, 0xca, 0xa4, 0x10, 0xbe, 0x5d, 0xca, 0x57, 0xbb,
  0x2e, 0xfd, 0xeb, 0x3d, 0x67, 0xb4, 0xec, 0xbc, 0xc7, 0xb9, 0x82, 0x3e,
  0x4f, 0x4b, 0x0b, 0x3d, 0xf9, 0x05, 0xd5, 0xbd, 0x6a, 0x24, 0x59, 0x3e,
  0x00, 0xea, 0xfd, 0xbd, 0xc9, 0xc6, 0x73, 0xbe, 0x67, 0x0c, 0x3e, 0xbe,
  0x10, 0xf7, 0xb1, 0x3c, 0xf6, 0x35, 0x71, 0x3e, 0x7a, 0xf6, 0xf1, 0xbe,
  0x5c, 0x10, 0xf2, 0xbd, 0x84, 0xb9, 0x41, 0x3f, 0x26, 0x4f, 0x14, 0xbf,
  0x43, 0xce, 0x6c, 0x3e, 0x9b, 0xb0, 0x50, 0x3e, 0xef, 0xd7, 0xe6, 0xbc,
  0xcd, 0x67, 0x1c, 0xbd, 0x89, 0xf0, 0xed, 0xbd, 0xb6, 0x44, 0x08, 0xbe,
  0x92, 0xab, 0x87, 0xbe, 0x60, 0x0b, 0xa0, 0x3d, 0x88, 0x85, 0x6e, 0xbe,
  0x8a, 0x38, 0xa0, 0xbe, 0xf3, 0xc2, 0x07, 0xbd, 0x7c, 0x1d, 0x3e, 0x3c,
  0x3a, 0x61, 0xb7, 0xbe, 0x4e, 0x6c, 0x42, 0x3d, 0x68, 0xeb, 0x8c, 0x3f,
  0x86, 0x2a, 0xa4, 0xbe, 0x84, 0xef, 0xbb, 0x3e, 0x42, 0xa0, 0x95, 0x3e,
  0xc0, 0xb9, 0x09, 0xbd, 0x8b, 0x58, 0x4a, 0xbd, 0x25, 0x04, 0xe1, 0x3c,
  0x9e, 0xa2, 0x1f, 0x3e, 0x09, 0xbe, 0x85, 0xbe, 0x25, 0x97, 0xdc, 0x3d,
  0xef, 0x73, 0xaf, 0xbd, 0x37, 0x21, 0xd2, 0xbe, 0x6e, 0x17, 0x13, 0xbd,
  0x6a, 0x12, 0x77, 0x3e, 0xed, 0x1a, 0x92, 0xbe, 0xed, 0xb9, 0x0c, 0xbe,
  0x9b, 0xf0, 0x7d, 0x3f, 0x47, 0x21, 0xc9, 0xbd, 0x81, 0x2c, 0xe0, 0x3e,
  0xcc, 0x48, 0x69, 0x3e, 0x36, 0x66, 0xd7, 0x3c, 0x3e, 0x4b, 0xdb, 0xbe,
  0xc4, 0x20, 0xd8, 0xbd, 0xda, 0xc2, 0x22, 0xbe, 0x43, 0x07, 0x08, 0xbe,
  0x20, 0xc5, 0x58, 0xbe, 0x17, 0x58, 0x23, 0xbf, 0x7f, 0x80, 0x62, 0xbe,
  0x2e, 0x3d, 0xfe, 0xbd, 0xa1, 0x7d, 0xc6, 0xbe, 0xe3, 0x1b, 0x7b, 0xbe,
  0x52, 0x50, 0xd8, 0xbe, 0x87, 0xac, 0x81, 0x3f, 0x7b, 0x39, 0x0c, 0xbf,
  0x8f, 0x1b, 0x3c, 0x3e, 0x55, 0x0a, 0xf0, 0x3d, 0x5c, 0xf7, 0x90, 0xbd,
  0xf1, 0x49, 0x59, 0xbe, 0xef, 0x59, 0x11, 0x3d, 0x62, 0x55, 0x55, 0x3e,
  0xe8, 0xc8, 0xe2, 0x3d, 0x63, 0xcb, 0x3e, 0xbe, 0x4b, 0xbb, 0xd3, 0xbe,
  0xd0, 0x06, 0xc0, 0xbb, 0xd2, 0xda, 0x9f, 0x3d, 0x25, 0x53, 0x3d, 0xbe,
  0x1d, 0x91, 0x2b, 0xbe, 0x54, 0x7a, 0xd6, 0xbe, 0x2f, 0xf5, 0x75, 0x3f,
  0x47, 0x1b, 0x43, 0xbe, 0x60, 0xee, 0x8b, 0x3d, 0x38, 0x40, 0xe1, 0x3d,
  0x54, 0x34, 0xaa, 0x3c, 0xee, 0x4a, 0xa5, 0xbe, 0x1c, 0xef, 0xdd, 0xbd,
  0x6a, 0x4c, 0x2c, 0xbe, 0x75, 0x91, 0xf6, 0x3d, 0x32, 0xaf, 0x79, 0x3a,
  0xd2, 0x80, 0x66, 0xbe, 0x4e, 0xf2, 0x31, 0xbe, 0x89, 0x76, 0x13, 0x3b,
  0x69, 0x4e, 0x11, 0xbe, 0x10, 0x2f, 0x97, 0xbe, 0xa2, 0x27, 0x06, 0xbe,
  0x9a, 0x37, 0xf6, 0x3e, 0x86, 0xf2, 0xb4, 0xbd, 0x97, 0x23, 0x15, 0xbd,
  0x83, 0xb8, 0x5c, 0xbe, 0x48, 0x1d, 0xf3, 0xbd, 0x49, 0xb1, 0xbc, 0xbd,
  0xb2, 0xbd, 0x94, 0xbe, 0x0f, 0xc6, 0x67, 0x3b, 0x9c, 0xd4, 0x76, 0x3e,
  0x17, 0x97, 0x50, 0xbe, 0x20, 0xdd, 0xea, 0xbd, 0xdc, 0xdc, 0x40, 0xbd,
  0xf3, 0x4f, 0x18, 0xbf, 0x3d, 0x97, 0xb2, 0x3d, 0x72, 0x76, 0x63, 0x3e,
  0x02, 0xe6, 0x20, 0xbe, 0x01, 0xf7, 0xae, 0x3f, 0x8b, 0x81, 0x22, 0xbe,
  0xcd, 0xd6, 0x97, 0x3d, 0x33, 0x36, 0x95, 0x3d, 0xcf, 0x94, 0x86, 0x3c,
  0x92, 0xcb, 0x40, 0xbe, 0xad, 0x28, 0x86, 0x3c, 0x18, 0xb4, 0x57, 0xbe,
  0x25, 0x19, 0x81, 0xbd, 0x01, 0xc2, 0xbf, 0xbd, 0xc7, 0x3b, 0x22, 0xbe,
  0x74, 0xde, 0x50, 0x3e, 0x8e, 0xb8, 0x65, 0xbe, 0xd1, 0xf8, 0xb8, 0xbd,
  0x48, 0xec, 0x8c, 0x3e, 0xb2, 0xb9, 0x43, 0xbe, 0xa8, 0x27, 0xb7, 0x3f,
  0x07, 0x85, 0x57, 0xbc, 0x83, 0x0a, 0x67, 0x3e, 0xed, 0x55, 0x89, 0xbd,
  0x7f, 0xd7, 0xe1, 0x3d, 0x85, 0x59, 0xbe, 0xbb, 0xdc, 0x82, 0x78, 0xbe,
  0x2b, 0xb3, 0x4a, 0x3e, 0x4c, 0xc4, 0x81, 0xbe, 0x9f, 0x3b, 0x1c, 0xbd,
  0x23, 0x44, 0x0d, 0xbe, 0x79, 0x4c, 0x66, 0x3e, 0xef, 0xaa, 0x95, 0xbe,
  0x2f, 0x9d, 0xb6, 0xbc, 0x2f, 0x0a, 0x5f, 0x3e, 0x14, 0xe2, 0x57, 0xbe,
  0x62, 0x05, 0x92, 0x3f, 0x1d, 0xdd, 0x97, 0x3d, 0x6c, 0x09, 0xec, 0x3e,
  0x09, 0x7a, 0x1a, 0x3d, 0x31, 0xad, 0xe3, 0x3d, 0x1d, 0x36, 0xa0, 0xbb,
  0x6b, 0x4b, 0x72, 0x3d, 0x93, 0x15, 0x45, 0xbe, 0x2f, 0xfd, 0xe2, 0xbd,
  0x63, 0x79, 0x24, 0x3e, 0xa0, 0xc6, 0x08, 0xbe, 0xd1, 0xe4, 0x07, 0xbd,
  0x6d, 0xb3, 0xdc, 0xbe, 0xad, 0x7c, 0x17, 0xbe, 0xce, 0xa4, 0xa4, 0x3e,
  0x60, 0xc9, 0x82, 0xbe, 0x54, 0x5a, 0x87, 0x3f, 0x6e, 0x6a, 0x31, 0xbe,
  0xfe, 0x4a, 0x95, 0x3e, 0x1f, 0xa8, 0x39, 0x3d, 0xde, 0xff, 0xeb, 0xbd,
  0xb1, 0x75, 0x99, 0xbd, 0x53, 0xda, 0x30, 0xbc, 0xc7, 0x21, 0x18, 0x3e,
  0x34, 0x7e, 0xb2, 0xbd, 0xa9, 0x1a, 0x20, 0x3d, 0xd4, 0xb2, 0x94, 0xbe,
  0x4d, 0xe7, 0x33, 0xbc, 0x40, 0x53, 0xba, 0xbe, 0x6f, 0x5d, 0xfd, 0x3b,
  0xaf, 0x5b, 0x85, 0x3e, 0x16, 0x61, 0x06, 0x3d, 0x5f, 0xea, 0xbe, 0x3f,
  0x55, 0x42, 0x15, 0x3e, 0xfa, 0x80, 0x66, 0x3e, 0x8a, 0x7c, 0x95, 0xbd,
  0xbf, 0xdd, 0x59, 0xbd, 0x42, 0xf4, 0x77, 0xbe, 0x7e, 0x96, 0xa6, 0xbd,
  0xc4, 0x6e, 0x3e, 0x3e, 0xc0, 0xcb, 0x93, 0x3d, 0x15, 0x0f, 0xa3, 0xbb,
  0x29, 0xd9, 0xdd, 0xbc, 0xbe, 0x9b, 0x56, 0xbc, 0x76, 0xef, 0xd2, 0xbe,
  0x67, 0x41, 0x85, 0xbc, 0x8b, 0x42, 0xc3, 0x3e, 0x1e, 0x5e, 0x92, 0xbe,
  0xec, 0x45, 0xb2, 0x3f, 0x98, 0xc2, 0x83, 0xbc, 0x5a, 0x31, 0xf2, 0xbd,
  0xe0, 0x28, 0xff, 0xbd, 0xc1, 0x1a, 0xae, 0xbc, 0x79, 0x8c, 0x16, 0xbe,
  0x28, 0xc8, 0x1d, 0xbe, 0x35, 0x1f, 0xf1, 0x3d, 0xb4, 0xe9, 0x4e, 0xbe,
  0x54, 0xf1, 0x8d, 0xbe, 0x7d, 0x82, 0x41, 0xbe, 0x4f, 0xf5, 0x73, 0xbe,
  0x87, 0x68, 0xb4, 0xbe, 0xdf, 0x0e, 0x60, 0x3d, 0xf5, 0xa9, 0x27, 0xba,
  0x69, 0x17, 0x38, 0xbe, 0xfe, 0x54, 0x52, 0x3f, 0xfc, 0x44, 0xa0, 0xbd,
  0x66, 0xfd, 0xff, 0xff, 0x10, 0x00, 0x00, 0x00, 0x07, 0x00, 0x00, 0x00,
  0x14, 0x00, 0x00, 0x00, 0x2c, 0x00, 0x00, 0x00, 0x02, 0x00, 0x00, 0x00,
  0x10, 0x00, 0x00, 0x00, 0x70, 0x00, 0x00, 0x00, 0x17, 0x00, 0x00, 0x00,
  0x73, 0x65, 0x71, 0x75, 0x65, 0x6e, 0x74, 0x69, 0x61, 0x6c, 0x2f, 0x64,
  0x65, 0x6e, 0x73, 0x65, 0x2f, 0x4d, 0x61, 0x74, 0x4d, 0x75, 0x6c, 0x00,
  0xd0, 0xfc, 0xff, 0xff, 0xda, 0xfd, 0xff, 0xff, 0x04, 0x00, 0x00, 0x00,
  0x08, 0x00, 0x00, 0x00, 0xff, 0xff, 0xff, 0xff, 0x70, 0x00, 0x00, 0x00,
  0x00, 0x00, 0x0e, 0x00, 0x18, 0x00, 0x08, 0x00, 0x07, 0x00, 0x0c, 0x00,
  0x10, 0x00, 0x14, 0x00, 0x0e, 0x00, 0x00, 0x00, 0x00, 0x00, 0x00, 0x02,
  0x10, 0x00, 0x00, 0x00, 0x06, 0x00, 0x00, 0x00, 0x10, 0x00, 0x00, 0x00,
  0x2c, 0x00, 0x00, 0x00, 0x01, 0x00, 0x00, 0x00, 0x02, 0x00, 0x00, 0x00,
  0x18, 0x00, 0x00, 0x00, 0x73, 0x65, 0x71, 0x75, 0x65, 0x6e, 0x74, 0x69,
  0x61, 0x6c, 0x2f, 0x66, 0x6c, 0x61, 0x74, 0x74, 0x65, 0x6e, 0x2f, 0x43,
  0x6f, 0x6e, 0x73, 0x74, 0x00, 0x00, 0x00, 0x00, 0x38, 0xfd, 0xff, 0xff,
  0x42, 0xfe, 0xff, 0xff, 0x04, 0x00, 0x00, 0x00, 0x0c, 0x00, 0x00, 0x00,
  0x20, 0xff, 0xf6, 0xbf, 0x1b, 0x8b, 0x27, 0xc0, 0x52, 0xeb, 0x4b, 0x40,
  0x26, 0xfe, 0xff, 0xff, 0x10, 0x00, 0x00, 0x00, 0x05, 0x00, 0x00, 0x00,
  0x10, 0x00, 0x00, 0x00, 0x44, 0x00, 0x00, 0x00, 0x01, 0x00, 0x00, 0x00,
  0x03, 0x00, 0x00, 0x00, 0x32, 0x00, 0x00, 0x00, 0x73, 0x65, 0x71, 0x75,
  0x65, 0x6e, 0x74, 0x69, 0x61, 0x6c, 0x2f, 0x64, 0x65, 0x6e, 0x73, 0x65,
  0x5f, 0x31, 0x2f, 0x42, 0x69, 0x61, 0x73, 0x41, 0x64, 0x64, 0x2f, 0x52,
  0x65, 0x61, 0x64, 0x56, 0x61, 0x72, 0x69, 0x61, 0x62, 0x6c, 0x65, 0x4f,
  0x70, 0x2f, 0x72, 0x65, 0x73, 0x6f, 0x75, 0x72, 0x63, 0x65, 0x00, 0x00,
  0xa8, 0xfd, 0xff, 0xff, 0xb2, 0xfe, 0xff, 0xff, 0x04, 0x00, 0x00, 0x00,
  0x40, 0x00, 0x00, 0x00, 0x67, 0x7b, 0x08, 0x3f, 0x07, 0x71, 0xee, 0x3f,
  0xc9, 0x5d, 0x97, 0xbe, 0xd5, 0xf2, 0x66, 0xbd, 0x53, 0x50, 0xa5, 0xbf,
  0x2c, 0x93, 0x17, 0xbf, 0xf3, 0x89, 0x33, 0xbf, 0xda, 0xef, 0xa7, 0xbe,
  0xd9, 0x72, 0x94, 0xbe, 0xf4, 0x62, 0x74, 0xbf, 0xe6, 0x77, 0x3e, 0xc0,
  0x40, 0x56, 0x85, 0xbe, 0x11, 0x12, 0xd5, 0xbe, 0x62, 0x15, 0x03, 0xbf,
  0x8c, 0xf9, 0x7f, 0xbd, 0xf6, 0x19, 0x1f, 0xbe, 0xca, 0xfe, 0xff, 0xff,
  0x10, 0x00, 0x00, 0x00, 0x04, 0x00, 0x00, 0x00, 0x10, 0x00, 0x00, 0x00,
  0x44, 0x00, 0x00, 0x00, 0x01, 0x00, 0x00, 0x00, 0x10, 0x00, 0x00, 0x00,
  0x30, 0x00, 0x00, 0x00, 0x73, 0x65, 0x71, 0x75, 0x65, 0x6e, 0x74, 0x69,
  0x61, 0x6c, 0x2f, 0x64, 0x65, 0x6e, 0x73, 0x65, 0x2f, 0x42, 0x69, 0x61,
  0x73, 0x41, 0x64, 0x64, 0x2f, 0x52, 0x65, 0x61, 0x64, 0x56, 0x61, 0x72,
  0x69, 0x61, 0x62, 0x6c, 0x65, 0x4f, 0x70, 0x2f, 0x72, 0x65, 0x73, 0x6f,
  0x75, 0x72, 0x63, 0x65, 0x00, 0x00, 0x00, 0x00, 0x4c, 0xfe, 0xff, 0xff,
  0x56, 0xff, 0xff, 0xff, 0x04, 0x00, 0x00, 0x00, 0x40, 0x00, 0x00, 0x00,
  0x89, 0xb8, 0x33, 0x40, 0xbf, 0xaf, 0x8d, 0xbf, 0xfb, 0x4c, 0x1f, 0x3f,
  0x44, 0x8c, 0x6f, 0xbf, 0xa6, 0x20, 0xb5, 0xbd, 0x84, 0x47, 0x6c, 0xbe,
  0x4b, 0x3c, 0xca, 0xbe, 0x53, 0xf7, 0x74, 0xbf, 0x9d, 0xbf, 0x51, 0xbd,
  0x03, 0xd5, 0x04, 0xbf, 0x4f, 0x46, 0x4a, 0xbf, 0x1b, 0x54, 0x11, 0xbf,
  0x10, 0x49, 0x60, 0xbf, 0x26, 0xcf, 0x80, 0xbd, 0x3a, 0x57, 0x39, 0x40,
  0xe8, 0x3f, 0x4c, 0xbe, 0x6e, 0xff, 0xff, 0xff, 0x10, 0x00, 0x00, 0x00,
  0x03, 0x00, 0x00, 0x00, 0x10, 0x00, 0x00, 0x00, 0x48, 0x00, 0x00, 0x00,
  0x01, 0x00, 0x00, 0x00, 0x10, 0x00, 0x00, 0x00, 0x33, 0x00, 0x00, 0x00,
  0x73, 0x65, 0x71, 0x75, 0x65, 0x6e, 0x74, 0x69, 0x61, 0x6c, 0x2f, 0x63,
  0x6f, 0x6e, 0x76, 0x32, 0x64, 0x5f, 0x31, 0x2f, 0x42, 0x69, 0x61, 0x73,
  0x41, 0x64, 0x64, 0x2f, 0x52, 0x65, 0x61, 0x64, 0x56, 0x61, 0x72, 0x69,
  0x61, 0x62, 0x6c, 0x65, 0x4f, 0x70, 0x2f, 0x72, 0x65, 0x73, 0x6f, 0x75,
  0x72, 0x63, 0x65, 0x00, 0x04, 0x00, 0x06, 0x00, 0x04, 0x00, 0x00, 0x00,
  0x00, 0x00, 0x06, 0x00, 0x08, 0x00, 0x04, 0x00, 0x06, 0x00, 0x00, 0x00,
  0x04, 0x00, 0x00, 0x00, 0x20, 0x00, 0x00, 0x00, 0xe2, 0xac, 0x89, 0xbf,
  0xa8, 0x19, 0x39, 0xc0, 0x39, 0xa9, 0x68, 0xbb, 0x48, 0x24, 0x23, 0xc0,
  0x39, 0x37, 0xc7, 0xbf, 0x2c, 0xf9, 0x57, 0xbf, 0xf1, 0x90, 0xab, 0x3f,
  0x2e, 0xab, 0x56, 0xc0, 0x00, 0x00, 0x0e, 0x00, 0x14, 0x00, 0x04, 0x00,
  0x00, 0x00, 0x08, 0x00, 0x0c, 0x00, 0x10, 0x00, 0x0e, 0x00, 0x00, 0x00,
  0x10, 0x00, 0x00, 0x00, 0x02, 0x00, 0x00, 0x00, 0x10, 0x00, 0x00, 0x00,
  0x44, 0x00, 0x00, 0x00, 0x01, 0x00, 0x00, 0x00, 0x08, 0x00, 0x00, 0x00,
  0x31, 0x00, 0x00, 0x00, 0x73, 0x65, 0x71, 0x75, 0x65, 0x6e, 0x74, 0x69,
  0x61, 0x6c, 0x2f, 0x63, 0x6f, 0x6e, 0x76, 0x32, 0x64, 0x2f, 0x42, 0x69,
  0x61, 0x73, 0x41, 0x64, 0x64, 0x2f, 0x52, 0x65, 0x61, 0x64, 0x56, 0x61,
  0x72, 0x69, 0x61, 0x62, 0x6c, 0x65, 0x4f, 0x70, 0x2f, 0x72, 0x65, 0x73,
  0x6f, 0x75, 0x72, 0x63, 0x65, 0x00, 0x00, 0x00, 0x90, 0xff, 0xff, 0xff,
  0x14, 0x00, 0x18, 0x00, 0x04, 0x00, 0x00, 0x00, 0x08, 0x00, 0x0c, 0x00,
  0x10, 0x00, 0x00, 0x00, 0x00, 0x00, 0x14, 0x00, 0x14, 0x00, 0x00, 0x00,
  0x14, 0x00, 0x00, 0x00, 0x01, 0x00, 0x00, 0x00, 0x20, 0x00, 0x00, 0x00,
  0x44, 0x00, 0x00, 0x00, 0x2c, 0x00, 0x00, 0x00, 0x04, 0x00, 0x00, 0x00,
  0x01, 0x00, 0x00, 0x00, 0x40, 0x00, 0x00, 0x00, 0x03, 0x00, 0x00, 0x00,
  0x01, 0x00, 0x00, 0x00, 0x0c, 0x00, 0x00, 0x00, 0x63, 0x6f, 0x6e, 0x76,
  0x32, 0x64, 0x5f, 0x69, 0x6e, 0x70, 0x75, 0x74, 0x00, 0x00, 0x00, 0x00,
  0x04, 0x00, 0x00, 0x00, 0xff, 0xff, 0xff, 0xff, 0x40, 0x00, 0x00, 0x00,
  0x03, 0x00, 0x00, 0x00, 0x01, 0x00, 0x00, 0x00, 0xfc, 0xff, 0xff, 0xff,
  0x04, 0x00, 0x04, 0x00, 0x04, 0x00, 0x00, 0x00
};


unsigned int model_tflite_len = 13052;// Fill the int in `src/model.cc` here